{
    "0": "\u0000",
    "1": "\u0001",
    "2": "\u0002",
    "3": "\u0003",
    "4": "\u0004",
    "5": "\u0005",
    "6": "\u0006",
    "7": "\u0007",
    "8": "\b",
    "9": "\t",
    "10": "\n",
    "11": "\u000b",
    "12": "\f",
    "13": "\r",
    "14": "\u000e",
    "15": "\u000f",
    "16": "\u0010",
    "17": "\u0011",
    "18": "\u0012",
    "19": "\u0013",
    "20": "\u0014",
    "21": "\u0015",
    "22": "\u0016",
    "23": "\u0017",
    "24": "\u0018",
    "25": "\u0019",
    "26": "\u001a",
    "27": "\u001b",
    "28": "\u001c",
    "29": "\u001d",
    "30": "\u001e",
    "31": "\u001f",
    "32": " ",
    "33": "!",
    "34": "\"",
    "35": "#",
    "36": "$",
    "37": "%",
    "38": "&",
    "39": "'",
    "40": "(",
    "41": ")",
    "42": "*",
    "43": "+",
    "44": ",",
    "45": "-",
    "46": ".",
    "47": "/",
    "48": "0",
    "49": "1",
    "50": "2",
    "51": "3",
    "52": "4",
    "53": "5",
    "54": "6",
    "55": "7",
    "56": "8",
    "57": "9",
    "58": ":",
    "59": ";",
    "60": "<",
    "61": "=",
    "62": ">",
    "63": "?",
    "64": "@",
    "65": "A",
    "66": "B",
    "67": "C",
    "68": "D",
    "69": "E",
    "70": "F",
    "71": "G",
    "72": "H",
    "73": "I",
    "74": "J",
    "75": "K",
    "76": "L",
    "77": "M",
    "78": "N",
    "79": "O",
    "80": "P",
    "81": "Q",
    "82": "R",
    "83": "S",
    "84": "T",
    "85": "U",
    "86": "V",
    "87": "W",
    "88": "X",
    "89": "Y",
    "90": "Z",
    "91": "[",
    "92": "\\",
    "93": "]",
    "94": "^",
    "95": "_",
    "96": "`",
    "97": "a",
    "98": "b",
    "99": "c",
    "100": "d",
    "101": "e",
    "102": "f",
    "103": "g",
    "104": "h",
    "105": "i",
    "106": "j",
    "107": "k",
    "108": "l",
    "109": "m",
    "110": "n",
    "111": "o",
    "112": "p",
    "113": "q",
    "114": "r",
    "115": "s",
    "116": "t",
    "117": "u",
    "118": "v",
    "119": "w",
    "120": "x",
    "121": "y",
    "122": "z",
    "123": "{",
    "124": "|",
    "125": "}",
    "126": "~",
    "127": "",
    "128": "",
    "129": "",
    "130": "",
    "131": "",
    "132": "",
    "133": "",
    "134": "",
    "135": "",
    "136": "",
    "137": "",
    "138": "",
    "139": "",
    "140": "",
    "141": "",
    "142": "",
    "143": "",
    "144": "",
    "145": "",
    "146": "",
    "147": "",
    "148": "",
    "149": "",
    "150": "",
    "151": "",
    "152": "",
    "153": "",
    "154": "",
    "155": "",
    "156": "",
    "157": "",
    "158": "",
    "159": "",
    "160": "",
    "161": "",
    "162": "",
    "163": "",
    "164": "",
    "165": "",
    "166": "",
    "167": "",
    "168": "",
    "169": "",
    "170": "",
    "171": "",
    "172": "",
    "173": "",
    "174": "",
    "175": "",
    "176": "",
    "177": "",
    "178": "",
    "179": "",
    "180": "",
    "181": "",
    "182": "",
    "183": "",
    "184": "",
    "185": "",
    "186": "",
    "187": "",
    "188": "",
    "189": "",
    "190": "",
    "191": "",
    "192": "",
    "193": "",
    "194": "",
    "195": "",
    "196": "",
    "197": "",
    "198": "",
    "199": "",
    "200": "",
    "201": "",
    "202": "",
    "203": "",
    "204": "",
    "205": "",
    "206": "",
    "207": "",
    "208": "",
    "209": "",
    "210": "",
    "211": "",
    "212": "",
    "213": "",
    "214": "",
    "215": "",
    "216": "",
    "217": "",
    "218": "",
    "219": "",
    "220": "",
    "221": "",
    "222": "",
    "223": "",
    "224": "",
    "225": "",
    "226": "",
    "227": "",
    "228": "",
    "229": "",
    "230": "",
    "231": "",
    "232": "",
    "233": "",
    "234": "",
    "235": "",
    "236": "",
    "237": "",
    "238": "",
    "239": "",
    "240": "",
    "241": "",
    "242": "",
    "243": "",
    "244": "",
    "245": "",
    "246": "",
    "247": "",
    "248": "",
    "249": "",
    "250": "",
    "251": "",
    "252": "",
    "253": "",
    "254": "",
    "255": "",
    "256": "<|endoftext|>",
    "257": " t",
    "258": "he",
    "259": " a",
    "260": " s",
    "261": " w",
    "262": " the",
    "263": "nd",
    "264": "ed",
    "265": " b",
    "266": " to",
    "267": " and",
    "268": " h",
    "269": " f",
    "270": " T",
    "271": "in",
    "272": " wa",
    "273": "re",
    "274": "it",
    "275": "ou",
    "276": " l",
    "277": " d",
    "278": " c",
    "279": " p",
    "280": "ay",
    "281": " m",
    "282": "er",
    "283": " was",
    "284": " The",
    "285": "om",
    "286": " he",
    "287": "is",
    "288": " n",
    "289": "im",
    "290": "ar",
    "291": "on",
    "292": " sa",
    "293": "ll",
    "294": "id",
    "295": " ha",
    "296": " g",
    "297": "at",
    "298": " S",
    "299": "ing",
    "300": "ot",
    "301": "en",
    "302": "an",
    "303": "le",
    "304": "or",
    "305": "ir",
    "306": "am",
    "307": "et",
    "308": " H",
    "309": " it",
    "310": " th",
    "311": "ig",
    "312": " They",
    "313": " pl",
    "314": " in",
    "315": "il",
    "316": " He",
    "317": " \"",
    "318": "ow",
    "319": "ver",
    "320": "ri",
    "321": " u",
    "322": "ut",
    "323": " play",
    "324": "ith",
    "325": " said",
    "326": " be",
    "327": " day",
    "328": " with",
    "329": "pp",
    "330": "On",
    "331": " o",
    "332": " y",
    "333": "oo",
    "334": "ked",
    "335": " r",
    "336": " her",
    "337": "ce",
    "338": "ld",
    "339": " his",
    "340": " Tim",
    "341": " I",
    "342": " She",
    "343": " st",
    "344": "ke",
    "345": " e",
    "346": " big",
    "347": "nt",
    "348": "ck",
    "349": "very",
    "350": " you",
    "351": "st",
    "352": "ve",
    "353": "end",
    "354": "un",
    "355": " happ",
    "356": " on",
    "357": "all",
    "358": "riend",
    "359": " friend",
    "360": " they",
    "361": " L",
    "362": "ily",
    "363": " we",
    "364": " had",
    "365": " up",
    "366": " li",
    "367": " not",
    "368": "her",
    "369": " want",
    "370": "itt",
    "371": " of",
    "372": "ad",
    "373": " do",
    "374": " B",
    "375": "se",
    "376": " happy",
    "377": "ent",
    "378": " very",
    "379": " M",
    "380": "es",
    "381": " saw",
    "382": "One",
    "383": " that",
    "384": "ould",
    "385": "'s",
    "386": " for",
    "387": "ittle",
    "388": " mom",
    "389": " little",
    "390": " so",
    "391": " sh",
    "392": " she",
    "393": "ime",
    "394": "ch",
    "395": " nam",
    "396": " time",
    "397": " k",
    "398": " ne",
    "399": "ound",
    "400": ".\"",
    "401": " there",
    "402": " named",
    "403": " bo",
    "404": " sm",
    "405": " were",
    "406": " wanted",
    "407": " Lily",
    "408": " friends",
    "409": "out",
    "410": "ird",
    "411": " but",
    "412": "ved",
    "413": "ht",
    "414": "!\"",
    "415": "The",
    "416": " Tom",
    "417": " bird",
    "418": "el",
    "419": "ake",
    "420": " an",
    "421": "al",
    "422": " too",
    "423": "ome",
    "424": " went",
    "425": " wh",
    "426": "ide",
    "427": "Once",
    "428": " all",
    "429": " It",
    "430": " hel",
    "431": "ug",
    "432": "ue",
    "433": " help",
    "434": " is",
    "435": " loo",
    "436": " A",
    "437": " upon",
    "438": " lo",
    "439": "ter",
    "440": "ry",
    "441": " toy",
    "442": "ore",
    "443": " fun",
    "444": "ind",
    "445": "get",
    "446": "ill",
    "447": "ame",
    "448": " as",
    "449": " j",
    "450": "ra",
    "451": " at",
    "452": "gether",
    "453": " cat",
    "454": " did",
    "455": " re",
    "456": "ur",
    "457": " together",
    "458": "ack",
    "459": " se",
    "460": "ly",
    "461": " tre",
    "462": "ood",
    "463": " dog",
    "464": "ic",
    "465": " could",
    "466": "ted",
    "467": " can",
    "468": " ball",
    "469": "ard",
    "470": " gir",
    "471": " their",
    "472": "ark",
    "473": " girl",
    "474": " played",
    "475": "ec",
    "476": "my",
    "477": " him",
    "478": " go",
    "479": "way",
    "480": " ro",
    "481": "?\"",
    "482": "hed",
    "483": "ain",
    "484": " kn",
    "485": " le",
    "486": " out",
    "487": "hen",
    "488": " are",
    "489": " fr",
    "490": "um",
    "491": "'t",
    "492": " them",
    "493": " boy",
    "494": " sad",
    "495": "ul",
    "496": "ax",
    "497": " tree",
    "498": "other",
    "499": "oug",
    "500": " man",
    "501": " loved",
    "502": " have",
    "503": " cl",
    "504": " found",
    "505": " looked",
    "506": " sp",
    "507": " Sue",
    "508": " star",
    "509": " sc",
    "510": "one",
    "511": " back",
    "512": "own",
    "513": "hing",
    "514": "are",
    "515": " Max",
    "516": " like",
    "517": " bec",
    "518": "side",
    "519": "ful",
    "520": " me",
    "521": "op",
    "522": "ong",
    "523": " park",
    "524": " would",
    "525": "ight",
    "526": " liked",
    "527": "round",
    "528": " One",
    "529": "elt",
    "530": " fa",
    "531": " car",
    "532": " make",
    "533": "ell",
    "534": " But",
    "535": " felt",
    "536": " la",
    "537": " W",
    "538": " asked",
    "539": " Sam",
    "540": "You",
    "541": "ared",
    "542": "omet",
    "543": "ice",
    "544": " came",
    "545": " new",
    "546": " started",
    "547": "ag",
    "548": " see",
    "549": " no",
    "550": "ought",
    "551": "ouse",
    "552": " Ben",
    "553": " al",
    "554": "iled",
    "555": " ag",
    "556": " other",
    "557": " good",
    "558": "pot",
    "559": " somet",
    "560": " small",
    "561": " br",
    "562": "ob",
    "563": "ss",
    "564": " smiled",
    "565": "ade",
    "566": "ried",
    "567": "ings",
    "568": " say",
    "569": " find",
    "570": " wor",
    "571": " away",
    "572": " ex",
    "573": " from",
    "574": " thought",
    "575": " made",
    "576": " Spot",
    "577": " what",
    "578": " home",
    "579": " co",
    "580": " playing",
    "581": "ened",
    "582": " something",
    "583": "ty",
    "584": " put",
    "585": " every",
    "586": " wal",
    "587": "ach",
    "588": " mu",
    "589": "ia",
    "590": "uc",
    "591": "ook",
    "592": "ie",
    "593": "ny",
    "594": " F",
    "595": " again",
    "596": " ran",
    "597": " down",
    "598": "ile",
    "599": "dd",
    "600": "arn",
    "601": " toys",
    "602": "ave",
    "603": " pr",
    "604": "king",
    "605": " scared",
    "606": " some",
    "607": " took",
    "608": " laug",
    "609": " J",
    "610": " house",
    "611": " fl",
    "612": "if",
    "613": "ab",
    "614": " around",
    "615": " box",
    "616": " sw",
    "617": "ure",
    "618": "ick",
    "619": " learn",
    "620": "ep",
    "621": "ret",
    "622": "ish",
    "623": "oud",
    "624": "uck",
    "625": " your",
    "626": " lived",
    "627": " You",
    "628": " things",
    "629": " sun",
    "630": " then",
    "631": " will",
    "632": "ew",
    "633": " bl",
    "634": " my",
    "635": "as",
    "636": " when",
    "637": " ab",
    "638": "pped",
    "639": ",\"",
    "640": "us",
    "641": " get",
    "642": "ank",
    "643": "Tim",
    "644": "Th",
    "645": " ch",
    "646": " lot",
    "647": "ucy",
    "648": "oth",
    "649": "ap",
    "650": "ump",
    "651": " Mia",
    "652": " who",
    "653": " tried",
    "654": "ist",
    "655": " fe",
    "656": " know",
    "657": " got",
    "658": "ited",
    "659": "ust",
    "660": " many",
    "661": " about",
    "662": " says",
    "663": " int",
    "664": "ally",
    "665": "nder",
    "666": " red",
    "667": " knew",
    "668": " pret",
    "669": "ive",
    "670": " dec",
    "671": "Lily",
    "672": "ise",
    "673": "ous",
    "674": " any",
    "675": "au",
    "676": " D",
    "677": "ace",
    "678": " care",
    "679": " more",
    "680": " pic",
    "681": "qu",
    "682": "fter",
    "683": " best",
    "684": "ause",
    "685": " op",
    "686": " became",
    "687": " Lucy",
    "688": " po",
    "689": " water",
    "690": "ways",
    "691": "",
    "692": "fe",
    "693": " hug",
    "694": " learned",
    "695": " Bob",
    "696": " exc",
    "697": " because",
    "698": "ite",
    "699": " always",
    "700": " look",
    "701": " outside",
    "702": " into",
    "703": " room",
    "704": " both",
    "705": " un",
    "706": "ided",
    "707": " So",
    "708": " show",
    "709": " laughed",
    "710": " eat",
    "711": " decided",
    "712": " And",
    "713": " gre",
    "714": " ho",
    "715": "urp",
    "716": "udd",
    "717": "ant",
    "718": " pe",
    "719": "ers",
    "720": " v",
    "721": " E",
    "722": " Mom",
    "723": " jump",
    "724": "nn",
    "725": " long",
    "726": " one",
    "727": " ke",
    "728": " this",
    "729": " nice",
    "730": " run",
    "731": "Yes",
    "732": " excited",
    "733": " fast",
    "734": "They",
    "735": "Tom",
    "736": " feel",
    "737": " dad",
    "738": " told",
    "739": " mo",
    "740": " sk",
    "741": " inside",
    "742": "our",
    "743": " am",
    "744": " tr",
    "745": " sl",
    "746": "ull",
    "747": "lew",
    "748": " sor",
    "749": " take",
    "750": "urpr",
    "751": " rock",
    "752": "iny",
    "753": " pretty",
    "754": "nna",
    "755": " surpr",
    "756": " gave",
    "757": " each",
    "758": " gra",
    "759": "imal",
    "760": " animal",
    "761": "ink",
    "762": " much",
    "763": " how",
    "764": "Wh",
    "765": " str",
    "766": " old",
    "767": " need",
    "768": "But",
    "769": " than",
    "770": " let",
    "771": "ven",
    "772": "ara",
    "773": "ro",
    "774": "ged",
    "775": " tow",
    "776": "ess",
    "777": " under",
    "778": " C",
    "779": " sorry",
    "780": " or",
    "781": " walked",
    "782": " cle",
    "783": "and",
    "784": "ft",
    "785": " ta",
    "786": " hand",
    "787": " te",
    "788": "ge",
    "789": "ised",
    "790": "og",
    "791": " fish",
    "792": "urn",
    "793": "urt",
    "794": " kind",
    "795": "ff",
    "796": " clo",
    "797": " His",
    "798": " wat",
    "799": "ving",
    "800": " hig",
    "801": " animals",
    "802": "ase",
    "803": " Amy",
    "804": " just",
    "805": " happened",
    "806": " us",
    "807": "ched",
    "808": " food",
    "809": "pl",
    "810": " flow",
    "811": " sky",
    "812": "here",
    "813": " sn",
    "814": "rom",
    "815": " ide",
    "816": " list",
    "817": " try",
    "818": " We",
    "819": " near",
    "820": "gry",
    "821": " didn",
    "822": " idea",
    "823": " bet",
    "824": " en",
    "825": "able",
    "826": "ate",
    "827": "ine",
    "828": " fi",
    "829": " flew",
    "830": "eci",
    "831": " its",
    "832": "ream",
    "833": " careful",
    "834": "Thank",
    "835": " share",
    "836": " cake",
    "837": " heard",
    "838": "ex",
    "839": " better",
    "840": " tw",
    "841": " stor",
    "842": " if",
    "843": " speci",
    "844": " special",
    "845": " dan",
    "846": "pec",
    "847": "ber",
    "848": "ion",
    "849": " Th",
    "850": " bear",
    "851": " lots",
    "852": " wind",
    "853": "lf",
    "854": "more",
    "855": " anymore",
    "856": " clean",
    "857": "udden",
    "858": " never",
    "859": " fo",
    "860": " don",
    "861": "Mom",
    "862": " gr",
    "863": " bug",
    "864": " tal",
    "865": "ople",
    "866": " com",
    "867": " hard",
    "868": " bu",
    "869": " end",
    "870": " Then",
    "871": " by",
    "872": " fly",
    "873": "uddenly",
    "874": " mag",
    "875": "ort",
    "876": " fore",
    "877": " turn",
    "878": " over",
    "879": " Anna",
    "880": " Every",
    "881": " even",
    "882": "rm",
    "883": "\n\n",
    "884": " love",
    "885": " col",
    "886": " people",
    "887": " safe",
    "888": " after",
    "889": " bad",
    "890": "ady",
    "891": " high",
    "892": " fam",
    "893": " ground",
    "894": "ak",
    "895": " door",
    "896": "imb",
    "897": " come",
    "898": " shiny",
    "899": "bb",
    "900": " proud",
    "901": " climb",
    "902": " opened",
    "903": "As",
    "904": "uff",
    "905": " hurt",
    "906": " picked",
    "907": " blue",
    "908": " loud",
    "909": "pected",
    "910": "Let",
    "911": " che",
    "912": " give",
    "913": " way",
    "914": " surprised",
    "915": " gl",
    "916": "'m",
    "917": " unex",
    "918": " unexpected",
    "919": "ild",
    "920": " thanked",
    "921": " cu",
    "922": " book",
    "923": "ummy",
    "924": " From",
    "925": " When",
    "926": " call",
    "927": " color",
    "928": " Her",
    "929": " far",
    "930": "arden",
    "931": " garden",
    "932": " ever",
    "933": " magic",
    "934": " K",
    "935": " par",
    "936": "ough",
    "937": "kay",
    "938": " im",
    "939": " hugged",
    "940": " still",
    "941": " place",
    "942": "No",
    "943": " unt",
    "944": "ool",
    "945": " Sara",
    "946": " off",
    "947": "age",
    "948": " ma",
    "949": " smile",
    "950": " walk",
    "951": "ture",
    "952": " P",
    "953": " jumped",
    "954": " family",
    "955": " In",
    "956": " until",
    "957": "iz",
    "958": "unny",
    "959": "hes",
    "960": " pa",
    "961": "em",
    "962": " should",
    "963": " qu",
    "964": " now",
    "965": "ip",
    "966": " kid",
    "967": "ct",
    "968": " stick",
    "969": "itty",
    "970": " stay",
    "971": " strong",
    "972": " forest",
    "973": " sto",
    "974": "ane",
    "975": " dra",
    "976": "aut",
    "977": " app",
    "978": "uffy",
    "979": "dy",
    "980": " bro",
    "981": " boat",
    "982": " great",
    "983": " bra",
    "984": " squ",
    "985": " beaut",
    "986": " tra",
    "987": " nex",
    "988": " next",
    "989": " helped",
    "990": " jo",
    "991": " Sally",
    "992": "lease",
    "993": " hat",
    "994": " happily",
    "995": "les",
    "996": " picture",
    "997": " story",
    "998": "iful",
    "999": " beautiful",
    "1000": "ies",
    "1001": " listen",
    "1002": "ning",
    "1003": "th",
    "1004": " showed",
    "1005": " called",
    "1006": " while",
    "1007": "oon",
    "1008": " clos",
    "1009": " met",
    "1010": " kids",
    "1011": "Now",
    "1012": " open",
    "1013": "pt",
    "1014": " frog",
    "1015": " mor",
    "1016": " rem",
    "1017": "luffy",
    "1018": " town",
    "1019": " soft",
    "1020": " everyone",
    "1021": "Can",
    "1022": "It",
    "1023": "ger",
    "1024": " imp",
    "1025": " being",
    "1026": "He",
    "1027": "When",
    "1028": " ad",
    "1029": " stopped",
    "1030": "rel",
    "1031": " rain",
    "1032": " angry",
    "1033": " yummy",
    "1034": "by",
    "1035": " watch",
    "1036": "bit",
    "1037": " doll",
    "1038": " ca",
    "1039": " couldn",
    "1040": "abbit",
    "1041": "ary",
    "1042": "vent",
    "1043": " Let",
    "1044": "ree",
    "1045": " truck",
    "1046": " de",
    "1047": "ished",
    "1048": " Kitty",
    "1049": " mouse",
    "1050": " rabbit",
    "1051": "be",
    "1052": "dded",
    "1053": " ate",
    "1054": "ress",
    "1055": "iss",
    "1056": " wo",
    "1057": " Fluffy",
    "1058": " lost",
    "1059": " warm",
    "1060": " slide",
    "1061": " face",
    "1062": " brave",
    "1063": " game",
    "1064": " Wh",
    "1065": " keep",
    "1066": " fell",
    "1067": " leave",
    "1068": "fore",
    "1069": " flowers",
    "1070": " two",
    "1071": " cook",
    "1072": "owl",
    "1073": " bed",
    "1074": " cry",
    "1075": " pus",
    "1076": "illy",
    "1077": "so",
    "1078": "ock",
    "1079": " soon",
    "1080": " noise",
    "1081": " green",
    "1082": " also",
    "1083": " R",
    "1084": "That",
    "1085": " bunny",
    "1086": "ear",
    "1087": " nodded",
    "1088": " where",
    "1089": "gan",
    "1090": "self",
    "1091": " fix",
    "1092": " sat",
    "1093": " having",
    "1094": "ired",
    "1095": "Hi",
    "1096": " before",
    "1097": " yell",
    "1098": " kept",
    "1099": "”",
    "1100": " hole",
    "1101": " pain",
    "1102": " hear",
    "1103": "“",
    "1104": "ble",
    "1105": "day",
    "1106": " store",
    "1107": "What",
    "1108": " hands",
    "1109": " catch",
    "1110": "Look",
    "1111": " use",
    "1112": "irrel",
    "1113": "Then",
    "1114": " fin",
    "1115": " sing",
    "1116": "az",
    "1117": "irst",
    "1118": " used",
    "1119": " mommy",
    "1120": " expl",
    "1121": " thr",
    "1122": " funny",
    "1123": " birds",
    "1124": " squirrel",
    "1125": "Ben",
    "1126": " Now",
    "1127": " cra",
    "1128": " looking",
    "1129": "uch",
    "1130": " ey",
    "1131": " tired",
    "1132": " going",
    "1133": " wait",
    "1134": " bre",
    "1135": " kit",
    "1136": "oy",
    "1137": "eet",
    "1138": "aybe",
    "1139": "leep",
    "1140": " mean",
    "1141": "ange",
    "1142": "thing",
    "1143": "ught",
    "1144": " our",
    "1145": "led",
    "1146": " pull",
    "1147": "air",
    "1148": " dif",
    "1149": " fav",
    "1150": " sunny",
    "1151": " tri",
    "1152": " pond",
    "1153": "ember",
    "1154": " Can",
    "1155": " has",
    "1156": " kitc",
    "1157": " kitchen",
    "1158": " wr",
    "1159": " party",
    "1160": " ice",
    "1161": " think",
    "1162": " flo",
    "1163": " Jo",
    "1164": "orn",
    "1165": " work",
    "1166": "ting",
    "1167": " head",
    "1168": "We",
    "1169": "ac",
    "1170": "uit",
    "1171": " bus",
    "1172": " mess",
    "1173": " worked",
    "1174": " dr",
    "1175": "ng",
    "1176": " real",
    "1177": " Do",
    "1178": "zy",
    "1179": "ious",
    "1180": "hn",
    "1181": " okay",
    "1182": " others",
    "1183": " sound",
    "1184": "llow",
    "1185": " beh",
    "1186": " moral",
    "1187": " eyes",
    "1188": "ath",
    "1189": " sand",
    "1190": " z",
    "1191": " advent",
    "1192": " shared",
    "1193": " talk",
    "1194": "rew",
    "1195": " remember",
    "1196": " “",
    "1197": " favor",
    "1198": "joy",
    "1199": "ma",
    "1200": " favorite",
    "1201": " ask",
    "1202": " right",
    "1203": "Hell",
    "1204": "Hello",
    "1205": " cut",
    "1206": " curi",
    "1207": " cold",
    "1208": " ri",
    "1209": " hop",
    "1210": " con",
    "1211": " import",
    "1212": " hill",
    "1213": " mon",
    "1214": "lly",
    "1215": " dir",
    "1216": "imes",
    "1217": " enjoy",
    "1218": " making",
    "1219": " curious",
    "1220": " follow",
    "1221": " vo",
    "1222": " pie",
    "1223": " bright",
    "1224": " yard",
    "1225": " G",
    "1226": " flower",
    "1227": "At",
    "1228": "ken",
    "1229": " sweet",
    "1230": "Don",
    "1231": " move",
    "1232": "reed",
    "1233": " duck",
    "1234": " dis",
    "1235": " own",
    "1236": " rest",
    "1237": " draw",
    "1238": " first",
    "1239": " important",
    "1240": " top",
    "1241": " Jack",
    "1242": " cla",
    "1243": " sho",
    "1244": " began",
    "1245": " tall",
    "1246": " pick",
    "1247": " block",
    "1248": " watched",
    "1249": "ount",
    "1250": " sleep",
    "1251": " bel",
    "1252": " lady",
    "1253": "After",
    "1254": " night",
    "1255": " thing",
    "1256": "Wow",
    "1257": "ied",
    "1258": " race",
    "1259": "ster",
    "1260": " tail",
    "1261": " hot",
    "1262": "fere",
    "1263": " hid",
    "1264": " hun",
    "1265": " differe",
    "1266": " agreed",
    "1267": " floor",
    "1268": " here",
    "1269": " shout",
    "1270": " stop",
    "1271": "ect",
    "1272": " forg",
    "1273": " This",
    "1274": " dark",
    "1275": " bag",
    "1276": " grass",
    "1277": " worry",
    "1278": "ign",
    "1279": " song",
    "1280": " table",
    "1281": " tast",
    "1282": " tell",
    "1283": " needed",
    "1284": " prin",
    "1285": "que",
    "1286": " leaves",
    "1287": " voice",
    "1288": "aring",
    "1289": " read",
    "1290": " yellow",
    "1291": " farm",
    "1292": "aper",
    "1293": " Fin",
    "1294": " ru",
    "1295": " dress",
    "1296": " trees",
    "1297": " hair",
    "1298": " swing",
    "1299": "Why",
    "1300": " different",
    "1301": " del",
    "1302": " adventure",
    "1303": " walking",
    "1304": " surprise",
    "1305": " turned",
    "1306": " please",
    "1307": "’",
    "1308": " Mr",
    "1309": " hungry",
    "1310": "Max",
    "1311": " Suddenly",
    "1312": " cars",
    "1313": " does",
    "1314": " Dad",
    "1315": " colors",
    "1316": "oom",
    "1317": "Suddenly",
    "1318": " laugh",
    "1319": "bo",
    "1320": "Sue",
    "1321": " closer",
    "1322": "ached",
    "1323": " pretend",
    "1324": "Sam",
    "1325": " lion",
    "1326": "co",
    "1327": "ient",
    "1328": "ered",
    "1329": "ila",
    "1330": " broken",
    "1331": " cried",
    "1332": " prom",
    "1333": " wood",
    "1334": " wet",
    "1335": "bye",
    "1336": " piece",
    "1337": " Timmy",
    "1338": " friendly",
    "1339": " full",
    "1340": " behind",
    "1341": " train",
    "1342": "isy",
    "1343": " dance",
    "1344": "Anna",
    "1345": "ppy",
    "1346": " climbed",
    "1347": " touch",
    "1348": " another",
    "1349": " danc",
    "1350": " gone",
    "1351": "So",
    "1352": "af",
    "1353": "where",
    "1354": " apple",
    "1355": " smell",
    "1356": "bbed",
    "1357": " ste",
    "1358": " swim",
    "1359": " blocks",
    "1360": "cked",
    "1361": " feeling",
    "1362": "ater",
    "1363": "sh",
    "1364": " That",
    "1365": " paper",
    "1366": " amaz",
    "1367": "She",
    "1368": " As",
    "1369": " ant",
    "1370": " butter",
    "1371": " per",
    "1372": " running",
    "1373": " Jane",
    "1374": " reached",
    "1375": " helping",
    "1376": " fair",
    "1377": " listened",
    "1378": " goodbye",
    "1379": "iced",
    "1380": " ready",
    "1381": " hold",
    "1382": " only",
    "1383": "av",
    "1384": " light",
    "1385": " ac",
    "1386": "ray",
    "1387": "aby",
    "1388": "ike",
    "1389": " O",
    "1390": " roll",
    "1391": "Sara",
    "1392": " cream",
    "1393": " Bobo",
    "1394": " dri",
    "1395": " repl",
    "1396": " pushed",
    "1397": " sit",
    "1398": "key",
    "1399": " fight",
    "1400": " slow",
    "1401": " plan",
    "1402": " close",
    "1403": "red",
    "1404": " All",
    "1405": " less",
    "1406": " done",
    "1407": "pe",
    "1408": " wag",
    "1409": " owl",
    "1410": " wall",
    "1411": " cool",
    "1412": " must",
    "1413": " sees",
    "1414": " glad",
    "1415": " fruit",
    "1416": " wise",
    "1417": " tiny",
    "1418": "ield",
    "1419": " moment",
    "1420": " wonder",
    "1421": " trying",
    "1422": " stuck",
    "1423": "ather",
    "1424": " dream",
    "1425": " din",
    "1426": " through",
    "1427": "In",
    "1428": "ash",
    "1429": " pen",
    "1430": " wished",
    "1431": " fire",
    "1432": "ames",
    "1433": " reach",
    "1434": " bar",
    "1435": " thank",
    "1436": " baby",
    "1437": " been",
    "1438": " explore",
    "1439": " join",
    "1440": " window",
    "1441": "ott",
    "1442": " looks",
    "1443": " doing",
    "1444": " Everyone",
    "1445": " ar",
    "1446": " bit",
    "1447": " buy",
    "1448": " shouted",
    "1449": " air",
    "1450": " build",
    "1451": " hide",
    "1452": "Mia",
    "1453": " Mommy",
    "1454": " nest",
    "1455": " swam",
    "1456": " scary",
    "1457": " fall",
    "1458": " coming",
    "1459": " cloud",
    "1460": " bran",
    "1461": " land",
    "1462": " blew",
    "1463": " win",
    "1464": "oney",
    "1465": " seen",
    "1466": " perf",
    "1467": "andy",
    "1468": "ask",
    "1469": " child",
    "1470": " dirty",
    "1471": " books",
    "1472": " held",
    "1473": "avy",
    "1474": "ph",
    "1475": " bigger",
    "1476": " left",
    "1477": " quick",
    "1478": " replied",
    "1479": " mat",
    "1480": " underst",
    "1481": "ely",
    "1482": " might",
    "1483": " treat",
    "1484": " colorful",
    "1485": "ndma",
    "1486": " grabbed",
    "1487": " pulled",
    "1488": " turns",
    "1489": " why",
    "1490": "Okay",
    "1491": " butterf",
    "1492": " dro",
    "1493": "ized",
    "1494": " remembered",
    "1495": " fill",
    "1496": "icy",
    "1497": " name",
    "1498": " chair",
    "1499": " cup",
    "1500": "ucky",
    "1501": " broke",
    "1502": " cast",
    "1503": "orm",
    "1504": " count",
    "1505": " sometimes",
    "1506": " sure",
    "1507": " three",
    "1508": "aisy",
    "1509": " spl",
    "1510": "ation",
    "1511": "oup",
    "1512": " hopped",
    "1513": " pink",
    "1514": " stayed",
    "1515": "ton",
    "1516": " snow",
    "1517": " job",
    "1518": " clapped",
    "1519": "Oh",
    "1520": "up",
    "1521": " games",
    "1522": " bott",
    "1523": "der",
    "1524": " gif",
    "1525": "ee",
    "1526": " waited",
    "1527": " There",
    "1528": "'re",
    "1529": " plant",
    "1530": " grow",
    "1531": " noticed",
    "1532": " balloon",
    "1533": " lesson",
    "1534": " anything",
    "1535": "ix",
    "1536": " pictures",
    "1537": " woods",
    "1538": " mout",
    "1539": " mouth",
    "1540": " After",
    "1541": " paint",
    "1542": " set",
    "1543": " waved",
    "1544": "uddy",
    "1545": " enjoyed",
    "1546": "ower",
    "1547": "room",
    "1548": " alone",
    "1549": " spot",
    "1550": " pot",
    "1551": " cont",
    "1552": "Jo",
    "1553": "This",
    "1554": " sea",
    "1555": " brother",
    "1556": " likes",
    "1557": "ds",
    "1558": "art",
    "1559": "oun",
    "1560": "Her",
    "1561": "amp",
    "1562": " tight",
    "1563": " threw",
    "1564": " year",
    "1565": "\".",
    "1566": " heavy",
    "1567": " white",
    "1568": " followed",
    "1569": " gent",
    "1570": " quickly",
    "1571": " butterfly",
    "1572": "ins",
    "1573": " cookies",
    "1574": " miss",
    "1575": "Spot",
    "1576": " deep",
    "1577": " ju",
    "1578": "ape",
    "1579": "asure",
    "1580": " everywhere",
    "1581": "de",
    "1582": "Lucy",
    "1583": " bee",
    "1584": "ze",
    "1585": " pat",
    "1586": " John",
    "1587": "aught",
    "1588": "ries",
    "1589": " mar",
    "1590": "Bob",
    "1591": " world",
    "1592": "cle",
    "1593": "ister",
    "1594": " clot",
    "1595": " wrong",
    "1596": " clothes",
    "1597": " castle",
    "1598": " cre",
    "1599": " wear",
    "1600": "less",
    "1601": " pu",
    "1602": "lc",
    "1603": "ross",
    "1604": " button",
    "1605": " mum",
    "1606": " leaf",
    "1607": "iet",
    "1608": "olly",
    "1609": " ve",
    "1610": " Buddy",
    "1611": " nap",
    "1612": "ner",
    "1613": " key",
    "1614": " mix",
    "1615": " quiet",
    "1616": "arent",
    "1617": " makes",
    "1618": "ang",
    "1619": " brought",
    "1620": " round",
    "1621": " parent",
    "1622": "row",
    "1623": " wants",
    "1624": "rot",
    "1625": "ued",
    "1626": "ully",
    "1627": " Daisy",
    "1628": " himself",
    "1629": " well",
    "1630": "os",
    "1631": " won",
    "1632": " delic",
    "1633": " ride",
    "1634": " field",
    "1635": "man",
    "1636": " danced",
    "1637": " arm",
    "1638": " break",
    "1639": " Lila",
    "1640": " tower",
    "1641": " sign",
    "1642": "Do",
    "1643": " What",
    "1644": "fully",
    "1645": " hit",
    "1646": " snack",
    "1647": " drag",
    "1648": "thy",
    "1649": " faster",
    "1650": " gift",
    "1651": " king",
    "1652": " talked",
    "1653": " forgot",
    "1654": " wish",
    "1655": " beach",
    "1656": " leg",
    "1657": "gg",
    "1658": " river",
    "1659": " sister",
    "1660": " mus",
    "1661": "cess",
    "1662": " finished",
    "1663": "ence",
    "1664": " branch",
    "1665": " comp",
    "1666": " dry",
    "1667": "leph",
    "1668": " sharing",
    "1669": "cy",
    "1670": "itten",
    "1671": "ves",
    "1672": "From",
    "1673": " Inside",
    "1674": " bike",
    "1675": " pol",
    "1676": " dinner",
    "1677": " dragon",
    "1678": " fur",
    "1679": "ards",
    "1680": " danger",
    "1681": " ra",
    "1682": " rel",
    "1683": " em",
    "1684": " bor",
    "1685": " really",
    "1686": " understand",
    "1687": " vis",
    "1688": "ipp",
    "1689": " shin",
    "1690": " To",
    "1691": "ance",
    "1692": " black",
    "1693": "John",
    "1694": " bottle",
    "1695": "ren",
    "1696": " monkey",
    "1697": " fox",
    "1698": "His",
    "1699": " monster",
    "1700": "eddy",
    "1701": " pig",
    "1702": " At",
    "1703": " smart",
    "1704": " poin",
    "1705": " contin",
    "1706": " rocks",
    "1707": " worried",
    "1708": " carefully",
    "1709": " gu",
    "1710": "Amy",
    "1711": " bowl",
    "1712": " someone",
    "1713": "ctor",
    "1714": "imi",
    "1715": " fairy",
    "1716": " att",
    "1717": " today",
    "1718": "ast",
    "1719": " filled",
    "1720": " eating",
    "1721": " pudd",
    "1722": " side",
    "1723": " el",
    "1724": " welc",
    "1725": "ush",
    "1726": "ses",
    "1727": " boun",
    "1728": " cow",
    "1729": " gi",
    "1730": "vel",
    "1731": " brown",
    "1732": " snake",
    "1733": "itting",
    "1734": "ead",
    "1735": " whe",
    "1736": " promised",
    "1737": " fan",
    "1738": " happen",
    "1739": " pet",
    "1740": " silly",
    "1741": "While",
    "1742": " everything",
    "1743": "Just",
    "1744": " yes",
    "1745": " res",
    "1746": "ts",
    "1747": " Maybe",
    "1748": " Soon",
    "1749": " parents",
    "1750": " soup",
    "1751": " music",
    "1752": " visit",
    "1753": " letter",
    "1754": " mud",
    "1755": " else",
    "1756": " free",
    "1757": "ated",
    "1758": " pieces",
    "1759": " children",
    "1760": " road",
    "1761": " bite",
    "1762": "stead",
    "1763": " continued",
    "1764": " sang",
    "1765": " shop",
    "1766": " talking",
    "1767": "Fin",
    "1768": " kite",
    "1769": " perfect",
    "1770": " egg",
    "1771": " flying",
    "1772": "zz",
    "1773": " smiles",
    "1774": " Billy",
    "1775": " realized",
    "1776": " throw",
    "1777": " mail",
    "1778": " ear",
    "1779": " Sarah",
    "1780": " words",
    "1781": "ord",
    "1782": " Em",
    "1783": ".”",
    "1784": " amazing",
    "1785": " jar",
    "1786": " laughing",
    "1787": "cket",
    "1788": " wagged",
    "1789": " que",
    "1790": " orange",
    "1791": " moved",
    "1792": " sec",
    "1793": " sitting",
    "1794": " enough",
    "1795": " closed",
    "1796": " Z",
    "1797": " pass",
    "1798": "ey",
    "1799": " mother",
    "1800": " shining",
    "1801": " without",
    "1802": " smo",
    "1803": "gly",
    "1804": " buck",
    "1805": " crab",
    "1806": " stand",
    "1807": " dangerous",
    "1808": " rope",
    "1809": " sail",
    "1810": "fort",
    "1811": " bath",
    "1812": " barked",
    "1813": " secret",
    "1814": " strange",
    "1815": " stu",
    "1816": " Mimi",
    "1817": " drink",
    "1818": " tasty",
    "1819": "unch",
    "1820": " welcome",
    "1821": "ella",
    "1822": "fish",
    "1823": " paw",
    "1824": "used",
    "1825": "board",
    "1826": "iver",
    "1827": " crying",
    "1828": " ce",
    "1829": " heal",
    "1830": " past",
    "1831": " whist",
    "1832": " lon",
    "1833": "ises",
    "1834": " candy",
    "1835": " living",
    "1836": " -",
    "1837": " higher",
    "1838": " lonely",
    "1839": "Maybe",
    "1840": "ches",
    "1841": " Ch",
    "1842": " owner",
    "1843": " pre",
    "1844": " shoes",
    "1845": " belie",
    "1846": " farmer",
    "1847": " sack",
    "1848": " morning",
    "1849": "Please",
    "1850": " tom",
    "1851": "arm",
    "1852": "ato",
    "1853": "chool",
    "1854": " Jen",
    "1855": " delicious",
    "1856": " swings",
    "1857": "gy",
    "1858": " purp",
    "1859": " school",
    "1860": "ract",
    "1861": " scream",
    "1862": "isk",
    "1863": "llie",
    "1864": " teac",
    "1865": " finally",
    "1866": " push",
    "1867": "ible",
    "1868": " grandma",
    "1869": " ph",
    "1870": " rolled",
    "1871": " stone",
    "1872": "!”",
    "1873": " puddle",
    "1874": "Mommy",
    "1875": "lder",
    "1876": "lephant",
    "1877": " dolls",
    "1878": " stre",
    "1879": "ich",
    "1880": " Bl",
    "1881": "me",
    "1882": " blank",
    "1883": " getting",
    "1884": " asks",
    "1885": " lake",
    "1886": " purple",
    "1887": "ama",
    "1888": "ire",
    "1889": "asket",
    "1890": "lla",
    "1891": " mad",
    "1892": " shell",
    "1893": " trou",
    "1894": " years",
    "1895": " blanket",
    "1896": " caught",
    "1897": "ased",
    "1898": " corn",
    "1899": " treasure",
    "1900": "set",
    "1901": " money",
    "1902": " runs",
    "1903": " wore",
    "1904": " basket",
    "1905": "ub",
    "1906": " hoped",
    "1907": " pile",
    "1908": "ons",
    "1909": " same",
    "1910": "iskers",
    "1911": " Joe",
    "1912": " singing",
    "1913": "eo",
    "1914": " herself",
    "1915": "app",
    "1916": " wings",
    "1917": " pers",
    "1918": " apples",
    "1919": "cks",
    "1920": " ben",
    "1921": " cute",
    "1922": "br",
    "1923": " Tommy",
    "1924": " bat",
    "1925": " je",
    "1926": " mine",
    "1927": " plane",
    "1928": "igh",
    "1929": " gentle",
    "1930": "\n ",
    "1931": " cray",
    "1932": " carrot",
    "1933": " elephant",
    "1934": " teacher",
    "1935": " coat",
    "1936": " balls",
    "1937": " dropped",
    "1938": " pill",
    "1939": " sear",
    "1940": " start",
    "1941": " fit",
    "1942": " days",
    "1943": " teddy",
    "1944": " cour",
    "1945": "irth",
    "1946": "irthday",
    "1947": " doctor",
    "1948": "Finally",
    "1949": " course",
    "1950": " war",
    "1951": "ined",
    "1952": " forever",
    "1953": " joy",
    "1954": " woke",
    "1955": "aughty",
    "1956": " hiding",
    "1957": " naughty",
    "1958": " card",
    "1959": " seed",
    "1960": " bring",
    "1961": " min",
    "1962": " promise",
    "1963": " Whiskers",
    "1964": "ilk",
    "1965": " arri",
    "1966": " most",
    "1967": " teach",
    "1968": " band",
    "1969": " cr",
    "1970": " cookie",
    "1971": " spin",
    "1972": "umpy",
    "1973": " chee",
    "1974": " fence",
    "1975": " shap",
    "1976": "ator",
    "1977": "ol",
    "1978": " Blue",
    "1979": " Gra",
    "1980": " bush",
    "1981": " rob",
    "1982": " lunch",
    "1983": " milk",
    "1984": " shr",
    "1985": " thinks",
    "1986": " birthday",
    "1987": " eas",
    "1988": " ugly",
    "1989": " nose",
    "1990": "arp",
    "1991": " touc",
    "1992": " Thank",
    "1993": " juice",
    "1994": "ose",
    "1995": " ob",
    "1996": " vill",
    "1997": " bow",
    "1998": " grew",
    "1999": " belong",
    "2000": " pop",
    "2001": " ans",
    "2002": " answ",
    "2003": " shapes",
    "2004": "fused",
    "2005": " Fred",
    "2006": " sharp",
    "2007": "ipped",
    "2008": "itch",
    "2009": " creat",
    "2010": "ail",
    "2011": "ass",
    "2012": " heart",
    "2013": " young",
    "2014": " bench",
    "2015": "irt",
    "2016": "sy",
    "2017": "umber",
    "2018": " Bella",
    "2019": " street",
    "2020": "ier",
    "2021": " Leo",
    "2022": "'ll",
    "2023": "bow",
    "2024": " seem",
    "2025": " bone",
    "2026": "Jack",
    "2027": " able",
    "2028": " late",
    "2029": " mark",
    "2030": " wra",
    "2031": "erry",
    "2032": "ale",
    "2033": "ball",
    "2034": "eter",
    "2035": "sc",
    "2036": " believe",
    "2037": " rocket",
    "2038": " bucket",
    "2039": " zoom",
    "2040": " bread",
    "2041": " coin",
    "2042": " dirt",
    "2043": " magical",
    "2044": " power",
    "2045": " pocket",
    "2046": " robot",
    "2047": " inc",
    "2048": " kiss",
    "2049": " shy",
    "2050": " spoon",
    "2051": " touched",
    "2052": " busy",
    "2053": " shook",
    "2054": " slowly",
    "2055": " kitten",
    "2056": " twins",
    "2057": " arrived",
    "2058": " cheered",
    "2059": " prob",
    "2060": " feels",
    "2061": " shake",
    "2062": " craw",
    "2063": " lem",
    "2064": " carry",
    "2065": " neck",
    "2066": " seat",
    "2067": " storm",
    "2068": " trip",
    "2069": " amazed",
    "2070": "ling",
    "2071": " few",
    "2072": " spo",
    "2073": "ung",
    "2074": " village",
    "2075": "eared",
    "2076": " bell",
    "2077": "OK",
    "2078": "igg",
    "2079": "idge",
    "2080": "lem",
    "2081": " taking",
    "2082": " coll",
    "2083": " fixed",
    "2084": " grumpy",
    "2085": " patient",
    "2086": " stories",
    "2087": " nut",
    "2088": " problem",
    "2089": "oose",
    "2090": " wheel",
    "2091": "ost",
    "2092": "urtle",
    "2093": " sounds",
    "2094": "Good",
    "2095": " dist",
    "2096": " gray",
    "2097": " live",
    "2098": " wonderful",
    "2099": "irp",
    "2100": " rainbow",
    "2101": "una",
    "2102": " towards",
    "2103": " wave",
    "2104": " huge",
    "2105": " sug",
    "2106": " driver",
    "2107": " rude",
    "2108": " spark",
    "2109": " hor",
    "2110": " cover",
    "2111": " songs",
    "2112": " whistle",
    "2113": "fortable",
    "2114": "ors",
    "2115": " Mark",
    "2116": " cart",
    "2117": " cir",
    "2118": " Momo",
    "2119": " wide",
    "2120": "emy",
    "2121": " sal",
    "2122": " des",
    "2123": " rec",
    "2124": "Lila",
    "2125": "epend",
    "2126": " string",
    "2127": "ens",
    "2128": "unt",
    "2129": " disapp",
    "2130": " suc",
    "2131": " treats",
    "2132": "bble",
    "2133": "elly",
    "2134": "kin",
    "2135": " meet",
    "2136": " path",
    "2137": "pping",
    "2138": " cheese",
    "2139": " holding",
    "2140": " upset",
    "2141": "iling",
    "2142": "alm",
    "2143": " moon",
    "2144": " turtle",
    "2145": "Be",
    "2146": "oph",
    "2147": " wild",
    "2148": " worm",
    "2149": "Of",
    "2150": " N",
    "2151": " hugs",
    "2152": " lay",
    "2153": "Sure",
    "2154": "ourn",
    "2155": " fighting",
    "2156": " grab",
    "2157": " di",
    "2158": " giant",
    "2159": " life",
    "2160": " bugs",
    "2161": " journ",
    "2162": " peace",
    "2163": " puppy",
    "2164": " jew",
    "2165": " smooth",
    "2166": "ring",
    "2167": "umb",
    "2168": " ban",
    "2169": " joke",
    "2170": " note",
    "2171": "adow",
    "2172": " Emma",
    "2173": " Just",
    "2174": " cloth",
    "2175": " jewel",
    "2176": " noises",
    "2177": " honey",
    "2178": " mist",
    "2179": " sour",
    "2180": " smelly",
    "2181": " inv",
    "2182": " lucky",
    "2183": "ountain",
    "2184": " cou",
    "2185": " landed",
    "2186": " ser",
    "2187": "izzy",
    "2188": "ular",
    "2189": " On",
    "2190": "onest",
    "2191": " net",
    "2192": "pper",
    "2193": " cave",
    "2194": " rad",
    "2195": " thin",
    "2196": "St",
    "2197": " Ann",
    "2198": " beak",
    "2199": " honest",
    "2200": " princess",
    "2201": "aur",
    "2202": " boss",
    "2203": " drive",
    "2204": " jelly",
    "2205": "ife",
    "2206": "not",
    "2207": " banan",
    "2208": " chew",
    "2209": " part",
    "2210": "isa",
    "2211": " cannot",
    "2212": " seek",
    "2213": "ery",
    "2214": " Molly",
    "2215": " act",
    "2216": " missed",
    "2217": " ba",
    "2218": " med",
    "2219": " stars",
    "2220": " dogs",
    "2221": "ove",
    "2222": " ign",
    "2223": " sick",
    "2224": " suddenly",
    "2225": "read",
    "2226": " drove",
    "2227": " oven",
    "2228": "sp",
    "2229": " bri",
    "2230": "lower",
    "2231": " Finally",
    "2232": " splas",
    "2233": " step",
    "2234": " tea",
    "2235": " shelf",
    "2236": " exp",
    "2237": "iger",
    "2238": " snowman",
    "2239": " instead",
    "2240": " wasn",
    "2241": " Dog",
    "2242": " fle",
    "2243": " foot",
    "2244": " taste",
    "2245": "Hey",
    "2246": " ducks",
    "2247": " maybe",
    "2248": " across",
    "2249": " sel",
    "2250": "Later",
    "2251": "ert",
    "2252": "ope",
    "2253": " fancy",
    "2254": " helpful",
    "2255": " sandw",
    "2256": "ateful",
    "2257": " adventures",
    "2258": " bought",
    "2259": "est",
    "2260": " organ",
    "2261": " wash",
    "2262": " cross",
    "2263": "ere",
    "2264": "ian",
    "2265": " Remy",
    "2266": " glow",
    "2267": " line",
    "2268": "To",
    "2269": " comes",
    "2270": " grateful",
    "2271": " forget",
    "2272": " slid",
    "2273": " ash",
    "2274": " confused",
    "2275": " change",
    "2276": " healthy",
    "2277": " pillow",
    "2278": " puzz",
    "2279": " spe",
    "2280": "idy",
    "2281": "let",
    "2282": " dish",
    "2283": " pract",
    "2284": " Ollie",
    "2285": " zoo",
    "2286": " stepped",
    "2287": " val",
    "2288": "oppy",
    "2289": "oomy",
    "2290": " last",
    "2291": "erest",
    "2292": " cap",
    "2293": " interest",
    "2294": " lad",
    "2295": " cho",
    "2296": " elder",
    "2297": " selfish",
    "2298": " easy",
    "2299": " elderly",
    "2300": " whole",
    "2301": " working",
    "2302": "ity",
    "2303": " anyone",
    "2304": " hope",
    "2305": " sticks",
    "2306": " watching",
    "2307": "ward",
    "2308": " calm",
    "2309": " messy",
    "2310": "col",
    "2311": " chased",
    "2312": " daddy",
    "2313": " forgive",
    "2314": " pri",
    "2315": " save",
    "2316": " takes",
    "2317": " team",
    "2318": " av",
    "2319": " myster",
    "2320": " weak",
    "2321": "amed",
    "2322": "irpy",
    "2323": "ize",
    "2324": " write",
    "2325": "ever",
    "2326": " ladder",
    "2327": " shirt",
    "2328": "to",
    "2329": " tape",
    "2330": " wolf",
    "2331": "oc",
    "2332": " Sp",
    "2333": " clever",
    "2334": " legs",
    "2335": " lemon",
    "2336": " splash",
    "2337": "pect",
    "2338": " feather",
    "2339": " horse",
    "2340": " mind",
    "2341": " phone",
    "2342": " longer",
    "2343": " person",
    "2344": " plants",
    "2345": " jog",
    "2346": " pour",
    "2347": " prot",
    "2348": " stret",
    "2349": " tidy",
    "2350": "ider",
    "2351": " emp",
    "2352": "ork",
    "2353": " Cat",
    "2354": " along",
    "2355": " bark",
    "2356": " empty",
    "2357": " later",
    "2358": " pan",
    "2359": "Soon",
    "2360": "izz",
    "2361": " Bu",
    "2362": " boot",
    "2363": " faces",
    "2364": " seemed",
    "2365": "Sally",
    "2366": " cozy",
    "2367": " lock",
    "2368": " pretended",
    "2369": "bbles",
    "2370": " lift",
    "2371": " sleepy",
    "2372": " hum",
    "2373": "ions",
    "2374": " finish",
    "2375": " su",
    "2376": " saved",
    "2377": " stir",
    "2378": " waiting",
    "2379": "iting",
    "2380": " mach",
    "2381": " swimm",
    "2382": "llo",
    "2383": " ret",
    "2384": "Come",
    "2385": "illar",
    "2386": "pillar",
    "2387": " Come",
    "2388": " bounce",
    "2389": " chick",
    "2390": " cheer",
    "2391": " spicy",
    "2392": "?”",
    "2393": "ained",
    "2394": "ually",
    "2395": " ent",
    "2396": " Lisa",
    "2397": " goat",
    "2398": " ring",
    "2399": " return",
    "2400": " screamed",
    "2401": " Chirpy",
    "2402": " fake",
    "2403": " pool",
    "2404": "ult",
    "2405": " Daddy",
    "2406": " jumping",
    "2407": "den",
    "2408": " interesting",
    "2409": " such",
    "2410": " supp",
    "2411": " clouds",
    "2412": " tie",
    "2413": " wondered",
    "2414": " print",
    "2415": " Ducky",
    "2416": " fruits",
    "2417": " mistake",
    "2418": " pin",
    "2419": " drank",
    "2420": "unk",
    "2421": " spray",
    "2422": "ocked",
    "2423": " cater",
    "2424": " caterpillar",
    "2425": " eag",
    "2426": " plate",
    "2427": " though",
    "2428": " Together",
    "2429": " bossy",
    "2430": " stra",
    "2431": "box",
    "2432": "dge",
    "2433": "issors",
    "2434": " onto",
    "2435": " gather",
    "2436": " Benny",
    "2437": " building",
    "2438": " drew",
    "2439": " kick",
    "2440": "eth",
    "2441": " machine",
    "2442": " scissors",
    "2443": " swimming",
    "2444": " TV",
    "2445": " With",
    "2446": " rich",
    "2447": "lebr",
    "2448": " Ella",
    "2449": " St",
    "2450": " celebr",
    "2451": " gives",
    "2452": " hidden",
    "2453": " norm",
    "2454": " number",
    "2455": " sheep",
    "2456": " normal",
    "2457": "ont",
    "2458": " brush",
    "2459": " wing",
    "2460": "ek",
    "2461": "oof",
    "2462": " arms",
    "2463": " cleaned",
    "2464": " crayons",
    "2465": " explor",
    "2466": " furry",
    "2467": " lovely",
    "2468": "Kitty",
    "2469": " front",
    "2470": " glue",
    "2471": " trouble",
    "2472": " My",
    "2473": " cher",
    "2474": " fing",
    "2475": " pack",
    "2476": " penc",
    "2477": " spider",
    "2478": "aced",
    "2479": "izza",
    "2480": "ment",
    "2481": " Doggy",
    "2482": " cage",
    "2483": " lar",
    "2484": " match",
    "2485": " pencil",
    "2486": " pointed",
    "2487": " sugar",
    "2488": " Bunny",
    "2489": " Their",
    "2490": " appeared",
    "2491": " mel",
    "2492": "elp",
    "2493": " puts",
    "2494": "urse",
    "2495": " prince",
    "2496": " smelled",
    "2497": " Grandma",
    "2498": " Luna",
    "2499": " gate",
    "2500": " gently",
    "2501": " pray",
    "2502": " sur",
    "2503": "ned",
    "2504": "oop",
    "2505": "osaur",
    "2506": " backy",
    "2507": " backyard",
    "2508": " dinosaur",
    "2509": " matter",
    "2510": " search",
    "2511": " drum",
    "2512": " fil",
    "2513": " fear",
    "2514": "And",
    "2515": " class",
    "2516": " ship",
    "2517": "pa",
    "2518": " circle",
    "2519": " gun",
    "2520": " queen",
    "2521": " towel",
    "2522": " Go",
    "2523": " couch",
    "2524": " smiling",
    "2525": " van",
    "2526": " icy",
    "2527": " imag",
    "2528": " nearby",
    "2529": " tear",
    "2530": "aughter",
    "2531": " ashamed",
    "2532": " yelled",
    "2533": " powerful",
    "2534": " Jerry",
    "2535": " Somet",
    "2536": " cri",
    "2537": " flag",
    "2538": " large",
    "2539": " places",
    "2540": " quest",
    "2541": " wand",
    "2542": " law",
    "2543": "Help",
    "2544": " Why",
    "2545": " af",
    "2546": " lamp",
    "2547": " wom",
    "2548": "lev",
    "2549": " Mama",
    "2550": " carried",
    "2551": " daughter",
    "2552": " mir",
    "2553": " pizza",
    "2554": " woman",
    "2555": "gest",
    "2556": "icked",
    "2557": "orrow",
    "2558": " ap",
    "2559": " glass",
    "2560": " journey",
    "2561": " trust",
    "2562": " wrap",
    "2563": "My",
    "2564": " Jim",
    "2565": " gas",
    "2566": " neigh",
    "2567": " rub",
    "2568": " true",
    "2569": "Stop",
    "2570": "ym",
    "2571": " bal",
    "2572": " neighb",
    "2573": " tries",
    "2574": "ones",
    "2575": "ror",
    "2576": "vous",
    "2577": " Jill",
    "2578": " emb",
    "2579": " ignor",
    "2580": " jeep",
    "2581": " uni",
    "2582": " unique",
    "2583": " expens",
    "2584": " expensive",
    "2585": " fright",
    "2586": " wearing",
    "2587": "isp",
    "2588": " If",
    "2589": " goes",
    "2590": " hur",
    "2591": " tomorrow",
    "2592": " Be",
    "2593": " dizzy",
    "2594": " loves",
    "2595": "itter",
    "2596": " ants",
    "2597": " dig",
    "2598": " saf",
    "2599": " weird",
    "2600": "ced",
    "2601": " Bobby",
    "2602": " chase",
    "2603": " dancing",
    "2604": " hello",
    "2605": " mirror",
    "2606": " these",
    "2607": "raid",
    "2608": "ugg",
    "2609": " afraid",
    "2610": " reg",
    "2611": " spring",
    "2612": " Br",
    "2613": " nothing",
    "2614": " scar",
    "2615": " Tiny",
    "2616": " frightened",
    "2617": " poor",
    "2618": "arra",
    "2619": "arrass",
    "2620": " cand",
    "2621": " eager",
    "2622": " embarrass",
    "2623": " lazy",
    "2624": " ner",
    "2625": " test",
    "2626": " unk",
    "2627": " whisp",
    "2628": "mer",
    "2629": "ndpa",
    "2630": " protect",
    "2631": "iff",
    "2632": " dest",
    "2633": " stood",
    "2634": " tomato",
    "2635": "aw",
    "2636": " nervous",
    "2637": " success",
    "2638": "ness",
    "2639": "nown",
    "2640": " bridge",
    "2641": " puzzle",
    "2642": " splashed",
    "2643": "bby",
    "2644": " bake",
    "2645": " clay",
    "2646": " pay",
    "2647": " unknown",
    "2648": " wip",
    "2649": " wis",
    "2650": " creative",
    "2651": " decor",
    "2652": " gen",
    "2653": " gigg",
    "2654": " gold",
    "2655": " impress",
    "2656": " incred",
    "2657": " feet",
    "2658": "ina",
    "2659": "ventually",
    "2660": " Rex",
    "2661": " incredible",
    "2662": "era",
    "2663": " lead",
    "2664": " sandwich",
    "2665": " sock",
    "2666": " sol",
    "2667": " tent",
    "2668": " swan",
    "2669": " teeth",
    "2670": " useful",
    "2671": "any",
    "2672": " How",
    "2673": " Mary",
    "2674": " clock",
    "2675": " Bear",
    "2676": " Bird",
    "2677": " boring",
    "2678": " respect",
    "2679": " steak",
    "2680": "ual",
    "2681": "ute",
    "2682": " disco",
    "2683": " soap",
    "2684": " square",
    "2685": " straw",
    "2686": "berry",
    "2687": " closet",
    "2688": " fool",
    "2689": " mixed",
    "2690": " pres",
    "2691": "lves",
    "2692": " knocked",
    "2693": " mask",
    "2694": " pump",
    "2695": " peaceful",
    "2696": " potato",
    "2697": "owed",
    "2698": " burn",
    "2699": " famous",
    "2700": " mysterious",
    "2701": " sword",
    "2702": " whale",
    "2703": "airs",
    "2704": "cream",
    "2705": " Andy",
    "2706": " bean",
    "2707": " gener",
    "2708": " har",
    "2709": "Tommy",
    "2710": "upid",
    "2711": " 3",
    "2712": " answer",
    "2713": " shark",
    "2714": " sold",
    "2715": " yog",
    "2716": "rated",
    "2717": "we",
    "2718": " sco",
    "2719": " Please",
    "2720": " feed",
    "2721": " kicked",
    "2722": " polite",
    "2723": " rug",
    "2724": " wouldn",
    "2725": "arl",
    "2726": "bled",
    "2727": "cient",
    "2728": " ancient",
    "2729": " disg",
    "2730": " jam",
    "2731": " measure",
    "2732": " snacks",
    "2733": "com",
    "2734": "erri",
    "2735": " blow",
    "2736": " corner",
    "2737": " relie",
    "2738": " esc",
    "2739": " noisy",
    "2740": " space",
    "2741": "ond",
    "2742": " branches",
    "2743": " scarf",
    "2744": " spread",
    "2745": "imp",
    "2746": "ote",
    "2747": "reen",
    "2748": " Don",
    "2749": " chocol",
    "2750": " painted",
    "2751": " stupid",
    "2752": "ormous",
    "2753": " eggs",
    "2754": " march",
    "2755": " rough",
    "2756": " shoe",
    "2757": "rob",
    "2758": " paws",
    "2759": " wagon",
    "2760": " crown",
    "2761": " dug",
    "2762": " dead",
    "2763": " disgust",
    "2764": " frust",
    "2765": " moms",
    "2766": " study",
    "2767": "uce",
    "2768": " Sometimes",
    "2769": " barn",
    "2770": " foolish",
    "2771": " terri",
    "2772": "robe",
    "2773": " enormous",
    "2774": " mis",
    "2775": " present",
    "2776": " rare",
    "2777": " sell",
    "2778": " steal",
    "2779": "Dad",
    "2780": "enny",
    "2781": " bald",
    "2782": " banana",
    "2783": " chocolate",
    "2784": " disgusting",
    "2785": " medic",
    "2786": " salad",
    "2787": " scare",
    "2788": " understood",
    "2789": " veget",
    "2790": " vegetable",
    "2791": " clap",
    "2792": " generous",
    "2793": " hero",
    "2794": " medicine",
    "2795": " stuff",
    "2796": "ado",
    "2797": "corn",
    "2798": "edient",
    "2799": "ighed",
    "2800": " bitter",
    "2801": " diff",
    "2802": " diffic",
    "2803": " goose",
    "2804": " group",
    "2805": " Instead",
    "2806": " Sammy",
    "2807": " breath",
    "2808": " difficult",
    "2809": " frustrated",
    "2810": " mush",
    "2811": " perform",
    "2812": " roar",
    "2813": " thick",
    "2814": "pes",
    "2815": " Pe",
    "2816": " covered",
    "2817": " market",
    "2818": " melon",
    "2819": " shadow",
    "2820": " smaller",
    "2821": " tick",
    "2822": " guit",
    "2823": " guitar",
    "2824": " obedient",
    "2825": " ord",
    "2826": " tasted",
    "2827": " wake",
    "2828": "mb",
    "2829": "orry",
    "2830": "port",
    "2831": "roy",
    "2832": " Some",
    "2833": " destroy",
    "2834": " horn",
    "2835": " hang",
    "2836": " lab",
    "2837": "alk",
    "2838": " asleep",
    "2839": " bored",
    "2840": " mot",
    "2841": " mountain",
    "2842": " ref",
    "2843": " toug",
    "2844": "asses",
    "2845": "inal",
    "2846": " standing",
    "2847": " taught",
    "2848": " which",
    "2849": "Timmy",
    "2850": "aking",
    "2851": " Brown",
    "2852": " become",
    "2853": " harm",
    "2854": " relieved",
    "2855": "land",
    "2856": "usual",
    "2857": " joined",
    "2858": " suit",
    "2859": " terrible",
    "2860": " tough",
    "2861": " exploring",
    "2862": " jung",
    "2863": " jeal",
    "2864": " jealous",
    "2865": " moving",
    "2866": " mushroom",
    "2867": " pebble",
    "2868": " squash",
    "2869": "atter",
    "2870": " adm",
    "2871": " jungle",
    "2872": " knife",
    "2873": " parrot",
    "2874": " yourself",
    "2875": "als",
    "2876": "fted",
    "2877": "iginal",
    "2878": " asking",
    "2879": " clear",
    "2880": " discover",
    "2881": " pumpkin",
    "2882": " tun",
    "2883": " unusual",
    "2884": "Here",
    "2885": "Together",
    "2886": " dull",
    "2887": " prize",
    "2888": " spoiled",
    "2889": " bul",
    "2890": " chicken",
    "2891": " fat",
    "2892": " sunf",
    "2893": "atch",
    "2894": " mighty",
    "2895": " nuts",
    "2896": " popcorn",
    "2897": " tiger",
    "2898": " bulb",
    "2899": " comb",
    "2900": " fine",
    "2901": " hears",
    "2902": " thoughtful",
    "2903": " Poppy",
    "2904": " hay",
    "2905": " sque",
    "2906": " seeds",
    "2907": " stri",
    "2908": " tool",
    "2909": " twist",
    "2910": " vase",
    "2911": "ident",
    "2912": "mp",
    "2913": "ume",
    "2914": " ind",
    "2915": " drop",
    "2916": " fier",
    "2917": " fierce",
    "2918": " original",
    "2919": "rag",
    "2920": " Will",
    "2921": " cop",
    "2922": " drawing",
    "2923": " ending",
    "2924": " snee",
    "2925": " carrots",
    "2926": " island",
    "2927": " thankful",
    "2928": " cro",
    "2929": " cheap",
    "2930": " embarrassed",
    "2931": " muff",
    "2932": " relax",
    "2933": " spent",
    "2934": "Inside",
    "2935": "umsy",
    "2936": " aunt",
    "2937": " bloom",
    "2938": " clown",
    "2939": " eng",
    "2940": " fold",
    "2941": " knowing",
    "2942": " mic",
    "2943": " troubled",
    "2944": "selves",
    "2945": " Tr",
    "2946": " balance",
    "2947": " finding",
    "2948": " frown",
    "2949": " record",
    "2950": " sunflower",
    "2951": " temp",
    "2952": "Are",
    "2953": "comfortable",
    "2954": "oto",
    "2955": " '",
    "2956": " Many",
    "2957": " chest",
    "2958": " hats",
    "2959": " lose",
    "2960": " uncomfortable",
    "2961": " Al",
    "2962": " Sunny",
    "2963": " add",
    "2964": " adventur",
    "2965": " cone",
    "2966": " exciting",
    "2967": " guess",
    "2968": " oce",
    "2969": " ocean",
    "2970": " shoot",
    "2971": "irsty",
    "2972": "ser",
    "2973": " acorn",
    "2974": " lifted",
    "2975": " stamp",
    "2976": "ilt",
    "2977": "iness",
    "2978": "xible",
    "2979": " Jenny",
    "2980": " clumsy",
    "2981": " scatter",
    "2982": " seal",
    "2983": " trick",
    "2984": "dle",
    "2985": "opard",
    "2986": "yal",
    "2987": " adventurous",
    "2988": " cush",
    "2989": " hairy",
    "2990": " pasta",
    "2991": " wrote",
    "2992": "Sorry",
    "2993": "ages",
    "2994": "angle",
    "2995": " arrow",
    "2996": " body",
    "2997": " cats",
    "2998": " crazy",
    "2999": " loyal",
    "3000": " neckl",
    "3001": " necklace",
    "3002": " picks",
    "3003": " unl",
    "3004": "Where",
    "3005": " ber",
    "3006": " berries",
    "3007": " brace",
    "3008": " cost",
    "3009": " comfortable",
    "3010": " depend",
    "3011": " exam",
    "3012": " harmless",
    "3013": " hose",
    "3014": " stubb",
    "3015": " tells",
    "3016": "ti",
    "3017": " behave",
    "3018": " deliver",
    "3019": " searched",
    "3020": "apped",
    "3021": "amond",
    "3022": "iant",
    "3023": "urkey",
    "3024": "xious",
    "3025": " anxious",
    "3026": " diamond",
    "3027": " engine",
    "3028": " organized",
    "3029": "aghe",
    "3030": "aghet",
    "3031": "aghetti",
    "3032": " collect",
    "3033": " crayon",
    "3034": " fis",
    "3035": " mov",
    "3036": " remind",
    "3037": " stubborn",
    "3038": "Molly",
    "3039": "ependent",
    "3040": "gu",
    "3041": " Emily",
    "3042": " playful",
    "3043": " practiced",
    "3044": " scr",
    "3045": " stretch",
    "3046": " swe",
    "3047": " turkey",
    "3048": " thirsty",
    "3049": "light",
    "3050": " bubbles",
    "3051": " env",
    "3052": " envel",
    "3053": " frag",
    "3054": " gloomy",
    "3055": " jug",
    "3056": " mailbox",
    "3057": " pir",
    "3058": " tied",
    "3059": " word",
    "3060": "anged",
    "3061": "host",
    "3062": " barber",
    "3063": " bathroom",
    "3064": " crawl",
    "3065": " flexible",
    "3066": " independent",
    "3067": " police",
    "3068": " prun",
    "3069": " raced",
    "3070": " rep",
    "3071": " spaghetti",
    "3072": " yours",
    "3073": "ants",
    "3074": "cod",
    "3075": "codile",
    "3076": "illa",
    "3077": "lph",
    "3078": " Even",
    "3079": " crack",
    "3080": " deer",
    "3081": " escape",
    "3082": " pro",
    "3083": " sil",
    "3084": "How",
    "3085": " U",
    "3086": " fragile",
    "3087": " ghost",
    "3088": " liz",
    "3089": " motor",
    "3090": " passed",
    "3091": " pige",
    "3092": " celebrate",
    "3093": " deaf",
    "3094": " dependable",
    "3095": " jolly",
    "3096": " needs",
    "3097": "aff",
    "3098": " While",
    "3099": " bees",
    "3100": " chess",
    "3101": " dolph",
    "3102": " dove",
    "3103": " fig",
    "3104": " rat",
    "3105": " roof",
    "3106": " stove",
    "3107": " wheat",
    "3108": "io",
    "3109": "shine",
    "3110": " attic",
    "3111": " brill",
    "3112": " crocodile",
    "3113": " flash",
    "3114": " leopard",
    "3115": " raven",
    "3116": " stat",
    "3117": "cident",
    "3118": " boys",
    "3119": " brilliant",
    "3120": " changed",
    "3121": " explained",
    "3122": " log",
    "3123": " map",
    "3124": " press",
    "3125": " painting",
    "3126": " shows",
    "3127": " sung",
    "3128": " yarn",
    "3129": "nic",
    "3130": " colour",
    "3131": " humble",
    "3132": " picnic",
    "3133": " thu",
    "3134": " weal",
    "3135": "If",
    "3136": "Their",
    "3137": "ground",
    "3138": " er",
    "3139": " board",
    "3140": " crawled",
    "3141": " mill",
    "3142": " shiver",
    "3143": " tricks",
    "3144": " zip",
    "3145": " choose",
    "3146": " envelope",
    "3147": " ignorant",
    "3148": " temple",
    "3149": " using",
    "3150": "hip",
    "3151": "nel",
    "3152": " avoc",
    "3153": " balloons",
    "3154": " cheerful",
    "3155": " frame",
    "3156": " friendship",
    "3157": " hoop",
    "3158": " ruined",
    "3159": " send",
    "3160": " sungl",
    "3161": " sunglasses",
    "3162": "Mama",
    "3163": "Me",
    "3164": "iv",
    "3165": "weet",
    "3166": " accident",
    "3167": " batter",
    "3168": " bottom",
    "3169": " built",
    "3170": " counted",
    "3171": " folder",
    "3172": " knee",
    "3173": " pepper",
    "3174": " popular",
    "3175": " raft",
    "3176": "inary",
    "3177": "met",
    "3178": "net",
    "3179": " compet",
    "3180": " delicate",
    "3181": " helmet",
    "3182": " pants",
    "3183": " rose",
    "3184": " spotted",
    "3185": " stones",
    "3186": " waves",
    "3187": "iddle",
    "3188": "most",
    "3189": " envious",
    "3190": " jack",
    "3191": " kissed",
    "3192": " screen",
    "3193": " spill",
    "3194": " sunshine",
    "3195": " toast",
    "3196": " triangle",
    "3197": "Every",
    "3198": "igator",
    "3199": "ulu",
    "3200": "work",
    "3201": " Your",
    "3202": " careless",
    "3203": " cleaning",
    "3204": " lizard",
    "3205": " louder",
    "3206": " middle",
    "3207": " miser",
    "3208": " miserable",
    "3209": " sighed",
    "3210": " stage",
    "3211": " trump",
    "3212": " trumpet",
    "3213": "ffe",
    "3214": "ffee",
    "3215": " No",
    "3216": " almost",
    "3217": " finger",
    "3218": " harsh",
    "3219": " impressive",
    "3220": " pow",
    "3221": " pigeon",
    "3222": " scale",
    "3223": " serious",
    "3224": " statue",
    "3225": " tunnel",
    "3226": " vegetables",
    "3227": " wander",
    "3228": "Jane",
    "3229": "ither",
    "3230": "ying",
    "3231": " Sh",
    "3232": " alligator",
    "3233": " belt",
    "3234": " borrow",
    "3235": " bracelet",
    "3236": " hopping",
    "3237": " maze",
    "3238": " sailed",
    "3239": "iable",
    "3240": "seum",
    "3241": " earth",
    "3242": " figure",
    "3243": " guard",
    "3244": " meant",
    "3245": " museum",
    "3246": " napkin",
    "3247": " nosy",
    "3248": " slipped",
    "3249": " attract",
    "3250": " bin",
    "3251": " compl",
    "3252": " penny",
    "3253": " post",
    "3254": " saus",
    "3255": " taken",
    "3256": " washed",
    "3257": "There",
    "3258": " coo",
    "3259": " cries",
    "3260": " coffee",
    "3261": " gar",
    "3262": " happiness",
    "3263": " hurts",
    "3264": " jacket",
    "3265": " jellyfish",
    "3266": " movie",
    "3267": " neighbor",
    "3268": " rh",
    "3269": " reliable",
    "3270": "Mum",
    "3271": " attractive",
    "3272": " filthy",
    "3273": " gor",
    "3274": " knight",
    "3275": " ordinary",
    "3276": "berries",
    "3277": "ctop",
    "3278": " cam",
    "3279": " cushion",
    "3280": " gem",
    "3281": " ones",
    "3282": " radio",
    "3283": " shore",
    "3284": " wealthy",
    "3285": "aser",
    "3286": " belonged",
    "3287": " boxes",
    "3288": " cab",
    "3289": " forward",
    "3290": " magnet",
    "3291": " muffin",
    "3292": " peach",
    "3293": " walks",
    "3294": "ipper",
    "3295": "obile",
    "3296": "omobile",
    "3297": "utomobile",
    "3298": " camera",
    "3299": " gorilla",
    "3300": " locked",
    "3301": " nod",
    "3302": " poured",
    "3303": " shade",
    "3304": " shells",
    "3305": " tag",
    "3306": "live",
    "3307": " automobile",
    "3308": " answered",
    "3309": " boats",
    "3310": " cabin",
    "3311": " dolphin",
    "3312": " fluffy",
    "3313": " loll",
    "3314": " lollip",
    "3315": " lollipop",
    "3316": " persist",
    "3317": " regular",
    "3318": " whispered",
    "3319": "pack",
    "3320": "zzy",
    "3321": " desk",
    "3322": " drawer",
    "3323": " giving",
    "3324": " nods",
    "3325": " times",
    "3326": "appy",
    "3327": "ext",
    "3328": "ony",
    "3329": " Miss",
    "3330": " competit",
    "3331": " create",
    "3332": " four",
    "3333": " load",
    "3334": " mule",
    "3335": " sailor",
    "3336": " smoke",
    "3337": "dom",
    "3338": " chu",
    "3339": " gum",
    "3340": " judge",
    "3341": " lotion",
    "3342": " octop",
    "3343": " saying",
    "3344": " travel",
    "3345": "cles",
    "3346": "coa",
    "3347": "omes",
    "3348": "uth",
    "3349": " Jake",
    "3350": " Today",
    "3351": " ang",
    "3352": " chubby",
    "3353": " cupboard",
    "3354": " delight",
    "3355": " shrimp",
    "3356": " sniff",
    "3357": " stronger",
    "3358": " twig",
    "3359": " witch",
    "3360": "ete",
    "3361": "inky",
    "3362": " bubble",
    "3363": " garage",
    "3364": " houses",
    "3365": " invited",
    "3366": " libr",
    "3367": " returned",
    "3368": " successful",
    "3369": " wool",
    "3370": "Go",
    "3371": "ging",
    "3372": "ict",
    "3373": "und",
    "3374": " helpless",
    "3375": " lean",
    "3376": " lively",
    "3377": " mole",
    "3378": " needle",
    "3379": " nicely",
    "3380": " showing",
    "3381": " support",
    "3382": "essie",
    "3383": "urb",
    "3384": " alert",
    "3385": " dough",
    "3386": " fearful",
    "3387": " grown",
    "3388": " helps",
    "3389": " moder",
    "3390": " persistent",
    "3391": " umb",
    "3392": " umbre",
    "3393": " yet",
    "3394": "Who",
    "3395": " club",
    "3396": " disturb",
    "3397": " dreams",
    "3398": " fridge",
    "3399": " gets",
    "3400": " radish",
    "3401": " scoot",
    "3402": " shine",
    "3403": " solve",
    "3404": " squee",
    "3405": " thie",
    "3406": " trunk",
    "3407": "anut",
    "3408": " Lulu",
    "3409": " bedroom",
    "3410": " cooked",
    "3411": " decide",
    "3412": " low",
    "3413": " licked",
    "3414": " modern",
    "3415": " octopus",
    "3416": " sleeping",
    "3417": " value",
    "3418": "anger",
    "3419": " bounced",
    "3420": " carp",
    "3421": " cere",
    "3422": " creature",
    "3423": " loudly",
    "3424": " repe",
    "3425": " ot",
    "3426": " Sn",
    "3427": " acce",
    "3428": " base",
    "3429": " city",
    "3430": " dive",
    "3431": " hive",
    "3432": " otter",
    "3433": " quar",
    "3434": " sle",
    "3435": " sort",
    "3436": " speak",
    "3437": " speed",
    "3438": " tank",
    "3439": " tire",
    "3440": " uncle",
    "3441": " ways",
    "3442": " wishes",
    "3443": " candle",
    "3444": " eraser",
    "3445": " gym",
    "3446": " hipp",
    "3447": " harder",
    "3448": " learning",
    "3449": " split",
    "3450": " thunder",
    "3451": " truth",
    "3452": " umbrella",
    "3453": "azz",
    "3454": "ense",
    "3455": " ador",
    "3456": " lit",
    "3457": " repair",
    "3458": " spend",
    "3459": " station",
    "3460": "Sarah",
    "3461": " cereal",
    "3462": " chalk",
    "3463": " cherries",
    "3464": " father",
    "3465": " guil",
    "3466": " guilty",
    "3467": " mild",
    "3468": " mop",
    "3469": " order",
    "3470": "cut",
    "3471": "ric",
    "3472": "xy",
    "3473": " biggest",
    "3474": " cocoa",
    "3475": " flashlight",
    "3476": " jet",
    "3477": " jewelry",
    "3478": " pointing",
    "3479": " quarrel",
    "3480": " thief",
    "3481": " vine",
    "3482": " week",
    "3483": " wheels",
    "3484": "Billy",
    "3485": "iron",
    "3486": "oin",
    "3487": "ulif",
    "3488": "ye",
    "3489": " ed",
    "3490": " Rob",
    "3491": " True",
    "3492": " adorable",
    "3493": " cact",
    "3494": " caulif",
    "3495": " fountain",
    "3496": " grace",
    "3497": " homes",
    "3498": " impat",
    "3499": " impatient",
    "3500": " knot",
    "3501": " sink",
    "3502": " soar",
    "3503": "tern",
    "3504": " cactus",
    "3505": " carpet",
    "3506": " happening",
    "3507": " library",
    "3508": " powder",
    "3509": " teas",
    "3510": "gen",
    "3511": " case",
    "3512": " forth",
    "3513": " herb",
    "3514": " office",
    "3515": " pengu",
    "3516": " skipped",
    "3517": " stream",
    "3518": " sweater",
    "3519": " Dolly",
    "3520": " fisher",
    "3521": " flute",
    "3522": " fork",
    "3523": " grandpa",
    "3524": " half",
    "3525": " lying",
    "3526": " shield",
    "3527": " staff",
    "3528": "Bobo",
    "3529": "arming",
    "3530": "irit",
    "3531": "keep",
    "3532": "ten",
    "3533": " charming",
    "3534": " grapes",
    "3535": " handle",
    "3536": " hippo",
    "3537": " whenever",
    "3538": "isted",
    "3539": "ject",
    "3540": "oby",
    "3541": "ory",
    "3542": "rn",
    "3543": "rage",
    "3544": " angel",
    "3545": " cauliflower",
    "3546": " counting",
    "3547": " feathers",
    "3548": " skin",
    "3549": " tripped",
    "3550": " valu",
    "3551": "assion",
    "3552": "esday",
    "3553": " Peter",
    "3554": " avocado",
    "3555": " design",
    "3556": " elev",
    "3557": " elevator",
    "3558": " hunt",
    "3559": " knows",
    "3560": " led",
    "3561": " marry",
    "3562": " slept",
    "3563": " strawberry",
    "3564": " tap",
    "3565": " themselves",
    "3566": " thinking",
    "3567": " ticket",
    "3568": "acht",
    "3569": "ped",
    "3570": "zed",
    "3571": " competitive",
    "3572": " complain",
    "3573": " dishw",
    "3574": " dishwas",
    "3575": " dishwasher",
    "3576": " eventually",
    "3577": " gifted",
    "3578": " spun",
    "3579": " teleph",
    "3580": " telephone",
    "3581": " wrapped",
    "3582": " yacht",
    "3583": "edy",
    "3584": " iron",
    "3585": " excite",
    "3586": " intell",
    "3587": " intellig",
    "3588": " shrink",
    "3589": " skip",
    "3590": " compassion",
    "3591": " disappoin",
    "3592": " flea",
    "3593": " gathered",
    "3594": " haircut",
    "3595": " photo",
    "3596": " quit",
    "3597": " sauce",
    "3598": " towers",
    "3599": " tray",
    "3600": "Mummy",
    "3601": " Rose",
    "3602": " Tweet",
    "3603": " anch",
    "3604": " deter",
    "3605": " decorate",
    "3606": " giggled",
    "3607": " nurse",
    "3608": " pirate",
    "3609": " poem",
    "3610": " pole",
    "3611": " wire",
    "3612": "ates",
    "3613": "rill",
    "3614": " aer",
    "3615": " aerop",
    "3616": " aeropl",
    "3617": " amb",
    "3618": " ambul",
    "3619": " ambulance",
    "3620": " anchor",
    "3621": " cricket",
    "3622": " ears",
    "3623": " ham",
    "3624": " question",
    "3625": " restless",
    "3626": " shape",
    "3627": " toe",
    "3628": " torn",
    "3629": " valuable",
    "3630": " waff",
    "3631": "Jim",
    "3632": "elery",
    "3633": " barrel",
    "3634": " buttons",
    "3635": " determ",
    "3636": " hotel",
    "3637": " numb",
    "3638": " slides",
    "3639": " vide",
    "3640": " yaw",
    "3641": "Fluffy",
    "3642": " edge",
    "3643": " sett",
    "3644": " stranger",
    "3645": "Give",
    "3646": "ache",
    "3647": "aged",
    "3648": "ats",
    "3649": "ision",
    "3650": " bull",
    "3651": " celery",
    "3652": " meal",
    "3653": " numbers",
    "3654": " pattern",
    "3655": " sight",
    "3656": " shut",
    "3657": " tears",
    "3658": " trail",
    "3659": " unlock",
    "3660": " wife",
    "3661": " zipper",
    "3662": "ating",
    "3663": "body",
    "3664": " Boun",
    "3665": " Jimmy",
    "3666": " bushes",
    "3667": " compassionate",
    "3668": " disappointed",
    "3669": " fisherman",
    "3670": " intelligent",
    "3671": " laughs",
    "3672": " means",
    "3673": " pit",
    "3674": " ribb",
    "3675": " salt",
    "3676": " spinning",
    "3677": " trap",
    "3678": " weigh",
    "3679": "old",
    "3680": " bananas",
    "3681": " cardboard",
    "3682": " comput",
    "3683": " mod",
    "3684": " model",
    "3685": " ple",
    "3686": "?\".",
    "3687": " Kim",
    "3688": " Pete",
    "3689": " Toby",
    "3690": " either",
    "3691": " hosp",
    "3692": " hospit",
    "3693": " hospital",
    "3694": " ink",
    "3695": " juicy",
    "3696": " mug",
    "3697": " newsp",
    "3698": " pear",
    "3699": " soldier",
    "3700": " surf",
    "3701": " vie",
    "3702": " view",
    "3703": " walls",
    "3704": "head",
    "3705": "keeper",
    "3706": " added",
    "3707": " birdc",
    "3708": " curt",
    "3709": " mitten",
    "3710": " oil",
    "3711": " rid",
    "3712": " short",
    "3713": "dest",
    "3714": "ito",
    "3715": "ophie",
    "3716": "quito",
    "3717": " People",
    "3718": " birdcage",
    "3719": " curtain",
    "3720": " distant",
    "3721": " nail",
    "3722": " pal",
    "3723": " pap",
    "3724": " pee",
    "3725": " prep",
    "3726": " safely",
    "3727": " silver",
    "3728": " spear",
    "3729": " succe",
    "3730": "'d",
    "3731": "Mr",
    "3732": "ention",
    "3733": "nam",
    "3734": " crib",
    "3735": " enc",
    "3736": " mos",
    "3737": " mosquito",
    "3738": " spilled",
    "3739": "!\".",
    "3740": "ushed",
    "3741": " Buzz",
    "3742": " bump",
    "3743": " bikes",
    "3744": " cob",
    "3745": " coins",
    "3746": " costume",
    "3747": " dreamed",
    "3748": " label",
    "3749": " lights",
    "3750": " purse",
    "3751": " pale",
    "3752": " painter",
    "3753": " playground",
    "3754": " questions",
    "3755": " rode",
    "3756": " task",
    "3757": " tummy",
    "3758": " wiped",
    "3759": " yogurt",
    "3760": "aving",
    "3761": "fa",
    "3762": "ron",
    "3763": "uper",
    "3764": "uring",
    "3765": "utes",
    "3766": " OK",
    "3767": " aeroplane",
    "3768": " glove",
    "3769": " graceful",
    "3770": " minutes",
    "3771": " motorcy",
    "3772": " pretending",
    "3773": " rubber",
    "3774": " shocked",
    "3775": " spirit",
    "3776": " succeed",
    "3777": "par",
    "3778": " Little",
    "3779": " chain",
    "3780": " coal",
    "3781": " collar",
    "3782": " computer",
    "3783": " dust",
    "3784": " falls",
    "3785": " helic",
    "3786": " helicop",
    "3787": " helicopter",
    "3788": " itself",
    "3789": " por",
    "3790": " palace",
    "3791": " prov",
    "3792": " sausage",
    "3793": " stack",
    "3794": ",”",
    "3795": "ait",
    "3796": "ately",
    "3797": "inoc",
    "3798": "inocer",
    "3799": "urch",
    "3800": " cryst",
    "3801": " crystal",
    "3802": " kindness",
    "3803": " knob",
    "3804": " ornam",
    "3805": " ornament",
    "3806": " pun",
    "3807": " scooter",
    "3808": "igerator",
    "3809": "inoceros",
    "3810": "rigerator",
    "3811": "uel",
    "3812": " Teddy",
    "3813": " ax",
    "3814": " fauc",
    "3815": " faucet",
    "3816": " gear",
    "3817": " golf",
    "3818": " lime",
    "3819": " melt",
    "3820": " oak",
    "3821": " packed",
    "3822": " parade",
    "3823": " rod",
    "3824": " steps",
    "3825": " Everywhere",
    "3826": " baseball",
    "3827": " eye",
    "3828": " hour",
    "3829": " leash",
    "3830": " lie",
    "3831": " modest",
    "3832": " newspaper",
    "3833": " refrigerator",
    "3834": " those",
    "3835": " vend",
    "3836": "umbled",
    "3837": " Bill",
    "3838": " avail",
    "3839": " brothers",
    "3840": " cable",
    "3841": " complet",
    "3842": " disappeared",
    "3843": " driving",
    "3844": " fog",
    "3845": " firew",
    "3846": " firework",
    "3847": " hate",
    "3848": " lic",
    "3849": " makeup",
    "3850": " matt",
    "3851": " picking",
    "3852": " rhinoceros",
    "3853": " super",
    "3854": " separ",
    "3855": "Is",
    "3856": "cing",
    "3857": "ilot",
    "3858": "levision",
    "3859": "ugged",
    "3860": " Give",
    "3861": " Spike",
    "3862": " inse",
    "3863": " license",
    "3864": " novel",
    "3865": " often",
    "3866": " onion",
    "3867": " pine",
    "3868": " resc",
    "3869": " serve",
    "3870": " sofa",
    "3871": " swinging",
    "3872": " television",
    "3873": " video",
    "3874": "ampoo",
    "3875": "stri",
    "3876": " Birdy",
    "3877": " Cl",
    "3878": " available",
    "3879": " axe",
    "3880": " church",
    "3881": " cups",
    "3882": " determined",
    "3883": " hook",
    "3884": " hall",
    "3885": " math",
    "3886": " managed",
    "3887": " medal",
    "3888": " polish",
    "3889": " rubbed",
    "3890": " spell",
    "3891": "Well",
    "3892": "aked",
    "3893": "roph",
    "3894": "time",
    "3895": " Bet",
    "3896": " Fo",
    "3897": " Mum",
    "3898": " alarm",
    "3899": " bags",
    "3900": " cobwe",
    "3901": " cobweb",
    "3902": " cooler",
    "3903": " disappear",
    "3904": " drawings",
    "3905": " meadow",
    "3906": " missile",
    "3907": " porch",
    "3908": " screw",
    "3909": " sparkly",
    "3910": " taller",
    "3911": "rophone",
    "3912": " ig",
    "3913": " bandage",
    "3914": " basketball",
    "3915": " batht",
    "3916": " bathtub",
    "3917": " bookshe",
    "3918": " climbing",
    "3919": " diary",
    "3920": " growl",
    "3921": " hoc",
    "3922": " hockey",
    "3923": " metal",
    "3924": " penguin",
    "3925": " stared",
    "3926": " vendor",
    "3927": " ward",
    "3928": " wardrobe",
    "3929": "arry",
    "3930": "stairs",
    "3931": " Johnny",
    "3932": " alre",
    "3933": " already",
    "3934": " battery",
    "3935": " bookshelf",
    "3936": " cherry",
    "3937": " enth",
    "3938": " enthus",
    "3939": " enthusia",
    "3940": " gasped",
    "3941": " hurry",
    "3942": " igl",
    "3943": " igloo",
    "3944": " may",
    "3945": " meat",
    "3946": " miner",
    "3947": " ostri",
    "3948": " rice",
    "3949": " rolling",
    "3950": " thread",
    "3951": " veil",
    "3952": "Bye",
    "3953": "erc",
    "3954": " Pipp",
    "3955": " Snow",
    "3956": " comet",
    "3957": " explain",
    "3958": " grape",
    "3959": " hunter",
    "3960": " insect",
    "3961": " itch",
    "3962": " knock",
    "3963": " magaz",
    "3964": " organize",
    "3965": " papers",
    "3966": " rise",
    "3967": " root",
    "3968": " stretched",
    "3969": " stud",
    "3970": " swung",
    "3971": "Re",
    "3972": "Wait",
    "3973": "omed",
    "3974": " bicy",
    "3975": " lumber",
    "3976": " mummy",
    "3977": " mattress",
    "3978": " microphone",
    "3979": " motorcycle",
    "3980": " notice",
    "3981": " ok",
    "3982": " object",
    "3983": "Al",
    "3984": "See",
    "3985": "affe",
    "3986": "istol",
    "3987": "verse",
    "3988": " arg",
    "3989": " cooking",
    "3990": " dess",
    "3991": " dreaming",
    "3992": " encou",
    "3993": " exerc",
    "3994": " flame",
    "3995": " impro",
    "3996": " mustache",
    "3997": " pilot",
    "3998": " pistol",
    "3999": " reward",
    "4000": " realised",
    "4001": " snap",
    "4002": "nger",
    "4003": "ricane",
    "4004": " Zoomy",
    "4005": " blackboard",
    "4006": " fought",
    "4007": " flour",
    "4008": " jokes",
    "4009": " sheet",
    "4010": " suggest",
    "4011": " troph",
    "4012": " unpack",
    "4013": " volc",
    "4014": " volcan",
    "4015": " wallet",
    "4016": " winter",
    "4017": "Gra",
    "4018": "aul",
    "4019": "ometer",
    "4020": " Lee",
    "4021": " bicycle",
    "4022": " blin",
    "4023": " buckle",
    "4024": " falling",
    "4025": " network",
    "4026": " pastry",
    "4027": " peanut",
    "4028": "aches",
    "4029": "iano",
    "4030": "ipe",
    "4031": "lter",
    "4032": "rmometer",
    "4033": " bent",
    "4034": " camp",
    "4035": " calling",
    "4036": " rake",
    "4037": " shampoo",
    "4038": " sunset",
    "4039": " trophy",
    "4040": " trucks",
    "4041": " vi",
    "4042": " volcano",
    "4043": "Ouch",
    "4044": "aid",
    "4045": " Pandy",
    "4046": " attach",
    "4047": " beef",
    "4048": " drain",
    "4049": " neat",
    "4050": " ostrich",
    "4051": " piano",
    "4052": " practice",
    "4053": " pressed",
    "4054": " stom",
    "4055": " weep",
    "4056": "aky",
    "4057": "asing",
    "4058": " apron",
    "4059": " bury",
    "4060": " hammer",
    "4061": " hanging",
    "4062": " hours",
    "4063": " human",
    "4064": " mem",
    "4065": " package",
    "4066": " poke",
    "4067": " shelter",
    "4068": " stable",
    "4069": " sweetie",
    "4070": " teasp",
    "4071": " teaspoon",
    "4072": " trains",
    "4073": "angu",
    "4074": "lies",
    "4075": "ured",
    "4076": " ow",
    "4077": " against",
    "4078": " blouse",
    "4079": " crane",
    "4080": " discovered",
    "4081": " enjoying",
    "4082": " hut",
    "4083": " ins",
    "4084": " kang",
    "4085": " kangar",
    "4086": " kangaroo",
    "4087": " marched",
    "4088": " message",
    "4089": " offered",
    "4090": " patch",
    "4091": " rag",
    "4092": " sym",
    "4093": " sne",
    "4094": " squirrels",
    "4095": " track",
    "4096": "bol",
    "4097": "ummer",
    "4098": " displ",
    "4099": " display",
    "4100": " early",
    "4101": " factor",
    "4102": " factory",
    "4103": " langu",
    "4104": " lend",
    "4105": " magazine",
    "4106": " passport",
    "4107": " prunes",
    "4108": " skirt",
    "4109": " skull",
    "4110": " symbol",
    "4111": " tu",
    "4112": " tube",
    "4113": " ur",
    "4114": "igz",
    "4115": "igzag",
    "4116": " Fro",
    "4117": " excitement",
    "4118": " fuel",
    "4119": " fingers",
    "4120": " frogs",
    "4121": " holds",
    "4122": " nation",
    "4123": " peeked",
    "4124": " prevent",
    "4125": " shovel",
    "4126": " stairs",
    "4127": "ature",
    "4128": " Bessie",
    "4129": " Look",
    "4130": " Zip",
    "4131": " accidentally",
    "4132": " bathe",
    "4133": " cell",
    "4134": " castles",
    "4135": " check",
    "4136": " dessert",
    "4137": " enthusiast",
    "4138": " enthusiastic",
    "4139": " journal",
    "4140": " lip",
    "4141": " once",
    "4142": " perm",
    "4143": " rot",
    "4144": " son",
    "4145": " ten",
    "4146": " univer",
    "4147": "Little",
    "4148": " Dan",
    "4149": " cube",
    "4150": " football",
    "4151": " freez",
    "4152": " happier",
    "4153": " junk",
    "4154": " kne",
    "4155": " oy",
    "4156": " opens",
    "4157": " popped",
    "4158": " ske",
    "4159": " theater",
    "4160": " yoga",
    "4161": "leton",
    "4162": " Buzzy",
    "4163": " Here",
    "4164": " allowed",
    "4165": " bathrobe",
    "4166": " cord",
    "4167": " five",
    "4168": " growing",
    "4169": " hedge",
    "4170": " loop",
    "4171": " matches",
    "4172": " pipe",
    "4173": " reading",
    "4174": " shaking",
    "4175": " skeleton",
    "4176": " telling",
    "4177": " thermometer",
    "4178": " zoomed",
    "4179": "ffic",
    "4180": "ience",
    "4181": "ium",
    "4182": " ",
    "4183": " disag",
    "4184": " distance",
    "4185": " fastest",
    "4186": " restore",
    "4187": " slipp",
    "4188": "azor",
    "4189": "come",
    "4190": "ination",
    "4191": "xygen",
    "4192": " hanger",
    "4193": " listening",
    "4194": " pinch",
    "4195": " stumbled",
    "4196": "iction",
    "4197": "ictionary",
    "4198": "ines",
    "4199": "ney",
    "4200": " ahead",
    "4201": " admire",
    "4202": " dictionary",
    "4203": " film",
    "4204": " goal",
    "4205": " peek",
    "4206": " planet",
    "4207": " ribbon",
    "4208": " stirred",
    "4209": " superher",
    "4210": " superhero",
    "4211": " viol",
    "4212": "case",
    "4213": " Mummy",
    "4214": " Tina",
    "4215": " alive",
    "4216": " brick",
    "4217": " chose",
    "4218": " complete",
    "4219": " gaz",
    "4220": " helper",
    "4221": " reverse",
    "4222": " stickers",
    "4223": " surprises",
    "4224": " toile",
    "4225": " trash",
    "4226": " violin",
    "4227": "Sh",
    "4228": "fast",
    "4229": " chasing",
    "4230": " jumps",
    "4231": " pony",
    "4232": " poppy",
    "4233": " sub",
    "4234": " stops",
    "4235": " strugg",
    "4236": "arian",
    "4237": "astic",
    "4238": " Ellie",
    "4239": " accept",
    "4240": " bill",
    "4241": " blinked",
    "4242": " breakfast",
    "4243": " cudd",
    "4244": " circles",
    "4245": " doesn",
    "4246": " freezer",
    "4247": " laund",
    "4248": " laundry",
    "4249": " mineral",
    "4250": " rail",
    "4251": " respectful",
    "4252": "Jill",
    "4253": "apon",
    "4254": "cu",
    "4255": "iest",
    "4256": "place",
    "4257": " beet",
    "4258": " exercise",
    "4259": " fest",
    "4260": " festiv",
    "4261": " festival",
    "4262": " grill",
    "4263": " hol",
    "4264": " hurricane",
    "4265": " laser",
    "4266": " leaving",
    "4267": " player",
    "4268": " refused",
    "4269": " summer",
    "4270": " strip",
    "4271": " switch",
    "4272": " tooth",
    "4273": " toilet",
    "4274": " vest",
    "4275": "chan",
    "4276": "iday",
    "4277": "render",
    "4278": " Mrs",
    "4279": " cabinet",
    "4280": " doors",
    "4281": " fireplace",
    "4282": " holiday",
    "4283": " language",
    "4284": " leak",
    "4285": " lions",
    "4286": " stad",
    "4287": " stadium",
    "4288": " waffle",
    "4289": " Elly",
    "4290": " Zoom",
    "4291": " airport",
    "4292": " berry",
    "4293": " men",
    "4294": " meowed",
    "4295": " mint",
    "4296": " monkeys",
    "4297": " pleased",
    "4298": " rules",
    "4299": " searching",
    "4300": " sneeze",
    "4301": " sniffed",
    "4302": " spoke",
    "4303": " twir",
    "4304": "Did",
    "4305": "htray",
    "4306": " Betty",
    "4307": " comfort",
    "4308": " favour",
    "4309": " forgave",
    "4310": " lawn",
    "4311": " lemons",
    "4312": " oats",
    "4313": " razor",
    "4314": " roared",
    "4315": " sandwic",
    "4316": " sandwiches",
    "4317": " slap",
    "4318": " tip",
    "4319": " tightly",
    "4320": " traffic",
    "4321": "Em",
    "4322": "Ow",
    "4323": "med",
    "4324": "wards",
    "4325": " Mar",
    "4326": " Or",
    "4327": " agree",
    "4328": " anyway",
    "4329": " ashtray",
    "4330": " boots",
    "4331": " cur",
    "4332": " caring",
    "4333": " chim",
    "4334": " chimney",
    "4335": " favourite",
    "4336": " finds",
    "4337": " mechan",
    "4338": " mechanic",
    "4339": " meeting",
    "4340": " nature",
    "4341": " obser",
    "4342": " pair",
    "4343": " plastic",
    "4344": " sent",
    "4345": " separate",
    "4346": " slip",
    "4347": " sticker",
    "4348": " stomach",
    "4349": " windows",
    "4350": "iggly",
    "4351": "ince",
    "4352": "ki",
    "4353": " Jazz",
    "4354": " barking",
    "4355": " beetle",
    "4356": " blueberry",
    "4357": " breat",
    "4358": " cows",
    "4359": " ener",
    "4360": " grabs",
    "4361": " lightning",
    "4362": " mixer",
    "4363": " resist",
    "4364": " tomatoes",
    "4365": " unite",
    "4366": "ement",
    "4367": "res",
    "4368": " Y",
    "4369": " Are",
    "4370": " belongs",
    "4371": " cards",
    "4372": " classroom",
    "4373": " giraffe",
    "4374": " holes",
    "4375": " imagine",
    "4376": " letters",
    "4377": " minute",
    "4378": " poked",
    "4379": " point",
    "4380": " sport",
    "4381": " subway",
    "4382": " veh",
    "4383": " vehic",
    "4384": "year",
    "4385": " Big",
    "4386": " Bounce",
    "4387": " Pippin",
    "4388": " Sophie",
    "4389": " billboard",
    "4390": " flood",
    "4391": " invite",
    "4392": " kay",
    "4393": " kayak",
    "4394": " laught",
    "4395": " laughter",
    "4396": " mistakes",
    "4397": " noteb",
    "4398": " notebook",
    "4399": " oyster",
    "4400": " remove",
    "4401": "amber",
    "4402": "la",
    "4403": "night",
    "4404": " Alice",
    "4405": " cartoon",
    "4406": " country",
    "4407": " handed",
    "4408": " improve",
    "4409": " leaned",
    "4410": " musician",
    "4411": " names",
    "4412": " oxygen",
    "4413": " puddles",
    "4414": " rac",
    "4415": " remain",
    "4416": " yield",
    "4417": "apa",
    "4418": "te",
    "4419": " Sandy",
    "4420": " bookcase",
    "4421": " chamber",
    "4422": " courage",
    "4423": " glowing",
    "4424": " problems",
    "4425": " proudly",
    "4426": " size",
    "4427": " sudden",
    "4428": " sandc",
    "4429": " sandcast",
    "4430": " spoil",
    "4431": " swamp",
    "4432": " warn",
    "4433": " warned",
    "4434": " whip",
    "4435": "Jimmy",
    "4436": "chair",
    "4437": " Ru",
    "4438": " above",
    "4439": " beep",
    "4440": " dancer",
    "4441": " lawy",
    "4442": " pulls",
    "4443": " pushes",
    "4444": " sadly",
    "4445": " strawberries",
    "4446": " wine",
    "4447": " wipe",
    "4448": "eb",
    "4449": "eterin",
    "4450": "eterinarian",
    "4451": "igi",
    "4452": "lend",
    "4453": "ola",
    "4454": "vice",
    "4455": " Co",
    "4456": " appl",
    "4457": " butterflies",
    "4458": " ceiling",
    "4459": " cliff",
    "4460": " copper",
    "4461": " fre",
    "4462": " frowned",
    "4463": " navy",
    "4464": " pages",
    "4465": " panic",
    "4466": " rescue",
    "4467": " sandbox",
    "4468": " slippery",
    "4469": " soil",
    "4470": " surrender",
    "4471": " trade",
    "4472": "Joe",
    "4473": "ison",
    "4474": " x",
    "4475": " Ow",
    "4476": " Polly",
    "4477": " art",
    "4478": " armchair",
    "4479": " carrying",
    "4480": " feelings",
    "4481": " fort",
    "4482": " incre",
    "4483": " kinds",
    "4484": " kneel",
    "4485": " page",
    "4486": " planes",
    "4487": " rece",
    "4488": " tease",
    "4489": " veterinarian",
    "4490": "ccol",
    "4491": "ccoli",
    "4492": "emember",
    "4493": "rod",
    "4494": "usie",
    "4495": " believed",
    "4496": " brightly",
    "4497": " delay",
    "4498": " energy",
    "4499": " ignore",
    "4500": " introd",
    "4501": " provide",
    "4502": " repeat",
    "4503": " stair",
    "4504": " weapon",
    "4505": "aud",
    "4506": "ebra",
    "4507": "ecause",
    "4508": "gie",
    "4509": " Paul",
    "4510": " calend",
    "4511": " calendar",
    "4512": " heat",
    "4513": " lid",
    "4514": " mailman",
    "4515": " ped",
    "4516": " prayed",
    "4517": " regret",
    "4518": " shakes",
    "4519": " somewhere",
    "4520": " tools",
    "4521": " waste",
    "4522": "anda",
    "4523": "cer",
    "4524": "edn",
    "4525": "ednesday",
    "4526": "lu",
    "4527": "rosc",
    "4528": "roscope",
    "4529": " God",
    "4530": " Where",
    "4531": " aw",
    "4532": " advice",
    "4533": " apol",
    "4534": " apolog",
    "4535": " keeping",
    "4536": " lives",
    "4537": " meas",
    "4538": " nobody",
    "4539": " older",
    "4540": " reminded",
    "4541": " saving",
    "4542": " sandcastle",
    "4543": " sounded",
    "4544": " zebra",
    "4545": "imed",
    "4546": "low",
    "4547": " anywhere",
    "4548": " cane",
    "4549": " choice",
    "4550": " ext",
    "4551": " flies",
    "4552": " freeze",
    "4553": " invit",
    "4554": " lawyer",
    "4555": " mystery",
    "4556": " price",
    "4557": " raise",
    "4558": " vehicle",
    "4559": "Your",
    "4560": "elcome",
    "4561": "oe",
    "4562": " Grandpa",
    "4563": " Su",
    "4564": " breaks",
    "4565": " chairs",
    "4566": " colourful",
    "4567": " crossed",
    "4568": " dear",
    "4569": " happens",
    "4570": " imagined",
    "4571": " inclu",
    "4572": " letting",
    "4573": " rushed",
    "4574": " rooms",
    "4575": " shone",
    "4576": " shouts",
    "4577": " softly",
    "4578": " starts",
    "4579": " suggested",
    "4580": " tax",
    "4581": "ations",
    "4582": "eer",
    "4583": "hest",
    "4584": " Gigi",
    "4585": " Next",
    "4586": " Papa",
    "4587": " Wiggly",
    "4588": " applaud",
    "4589": " chickens",
    "4590": " eaten",
    "4591": " excitedly",
    "4592": " pitch",
    "4593": " recog",
    "4594": " recogn",
    "4595": " replace",
    "4596": " restaur",
    "4597": " restaurant",
    "4598": " smells",
    "4599": " squeeze",
    "4600": " taxi",
    "4601": "aggie",
    "4602": "alley",
    "4603": "lex",
    "4604": "ores",
    "4605": " Carl",
    "4606": " blowing",
    "4607": " broccoli",
    "4608": " content",
    "4609": " file",
    "4610": " gain",
    "4611": " olive",
    "4612": " rained",
    "4613": " ranch",
    "4614": " reind",
    "4615": " reindeer",
    "4616": " steam",
    "4617": " tub",
    "4618": " trem",
    "4619": " valley",
    "4620": "Mark",
    "4621": "Mary",
    "4622": "Next",
    "4623": "apping",
    "4624": "eor",
    "4625": "eorge",
    "4626": " V",
    "4627": " Ste",
    "4628": " Wednesday",
    "4629": " Would",
    "4630": " dishes",
    "4631": " equ",
    "4632": " ended",
    "4633": " extra",
    "4634": " microscope",
    "4635": "arlie",
    "4636": " barks",
    "4637": " blueberries",
    "4638": " bouncing",
    "4639": " chewed",
    "4640": " dare",
    "4641": " delighted",
    "4642": " event",
    "4643": " fresh",
    "4644": " hung",
    "4645": " mass",
    "4646": " prepare",
    "4647": " reve",
    "4648": " sneezed",
    "4649": " spade",
    "4650": " tornado",
    "4651": "Yay",
    "4652": "Yuck",
    "4653": "ected",
    "4654": "ero",
    "4655": "na",
    "4656": "utor",
    "4657": " Fl",
    "4658": " argue",
    "4659": " chance",
    "4660": " gro",
    "4661": " heads",
    "4662": " hoping",
    "4663": " myself",
    "4664": " poison",
    "4665": " riding",
    "4666": " scold",
    "4667": " settle",
    "4668": " tutor",
    "4669": "Daisy",
    "4670": "Will",
    "4671": "ggy",
    "4672": "tain",
    "4673": "vet",
    "4674": " Binky",
    "4675": " Freddy",
    "4676": " opera",
    "4677": " quiz",
    "4678": " shrugged",
    "4679": " vac",
    "4680": "Ready",
    "4681": "illie",
    "4682": " End",
    "4683": " Spark",
    "4684": " baking",
    "4685": " bend",
    "4686": " burned",
    "4687": " chores",
    "4688": " discu",
    "4689": " discuss",
    "4690": " enter",
    "4691": " equip",
    "4692": " equipment",
    "4693": " evening",
    "4694": " float",
    "4695": " giggle",
    "4696": " missing",
    "4697": " prints",
    "4698": " suff",
    "4699": " seas",
    "4700": " shivering",
    "4701": " skill",
    "4702": " vacation",
    "4703": " weather",
    "4704": "Qu",
    "4705": "asis",
    "4706": " aftern",
    "4707": " afternoon",
    "4708": " fixing",
    "4709": " mention",
    "4710": " oasis",
    "4711": " prune",
    "4712": " pushing",
    "4713": " reveal",
    "4714": " sty",
    "4715": " struc",
    "4716": " structure",
    "4717": " thanks",
    "4718": "acked",
    "4719": " Lilly",
    "4720": " Under",
    "4721": " bumped",
    "4722": " dem",
    "4723": " grand",
    "4724": " hills",
    "4725": " perfume",
    "4726": " placed",
    "4727": " puzzles",
    "4728": " socks",
    "4729": " spots",
    "4730": " throwing",
    "4731": " throws",
    "4732": " trusted",
    "4733": " writing",
    "4734": " yawned",
    "4735": "heart",
    "4736": "inking",
    "4737": "ky",
    "4738": " Mike",
    "4739": " beans",
    "4740": " below",
    "4741": " captain",
    "4742": " coats",
    "4743": " insisted",
    "4744": " luck",
    "4745": " mall",
    "4746": " parts",
    "4747": " tracks",
    "4748": "Ann",
    "4749": "ana",
    "4750": "otten",
    "4751": "sity",
    "4752": " Me",
    "4753": " brighter",
    "4754": " cared",
    "4755": " claw",
    "4756": " following",
    "4757": " pastel",
    "4758": " printed",
    "4759": " sigh",
    "4760": " sew",
    "4761": " shoulder",
    "4762": " shower",
    "4763": " sticky",
    "4764": " sweetheart",
    "4765": " unh",
    "4766": "\",",
    "4767": "Buddy",
    "4768": "Ch",
    "4769": "ef",
    "4770": "queaky",
    "4771": " Bow",
    "4772": " Un",
    "4773": " Who",
    "4774": " expect",
    "4775": " greedy",
    "4776": " impressed",
    "4777": " panda",
    "4778": " punish",
    "4779": " recom",
    "4780": " recomm",
    "4781": " recommend",
    "4782": " teaching",
    "4783": " unhappy",
    "4784": "All",
    "4785": "Not",
    "4786": "peedy",
    "4787": "va",
    "4788": " Have",
    "4789": " Hoppy",
    "4790": " Ro",
    "4791": " beg",
    "4792": " candles",
    "4793": " deeper",
    "4794": " exper",
    "4795": " unif",
    "4796": " uniform",
    "4797": "look",
    "4798": "uggage",
    "4799": " Che",
    "4800": " Eventually",
    "4801": " Penny",
    "4802": " clapping",
    "4803": " cub",
    "4804": " easily",
    "4805": " hen",
    "4806": " luggage",
    "4807": " score",
    "4808": " sparkled",
    "4809": " splashing",
    "4810": " sprayed",
    "4811": " tour",
    "4812": " weight",
    "4813": " yucky",
    "4814": "Before",
    "4815": "Daddy",
    "4816": "Jenny",
    "4817": "enry",
    "4818": "lp",
    "4819": "nce",
    "4820": " Help",
    "4821": " checked",
    "4822": " destroyed",
    "4823": " follows",
    "4824": " ignored",
    "4825": " lear",
    "4826": " learnt",
    "4827": " lemonade",
    "4828": " racing",
    "4829": " sir",
    "4830": " steel",
    "4831": " whisper",
    "4832": "Surpr",
    "4833": "ittens",
    "4834": "looking",
    "4835": " Olive",
    "4836": " Susie",
    "4837": " Whenever",
    "4838": " buried",
    "4839": " chirp",
    "4840": " cheek",
    "4841": " furn",
    "4842": " fro",
    "4843": " furnit",
    "4844": " furniture",
    "4845": " permit",
    "4846": " scattered",
    "4847": " seco",
    "4848": " second",
    "4849": " selling",
    "4850": " spr",
    "4851": " tremble",
    "4852": " upstairs",
    "4853": " vanished",
    "4854": " wigg",
    "4855": " worms",
    "4856": "Mimi",
    "4857": "anges",
    "4858": "ari",
    "4859": "ecting",
    "4860": "hood",
    "4861": "riage",
    "4862": "ucked",
    "4863": " Is",
    "4864": " Snowy",
    "4865": " badly",
    "4866": " betwe",
    "4867": " between",
    "4868": " cree",
    "4869": " creek",
    "4870": " demand",
    "4871": " entered",
    "4872": " jail",
    "4873": " jogged",
    "4874": " reef",
    "4875": " sorting",
    "4876": " streng",
    "4877": " vroom",
    "4878": " whistled",
    "4879": "Welcome",
    "4880": "ents",
    "4881": "iki",
    "4882": "uct",
    "4883": " \n",
    "4884": " ing",
    "4885": " Froggy",
    "4886": " bricks",
    "4887": " claws",
    "4888": " counter",
    "4889": " excla",
    "4890": " exclaimed",
    "4891": " hopes",
    "4892": " ingred",
    "4893": " ingredient",
    "4894": " lec",
    "4895": " lecture",
    "4896": " marble",
    "4897": " massage",
    "4898": " paid",
    "4899": " points",
    "4900": " quite",
    "4901": " rush",
    "4902": " style",
    "4903": " supply",
    "4904": " thumb",
    "4905": " wre",
    "4906": "ides",
    "4907": " Pr",
    "4908": " Squeaky",
    "4909": " bother",
    "4910": " breathe",
    "4911": " climbs",
    "4912": " cutting",
    "4913": " grant",
    "4914": " hurting",
    "4915": " neighbour",
    "4916": " port",
    "4917": " petals",
    "4918": " row",
    "4919": " scratch",
    "4920": " seats",
    "4921": " strength",
    "4922": "Surprise",
    "4923": "izes",
    "4924": " Mittens",
    "4925": " Sm",
    "4926": " Speedy",
    "4927": " allow",
    "4928": " bears",
    "4929": " cakes",
    "4930": " invitation",
    "4931": " marriage",
    "4932": " menu",
    "4933": " putting",
    "4934": " raining",
    "4935": " shopkeeper",
    "4936": " tug",
    "4937": " –",
    "4938": "Alice",
    "4939": "These",
    "4940": "ges",
    "4941": " Alex",
    "4942": " Grace",
    "4943": " Lola",
    "4944": " admired",
    "4945": " agre",
    "4946": " explored",
    "4947": " furt",
    "4948": " forgotten",
    "4949": " heel",
    "4950": " ingredients",
    "4951": " pigs",
    "4952": " printer",
    "4953": " snail",
    "4954": " starting",
    "4955": " waving",
    "4956": " wags",
    "4957": " works",
    "4958": "resses",
    "4959": " Finn",
    "4960": " apart",
    "4961": " balan",
    "4962": " daisy",
    "4963": " difference",
    "4964": " drops",
    "4965": " eagerly",
    "4966": " fallen",
    "4967": " further",
    "4968": " hon",
    "4969": " introduce",
    "4970": " jogging",
    "4971": " observe",
    "4972": " plates",
    "4973": " sailing",
    "4974": " scoop",
    "4975": " shined",
    "4976": " soc",
    "4977": " washing",
    "4978": " wreck",
    "4979": "Because",
    "4980": "Grandma",
    "4981": "ecially",
    "4982": "right",
    "4983": " Maggie",
    "4984": " Sharing",
    "4985": " acted",
    "4986": " blood",
    "4987": " during",
    "4988": " floated",
    "4989": " pup",
    "4990": " soccer",
    "4991": " strike",
    "4992": " tuna",
    "4993": "atched",
    "4994": "specially",
    "4995": "thank",
    "4996": " Nana",
    "4997": " Remember",
    "4998": " Tilly",
    "4999": " beauty",
    "5000": " buzz",
    "5001": " especially",
    "5002": " flapped",
    "5003": " folded",
    "5004": " highest",
    "5005": " horses",
    "5006": " increase",
    "5007": " moves",
    "5008": " planted",
    "5009": " plays",
    "5010": " rul",
    "5011": " studied",
    "5012": " tong",
    "5013": " wandered",
    "5014": " warning",
    "5015": " worth",
    "5016": " yawn",
    "5017": "eration",
    "5018": "icer",
    "5019": "reat",
    "5020": " Everything",
    "5021": " Kiki",
    "5022": " Lizzy",
    "5023": " Owl",
    "5024": " Tu",
    "5025": " Tuesday",
    "5026": " conf",
    "5027": " examine",
    "5028": " famil",
    "5029": " given",
    "5030": " kingdom",
    "5031": " oh",
    "5032": " presents",
    "5033": " reaches",
    "5034": " shouting",
    "5035": " urge",
    "5036": " watered",
    "5037": "..",
    "5038": "Bella",
    "5039": "Bl",
    "5040": "quake",
    "5041": "quest",
    "5042": "reeze",
    "5043": " Charlie",
    "5044": " Coco",
    "5045": " See",
    "5046": " bak",
    "5047": " brings",
    "5048": " dressed",
    "5049": " earthquake",
    "5050": " elephants",
    "5051": " gifts",
    "5052": " harb",
    "5053": " harbor",
    "5054": " lands",
    "5055": " quietly",
    "5056": " scolded",
    "5057": " slapped",
    "5058": " snapped",
    "5059": " soak",
    "5060": " solved",
    "5061": " sorts",
    "5062": " twisted",
    "5063": " university",
    "5064": "Ella",
    "5065": "Fred",
    "5066": "iately",
    "5067": "men",
    "5068": "mediately",
    "5069": "raged",
    "5070": "unately",
    "5071": " Dave",
    "5072": " Milly",
    "5073": " crash",
    "5074": " curled",
    "5075": " experience",
    "5076": " hadn",
    "5077": " hearts",
    "5078": " inst",
    "5079": " pur",
    "5080": " request",
    "5081": " sits",
    "5082": " snugg",
    "5083": " tongue",
    "5084": " zero",
    "5085": " zigzag",
    "5086": "Leo",
    "5087": "omeday",
    "5088": " Bubbles",
    "5089": " Kate",
    "5090": " Le",
    "5091": " comf",
    "5092": " image",
    "5093": " kis",
    "5094": " kisses",
    "5095": " mister",
    "5096": " memory",
    "5097": " operation",
    "5098": " oranges",
    "5099": " planned",
    "5100": " sliding",
    "5101": " trave",
    "5102": " west",
    "5103": " wisdom",
    "5104": "Emma",
    "5105": "Everyone",
    "5106": "ester",
    "5107": "esterday",
    "5108": "pted",
    "5109": "sed",
    "5110": " Finny",
    "5111": " Good",
    "5112": " Ruby",
    "5113": " attached",
    "5114": " bouncy",
    "5115": " fields",
    "5116": " licks",
    "5117": " paused",
    "5118": " prett",
    "5119": " ruler",
    "5120": " sizes",
    "5121": " someday",
    "5122": " skills",
    "5123": " squeezed",
    "5124": " stuffed",
    "5125": " tide",
    "5126": " worse",
    "5127": "do",
    "5128": "eath",
    "5129": "ipping",
    "5130": "rise",
    "5131": " Abby",
    "5132": " accepted",
    "5133": " appear",
    "5134": " cape",
    "5135": " catching",
    "5136": " colours",
    "5137": " encourage",
    "5138": " ideas",
    "5139": " imagination",
    "5140": " mama",
    "5141": " manage",
    "5142": " pulling",
    "5143": " release",
    "5144": " since",
    "5145": " shot",
    "5146": " sorted",
    "5147": " suffer",
    "5148": "'ve",
    "5149": "Woof",
    "5150": "aded",
    "5151": "atie",
    "5152": "mm",
    "5153": "ories",
    "5154": " Bop",
    "5155": " Rock",
    "5156": " Toto",
    "5157": " attention",
    "5158": " bones",
    "5159": " blankets",
    "5160": " dried",
    "5161": " immediately",
    "5162": " mice",
    "5163": " measured",
    "5164": " news",
    "5165": " peaches",
    "5166": " pearl",
    "5167": " tonight",
    "5168": " twirled",
    "5169": " welcomed",
    "5170": " zookeeper",
    "5171": "Ha",
    "5172": "Today",
    "5173": " Bee",
    "5174": " Before",
    "5175": " George",
    "5176": " Millie",
    "5177": " Pip",
    "5178": " Ros",
    "5179": " Sky",
    "5180": " calls",
    "5181": " celebrated",
    "5182": " closely",
    "5183": " growled",
    "5184": " leather",
    "5185": " melted",
    "5186": " peanuts",
    "5187": " rabbits",
    "5188": " season",
    "5189": " settled",
    "5190": " spike",
    "5191": " sunrise",
    "5192": " tucked",
    "5193": " wagging",
    "5194": " whistling",
    "5195": "With",
    "5196": "ction",
    "5197": "house",
    "5198": "ippy",
    "5199": "indy",
    "5200": "sters",
    "5201": "yth",
    "5202": " Ho",
    "5203": " Mo",
    "5204": " Zara",
    "5205": " ble",
    "5206": " dresses",
    "5207": " disagreed",
    "5208": " downstairs",
    "5209": " fireman",
    "5210": " glo",
    "5211": " groc",
    "5212": " grocery",
    "5213": " married",
    "5214": " ours",
    "5215": " quack",
    "5216": " receive",
    "5217": " recognize",
    "5218": " remained",
    "5219": " si",
    "5220": " stealing",
    "5221": " tastes",
    "5222": " winning",
    "5223": "Remy",
    "5224": "etch",
    "5225": "ips",
    "5226": "ups",
    "5227": " Clara",
    "5228": " Hope",
    "5229": " Pat",
    "5230": " Sund",
    "5231": " Steve",
    "5232": " Sunday",
    "5233": " Wally",
    "5234": " bang",
    "5235": " cras",
    "5236": " easier",
    "5237": " emer",
    "5238": " gloves",
    "5239": " inf",
    "5240": " lips",
    "5241": " memories",
    "5242": " palm",
    "5243": " punished",
    "5244": " safari",
    "5245": " shed",
    "5246": " sidew",
    "5247": " sidewalk",
    "5248": " snuggled",
    "5249": " soaked",
    "5250": " stirring",
    "5251": " stro",
    "5252": " surround",
    "5253": " toes",
    "5254": " tore",
    "5255": " tremb",
    "5256": " understanding",
    "5257": " wooden",
    "5258": " zipped",
    "5259": "Blue",
    "5260": "fortunately",
    "5261": "ising",
    "5262": "ored",
    "5263": "rank",
    "5264": " Danny",
    "5265": " Fox",
    "5266": " Red",
    "5267": " baked",
    "5268": " backpack",
    "5269": " breaking",
    "5270": " collection",
    "5271": " creatures",
    "5272": " encouraged",
    "5273": " hits",
    "5274": " isn",
    "5275": " potatoes",
    "5276": " rang",
    "5277": " seeing",
    "5278": " snowball",
    "5279": " straight",
    "5280": " universe",
    "5281": "Bird",
    "5282": "ding",
    "5283": "ddy",
    "5284": "icing",
    "5285": "icky",
    "5286": "ythm",
    "5287": " Ava",
    "5288": " Henry",
    "5289": " Jess",
    "5290": " Ray",
    "5291": " Smith",
    "5292": " Suzy",
    "5293": " acorns",
    "5294": " flap",
    "5295": " floating",
    "5296": " gazed",
    "5297": " grin",
    "5298": " lung",
    "5299": " offer",
    "5300": " pedal",
    "5301": " pirates",
    "5302": " raised",
    "5303": " ringing",
    "5304": " trembling",
    "5305": "Ok",
    "5306": "Peter",
    "5307": "ien",
    "5308": "ops",
    "5309": "rr",
    "5310": " Baby",
    "5311": " Each",
    "5312": " alright",
    "5313": " bab",
    "5314": " babies",
    "5315": " bites",
    "5316": " brus",
    "5317": " crawling",
    "5318": " firef",
    "5319": " fireworks",
    "5320": " flat",
    "5321": " hers",
    "5322": " include",
    "5323": " kicking",
    "5324": " kites",
    "5325": " landsc",
    "5326": " muscles",
    "5327": " pad",
    "5328": " pebbles",
    "5329": " relaxed",
    "5330": " shopping",
    "5331": " shouldn",
    "5332": " spit",
    "5333": " unlocked",
    "5334": " wob",
    "5335": " waits",
    "5336": "Lisa",
    "5337": "aped",
    "5338": "bles",
    "5339": "chie",
    "5340": "eep",
    "5341": "isdom",
    "5342": "sing",
    "5343": " Follow",
    "5344": " Mandy",
    "5345": " Robby",
    "5346": " Zigzag",
    "5347": " appro",
    "5348": " bleed",
    "5349": " brain",
    "5350": " dared",
    "5351": " families",
    "5352": " simp",
    "5353": " unic",
    "5354": " unicorn",
    "5355": " watches",
    "5356": " web",
    "5357": "Would",
    "5358": "igging",
    "5359": "orted",
    "5360": " James",
    "5361": " Rosie",
    "5362": " Sun",
    "5363": " breeze",
    "5364": " beds",
    "5365": " chall",
    "5366": " challen",
    "5367": " chewing",
    "5368": " digging",
    "5369": " drinking",
    "5370": " exit",
    "5371": " girls",
    "5372": " instr",
    "5373": " kitty",
    "5374": " keeps",
    "5375": " kneeled",
    "5376": " matched",
    "5377": " mouths",
    "5378": " opin",
    "5379": " petted",
    "5380": " resting",
    "5381": " safet",
    "5382": " safety",
    "5383": " shadows",
    "5384": " sneak",
    "5385": " tallest",
    "5386": " visited",
    "5387": "Momo",
    "5388": "ids",
    "5389": "kins",
    "5390": "ther",
    "5391": " King",
    "5392": " Mel",
    "5393": " Maria",
    "5394": " Slow",
    "5395": " These",
    "5396": " amazement",
    "5397": " cartoons",
    "5398": " disagree",
    "5399": " lined",
    "5400": " laid",
    "5401": " muddy",
    "5402": " none",
    "5403": " ordered",
    "5404": " piles",
    "5405": " playtime",
    "5406": " served",
    "5407": " silence",
    "5408": " stitch",
    "5409": " studying",
    "5410": " underground",
    "5411": " vet",
    "5412": " vel",
    "5413": " velvet",
    "5414": " weighed",
    "5415": " weeping",
    "5416": "elle",
    "5417": "ishing",
    "5418": "ishy",
    "5419": "ler",
    "5420": "rec",
    "5421": "sit",
    "5422": "uzz",
    "5423": "umes",
    "5424": " Lucky",
    "5425": " Not",
    "5426": " Something",
    "5427": " apprec",
    "5428": " appreci",
    "5429": " bye",
    "5430": " costumes",
    "5431": " crunch",
    "5432": " gust",
    "5433": " landscape",
    "5434": " lick",
    "5435": " mixing",
    "5436": " napping",
    "5437": " nowhere",
    "5438": " repeated",
    "5439": " roads",
    "5440": " roots",
    "5441": " setting",
    "5442": " signs",
    "5443": " spoons",
    "5444": " treasures",
    "5445": " twink",
    "5446": " vanish",
    "5447": " winner",
    "5448": " writ",
    "5449": "!'",
    "5450": "!\",",
    "5451": "Tr",
    "5452": "avid",
    "5453": "oral",
    "5454": " Qu",
    "5455": " Bree",
    "5456": " Bouncy",
    "5457": " Later",
    "5458": " Tony",
    "5459": " Wisdom",
    "5460": " decorated",
    "5461": " decorations",
    "5462": " emergen",
    "5463": " happiest",
    "5464": " importance",
    "5465": " jazz",
    "5466": " perfectly",
    "5467": " pets",
    "5468": " pinched",
    "5469": " rhythm",
    "5470": " sip",
    "5471": " six",
    "5472": " sausages",
    "5473": " sisters",
    "5474": " strang",
    "5475": " urged",
    "5476": " voices",
    "5477": ".'",
    "5478": "Bobby",
    "5479": "Johnny",
    "5480": "Thanks",
    "5481": "Yum",
    "5482": "aved",
    "5483": "coon",
    "5484": "izing",
    "5485": "oved",
    "5486": "rs",
    "5487": " Harry",
    "5488": " Out",
    "5489": " Peanut",
    "5490": " Ted",
    "5491": " agreement",
    "5492": " clearing",
    "5493": " dire",
    "5494": " draws",
    "5495": " fash",
    "5496": " fashion",
    "5497": " guessed",
    "5498": " infant",
    "5499": " knights",
    "5500": " lily",
    "5501": " lets",
    "5502": " mentioned",
    "5503": " pra",
    "5504": " patterns",
    "5505": " prepared",
    "5506": " result",
    "5507": " wink",
    "5508": " waist",
    "5509": "Sp",
    "5510": "oys",
    "5511": "umble",
    "5512": " Both",
    "5513": " Frank",
    "5514": " Liz",
    "5515": " admir",
    "5516": " beard",
    "5517": " crunchy",
    "5518": " eagle",
    "5519": " escaped",
    "5520": " hurried",
    "5521": " known",
    "5522": " marks",
    "5523": " moments",
    "5524": " noon",
    "5525": " ourselves",
    "5526": " phot",
    "5527": " poems",
    "5528": " scru",
    "5529": " sprink",
    "5530": " strangers",
    "5531": " thrill",
    "5532": " turning",
    "5533": " waffles",
    "5534": "Dog",
    "5535": "Happy",
    "5536": "Sammy",
    "5537": "ena",
    "5538": "hello",
    "5539": "iers",
    "5540": "irts",
    "5541": "isten",
    "5542": "oming",
    "5543": "plash",
    "5544": "ssible",
    "5545": " Car",
    "5546": " Prin",
    "5547": " Watch",
    "5548": " apologized",
    "5549": " behaved",
    "5550": " bowed",
    "5551": " brid",
    "5552": " bravely",
    "5553": " crashed",
    "5554": " cuddled",
    "5555": " disturbed",
    "5556": " expected",
    "5557": " fetch",
    "5558": " forgi",
    "5559": " froz",
    "5560": " frozen",
    "5561": " goals",
    "5562": " gran",
    "5563": " grinned",
    "5564": " limes",
    "5565": " logs",
    "5566": " peel",
    "5567": " pillows",
    "5568": " ripped",
    "5569": " ruin",
    "5570": " soldiers",
    "5571": " spending",
    "5572": "Emily",
    "5573": "Jen",
    "5574": "Moral",
    "5575": "Sophie",
    "5576": "antly",
    "5577": "ities",
    "5578": "please",
    "5579": "ship",
    "5580": " Cudd",
    "5581": " Cuddles",
    "5582": " Did",
    "5583": " Joey",
    "5584": " beneath",
    "5585": " collecting",
    "5586": " dads",
    "5587": " emergency",
    "5588": " fishing",
    "5589": " gained",
    "5590": " guy",
    "5591": " hist",
    "5592": " history",
    "5593": " knelt",
    "5594": " lines",
    "5595": " matching",
    "5596": " photos",
    "5597": " struggle",
    "5598": "Cat",
    "5599": "acob",
    "5600": "ded",
    "5601": "ived",
    "5602": "ishes",
    "5603": "vest",
    "5604": " Hop",
    "5605": " Its",
    "5606": " Josh",
    "5607": " Rocky",
    "5608": " answers",
    "5609": " beat",
    "5610": " begged",
    "5611": " bridges",
    "5612": " buildings",
    "5613": " burning",
    "5614": " challenge",
    "5615": " collected",
    "5616": " dragons",
    "5617": " drinks",
    "5618": " hesit",
    "5619": " item",
    "5620": " meow",
    "5621": " pies",
    "5622": " resp",
    "5623": " rested",
    "5624": " skipping",
    "5625": " slice",
    "5626": " soared",
    "5627": " sore",
    "5628": " tex",
    "5629": " texture",
    "5630": " trapped",
    "5631": " warmth",
    "5632": " wondering",
    "5633": "Goodbye",
    "5634": "Watch",
    "5635": "arth",
    "5636": "choo",
    "5637": "ctly",
    "5638": "omas",
    "5639": "ud",
    "5640": " Bo",
    "5641": " Bug",
    "5642": " Happy",
    "5643": " Sof",
    "5644": " ago",
    "5645": " approached",
    "5646": " crabs",
    "5647": " kindly",
    "5648": " lied",
    "5649": " opinion",
    "5650": " praised",
    "5651": " scaring",
    "5652": " scratched",
    "5653": " screams",
    "5654": " simple",
    "5655": " stamps",
    "5656": " threat",
    "5657": " wiggle",
    "5658": "Andy",
    "5659": "Ducky",
    "5660": "ales",
    "5661": " Katie",
    "5662": " Stitch",
    "5663": " Stop",
    "5664": " Zoe",
    "5665": " blink",
    "5666": " boom",
    "5667": " brushed",
    "5668": " comfy",
    "5669": " east",
    "5670": " gathering",
    "5671": " golden",
    "5672": " ladyb",
    "5673": " ladybug",
    "5674": " neighborhood",
    "5675": " olives",
    "5676": " scrubbed",
    "5677": " sparkling",
    "5678": " teasing",
    "5679": " theirs",
    "5680": " twigs",
    "5681": " wonders",
    "5682": "Miss",
    "5683": "akes",
    "5684": "emb",
    "5685": "hind",
    "5686": "ica",
    "5687": "iti",
    "5688": "ury",
    "5689": "utter",
    "5690": " Being",
    "5691": " Catty",
    "5692": " Dare",
    "5693": " Lou",
    "5694": " ann",
    "5695": " beamed",
    "5696": " broom",
    "5697": " copy",
    "5698": " eff",
    "5699": " fed",
    "5700": " gaze",
    "5701": " granted",
    "5702": " herbs",
    "5703": " invest",
    "5704": " investig",
    "5705": " joking",
    "5706": " muffins",
    "5707": " nightm",
    "5708": " nightmare",
    "5709": " rememb",
    "5710": " remembers",
    "5711": " ropes",
    "5712": " shoulders",
    "5713": " slim",
    "5714": " sting",
    "5715": " strings",
    "5716": " tim",
    "5717": " teaches",
    "5718": "Benny",
    "5719": "Eventually",
    "5720": "Really",
    "5721": "bbing",
    "5722": "ino",
    "5723": "lier",
    "5724": "zing",
    "5725": " Always",
    "5726": " Friend",
    "5727": " Henny",
    "5728": " Izzy",
    "5729": " May",
    "5730": " Missile",
    "5731": " Pinky",
    "5732": " Someone",
    "5733": " Sparky",
    "5734": " awe",
    "5735": " activ",
    "5736": " airpl",
    "5737": " alien",
    "5738": " argued",
    "5739": " avocad",
    "5740": " avocados",
    "5741": " brushes",
    "5742": " created",
    "5743": " cubes",
    "5744": " dot",
    "5745": " doggy",
    "5746": " eats",
    "5747": " glowed",
    "5748": " grey",
    "5749": " hardly",
    "5750": " headed",
    "5751": " hissed",
    "5752": " investigate",
    "5753": " loose",
    "5754": " marching",
    "5755": " parties",
    "5756": " pedals",
    "5757": " pencils",
    "5758": " received",
    "5759": " recorded",
    "5760": " refu",
    "5761": " roaring",
    "5762": " shock",
    "5763": " slimy",
    "5764": " sneaked",
    "5765": " sparkle",
    "5766": " swims",
    "5767": " thrilled",
    "5768": " trips",
    "5769": " twin",
    "5770": " writes",
    "5771": " zooming",
    "5772": "Mmm",
    "5773": "Poppy",
    "5774": "Sandy",
    "5775": "anny",
    "5776": "ogo",
    "5777": "osed",
    "5778": "uest",
    "5779": "urry",
    "5780": "wh",
    "5781": " Annie",
    "5782": " Cindy",
    "5783": " Dodo",
    "5784": " First",
    "5785": " Splash",
    "5786": " Squ",
    "5787": " Titi",
    "5788": " Tw",
    "5789": " area",
    "5790": " balancing",
    "5791": " crow",
    "5792": " cheering",
    "5793": " chirped",
    "5794": " decides",
    "5795": " destination",
    "5796": " effort",
    "5797": " fara",
    "5798": " faraway",
    "5799": " guest",
    "5800": " healed",
    "5801": " inch",
    "5802": " jewels",
    "5803": " keeper",
    "5804": " leader",
    "5805": " loving",
    "5806": " master",
    "5807": " marbles",
    "5808": " melting",
    "5809": " mountains",
    "5810": " nicer",
    "5811": " pots",
    "5812": " radishes",
    "5813": " remote",
    "5814": " removed",
    "5815": " screaming",
    "5816": " steep",
    "5817": " sticking",
    "5818": " stretching",
    "5819": " students",
    "5820": " supposed",
    "5821": " sweeties",
    "5822": " tugged",
    "5823": " traveled",
    "5824": " wed",
    "5825": " wears",
    "5826": " youth",
    "5827": " ‘",
    "5828": "Un",
    "5829": "ah",
    "5830": "allow",
    "5831": "elvet",
    "5832": "iam",
    "5833": "mother",
    "5834": "ppers",
    "5835": "uke",
    "5836": "ux",
    "5837": "ulie",
    "5838": "uxury",
    "5839": " Yes",
    "5840": " Cra",
    "5841": " Mon",
    "5842": " Moon",
    "5843": " Sad",
    "5844": " buckets",
    "5845": " cough",
    "5846": " claps",
    "5847": " delivered",
    "5848": " deser",
    "5849": " hitting",
    "5850": " hated",
    "5851": " monsters",
    "5852": " owned",
    "5853": " polished",
    "5854": " prop",
    "5855": " praying",
    "5856": " realize",
    "5857": " revealed",
    "5858": " situ",
    "5859": " sled",
    "5860": " snakes",
    "5861": " stripes",
    "5862": " tricked",
    "5863": " yelling",
    "5864": "Cl",
    "5865": "James",
    "5866": "Ollie",
    "5867": "Shh",
    "5868": "Time",
    "5869": "True",
    "5870": "hee",
    "5871": "ission",
    "5872": "loe",
    "5873": "osity",
    "5874": "”.",
    "5875": " 1",
    "5876": " Once",
    "5877": " An",
    "5878": " Boo",
    "5879": " Chicky",
    "5880": " Jacob",
    "5881": " Tuna",
    "5882": " Velvet",
    "5883": " bakery",
    "5884": " beside",
    "5885": " crew",
    "5886": " complaining",
    "5887": " continue",
    "5888": " cuts",
    "5889": " earlier",
    "5890": " faced",
    "5891": " fears",
    "5892": " frost",
    "5893": " giraff",
    "5894": " giraffes",
    "5895": " luxury",
    "5896": " mane",
    "5897": " measuring",
    "5898": " opening",
    "5899": " parked",
    "5900": " permission",
    "5901": " provided",
    "5902": " safer",
    "5903": " seag",
    "5904": " seagull",
    "5905": " secrets",
    "5906": " seems",
    "5907": " staying",
    "5908": " talent",
    "5909": " tickle",
    "5910": " wherever",
    "5911": "Boo",
    "5912": "Ex",
    "5913": "avi",
    "5914": "aws",
    "5915": "boo",
    "5916": "jam",
    "5917": "sses",
    "5918": " David",
    "5919": " Duck",
    "5920": " Earth",
    "5921": " acting",
    "5922": " actions",
    "5923": " actually",
    "5924": " admiring",
    "5925": " awes",
    "5926": " awesome",
    "5927": " bare",
    "5928": " bleeding",
    "5929": " candies",
    "5930": " darker",
    "5931": " discovery",
    "5932": " dusty",
    "5933": " feeding",
    "5934": " heroes",
    "5935": " horns",
    "5936": " magnets",
    "5937": " paints",
    "5938": " pans",
    "5939": " proper",
    "5940": " pupil",
    "5941": " rele",
    "5942": " refuse",
    "5943": " rule",
    "5944": " shooting",
    "5945": " struggled",
    "5946": " sweat",
    "5947": " tails",
    "5948": " touching",
    "5949": " windy",
    "5950": "'.",
    "5951": "Meow",
    "5952": "Rex",
    "5953": "Ro",
    "5954": "Rob",
    "5955": "anging",
    "5956": "cus",
    "5957": "ha",
    "5958": "ifi",
    "5959": "int",
    "5960": "isty",
    "5961": "mies",
    "5962": "ues",
    "5963": "usty",
    "5964": " Bye",
    "5965": " Dino",
    "5966": " Kids",
    "5967": " Re",
    "5968": " Rover",
    "5969": " Water",
    "5970": " awake",
    "5971": " bedtime",
    "5972": " company",
    "5973": " contain",
    "5974": " contest",
    "5975": " creation",
    "5976": " died",
    "5977": " dinosaurs",
    "5978": " flags",
    "5979": " foods",
    "5980": " glasses",
    "5981": " helmets",
    "5982": " liqu",
    "5983": " liquid",
    "5984": " neighbors",
    "5985": " neighbourhood",
    "5986": " obe",
    "5987": " onwards",
    "5988": " patiently",
    "5989": " prettiest",
    "5990": " restored",
    "5991": " shrug",
    "5992": " sneaky",
    "5993": " spaceship",
    "5994": " spraying",
    "5995": " struggling",
    "5996": " surrounded",
    "5997": " teamwork",
    "5998": " timer",
    "5999": " toss",
    "6000": " tune",
    "6001": " twisty",
    "6002": " vict",
    "6003": " valued",
    "6004": " wiz",
    "6005": " wanting",
    "6006": " wasted",
    "6007": " wedding",
    "6008": " weeks",
    "6009": "Stay",
    "6010": "aster",
    "6011": "anta",
    "6012": "dies",
    "6013": "iar",
    "6014": "ls",
    "6015": "ners",
    "6016": "ora",
    "6017": "ouch",
    "6018": "pie",
    "6019": "uckily",
    "6020": " X",
    "6021": " Kay",
    "6022": " Keep",
    "6023": " Like",
    "6024": " Quick",
    "6025": " Santa",
    "6026": " Slowly",
    "6027": " Spring",
    "6028": " achie",
    "6029": " appreciate",
    "6030": " bloomed",
    "6031": " catches",
    "6032": " chef",
    "6033": " crept",
    "6034": " frosting",
    "6035": " glitter",
    "6036": " insist",
    "6037": " loaded",
    "6038": " obey",
    "6039": " paintings",
    "6040": " paying",
    "6041": " poking",
    "6042": " polishing",
    "6043": " pride",
    "6044": " project",
    "6045": " quacked",
    "6046": " recognized",
    "6047": " sings",
    "6048": " scooters",
    "6049": " siren",
    "6050": " sights",
    "6051": " stare",
    "6052": " succeeded",
    "6053": " worker",
    "6054": "Ew",
    "6055": "George",
    "6056": "Tiny",
    "6057": "ads",
    "6058": "amie",
    "6059": "ashed",
    "6060": "band",
    "6061": "compl",
    "6062": "enty",
    "6063": "go",
    "6064": "lee",
    "6065": "rian",
    "6066": "screen",
    "6067": " Ally",
    "6068": " Blink",
    "6069": " Dr",
    "6070": " Everyday",
    "6071": " Fifi",
    "6072": " Frog",
    "6073": " Jessie",
    "6074": " Lenny",
    "6075": " Luke",
    "6076": " accompl",
    "6077": " airplane",
    "6078": " balanced",
    "6079": " beads",
    "6080": " blooming",
    "6081": " blows",
    "6082": " bringing",
    "6083": " celebration",
    "6084": " comm",
    "6085": " comple",
    "6086": " cones",
    "6087": " cushions",
    "6088": " demanded",
    "6089": " diving",
    "6090": " eight",
    "6091": " fasc",
    "6092": " fascin",
    "6093": " flav",
    "6094": " flutter",
    "6095": " guys",
    "6096": " hi",
    "6097": " honk",
    "6098": " instruct",
    "6099": " instructions",
    "6100": " mes",
    "6101": " mittens",
    "6102": " nails",
    "6103": " passports",
    "6104": " patience",
    "6105": " peppers",
    "6106": " pears",
    "6107": " penguins",
    "6108": " prec",
    "6109": " rescued",
    "6110": " ribbons",
    "6111": " scattering",
    "6112": " scooped",
    "6113": " seven",
    "6114": " sighs",
    "6115": " splashes",
    "6116": " thud",
    "6117": " traded",
    "6118": "...\"",
    "6119": "During",
    "6120": "Mrs",
    "6121": "Paul",
    "6122": "Pete",
    "6123": "Remember",
    "6124": "Whiskers",
    "6125": "ays",
    "6126": "nie",
    "6127": "uffin",
    "6128": "ulp",
    "6129": " Ab",
    "6130": " Behind",
    "6131": " Friends",
    "6132": " Gogo",
    "6133": " Leave",
    "6134": " Muffin",
    "6135": " apologize",
    "6136": " applauded",
    "6137": " boo",
    "6138": " backward",
    "6139": " baker",
    "6140": " confl",
    "6141": " conflict",
    "6142": " drives",
    "6143": " examined",
    "6144": " explorers",
    "6145": " froze",
    "6146": " goodnight",
    "6147": " homework",
    "6148": " laying",
    "6149": " learns",
    "6150": " mission",
    "6151": " oat",
    "6152": " officer",
    "6153": " organizing",
    "6154": " pause",
    "6155": " protected",
    "6156": " protecting",
    "6157": " purred",
    "6158": " refres",
    "6159": " reluct",
    "6160": " reminder",
    "6161": " sadness",
    "6162": " scales",
    "6163": " starfish",
    "6164": " todd",
    "6165": " unf",
    "6166": " untie",
    "6167": " usual",
    "6168": " villag",
    "6169": " visiting",
    "6170": " wizard",
    "6171": "Achoo",
    "6172": "Bad",
    "6173": "First",
    "6174": "Fo",
    "6175": "Have",
    "6176": "Jake",
    "6177": "Luna",
    "6178": "Our",
    "6179": "Uh",
    "6180": "Zoomy",
    "6181": "die",
    "6182": "iggy",
    "6183": "lets",
    "6184": "ults",
    "6185": "zie",
    "6186": " Q",
    "6187": " Am",
    "6188": " Beep",
    "6189": " Chloe",
    "6190": " Elephant",
    "6191": " Get",
    "6192": " Gr",
    "6193": " Green",
    "6194": " Hopper",
    "6195": " Jenna",
    "6196": " Jessica",
    "6197": " Love",
    "6198": " Moo",
    "6199": " Pepper",
    "6200": " Pippa",
    "6201": " Thomas",
    "6202": " Yesterday",
    "6203": " barely",
    "6204": " cause",
    "6205": " changing",
    "6206": " cracked",
    "6207": " dipped",
    "6208": " dragged",
    "6209": " exa",
    "6210": " figures",
    "6211": " firefight",
    "6212": " guns",
    "6213": " helpers",
    "6214": " leading",
    "6215": " muscle",
    "6216": " pastels",
    "6217": " planets",
    "6218": " prettier",
    "6219": " recording",
    "6220": " released",
    "6221": " reluctantly",
    "6222": " rides",
    "6223": " shivered",
    "6224": " smar",
    "6225": " smallest",
    "6226": " smarter",
    "6227": " smiley",
    "6228": " spells",
    "6229": " spikes",
    "6230": " struck",
    "6231": " toddler",
    "6232": " victory",
    "6233": " wound",
    "6234": " whatever",
    "6235": " wins",
    "6236": " yesterday",
    "6237": "Somet",
    "6238": "Tweet",
    "6239": "aa",
    "6240": "bl",
    "6241": "bbled",
    "6242": "ern",
    "6243": "iders",
    "6244": "igail",
    "6245": "jo",
    "6246": "oh",
    "6247": "ords",
    "6248": "rance",
    "6249": "step",
    "6250": " Betsy",
    "6251": " Chew",
    "6252": " Gir",
    "6253": " Hippy",
    "6254": " Marie",
    "6255": " Meg",
    "6256": " Princess",
    "6257": " Rabbit",
    "6258": " Rollie",
    "6259": " Robert",
    "6260": " Sure",
    "6261": " Squirrel",
    "6262": " annoy",
    "6263": " anytime",
    "6264": " bank",
    "6265": " becoming",
    "6266": " behavi",
    "6267": " bowls",
    "6268": " buzzing",
    "6269": " cous",
    "6270": " click",
    "6271": " covers",
    "6272": " dam",
    "6273": " die",
    "6274": " delivering",
    "6275": " exactly",
    "6276": " firemen",
    "6277": " hugging",
    "6278": " inviting",
    "6279": " packing",
    "6280": " precious",
    "6281": " rings",
    "6282": " reply",
    "6283": " rockets",
    "6284": " shirts",
    "6285": " sprinkles",
    "6286": " stern",
    "6287": " stole",
    "6288": " sunlight",
    "6289": " united",
    "6290": " vent",
    "6291": " warnings",
    "6292": "An",
    "6293": "Grandpa",
    "6294": "Jerry",
    "6295": "Millie",
    "6296": "Silly",
    "6297": "Ste",
    "6298": "Teddy",
    "6299": "anna",
    "6300": "ho",
    "6301": "jamas",
    "6302": "nies",
    "6303": " Because",
    "6304": " By",
    "6305": " Buggy",
    "6306": " Dara",
    "6307": " Hor",
    "6308": " Jilly",
    "6309": " Joy",
    "6310": " Po",
    "6311": " Que",
    "6312": " Queen",
    "6313": " Robo",
    "6314": " Star",
    "6315": " Top",
    "6316": " Turtle",
    "6317": " Unfortunately",
    "6318": " activities",
    "6319": " argu",
    "6320": " arguing",
    "6321": " arrive",
    "6322": " chips",
    "6323": " cocoon",
    "6324": " complained",
    "6325": " cuddle",
    "6326": " fault",
    "6327": " gotten",
    "6328": " introduc",
    "6329": " joked",
    "6330": " masks",
    "6331": " misses",
    "6332": " pins",
    "6333": " pajamas",
    "6334": " peas",
    "6335": " peered",
    "6336": " possible",
    "6337": " princesses",
    "6338": " quarreling",
    "6339": " refle",
    "6340": " sense",
    "6341": " sending",
    "6342": " separated",
    "6343": " situation",
    "6344": " snowballs",
    "6345": " sparkles",
    "6346": " sports",
    "6347": " tickets",
    "6348": " tru",
    "6349": " vines",
    "6350": " villagers",
    "6351": " wid",
    "6352": " weren",
    "6353": " whose",
    "6354": " wiggled",
    "6355": " wraps",
    "6356": "Ah",
    "6357": "Milly",
    "6358": "Oops",
    "6359": "Su",
    "6360": "Unfortunately",
    "6361": "bly",
    "6362": "eah",
    "6363": "fied",
    "6364": "iding",
    "6365": "irm",
    "6366": "rink",
    "6367": " Barry",
    "6368": " Chess",
    "6369": " En",
    "6370": " Fishy",
    "6371": " Foxy",
    "6372": " Giraffe",
    "6373": " Hoot",
    "6374": " Lena",
    "6375": " Snowman",
    "6376": " Stay",
    "6377": " Tara",
    "6378": " Want",
    "6379": " Zipper",
    "6380": " belly",
    "6381": " bells",
    "6382": " biting",
    "6383": " blocking",
    "6384": " bounces",
    "6385": " brand",
    "6386": " caused",
    "6387": " chirping",
    "6388": " choices",
    "6389": " completed",
    "6390": " cuddly",
    "6391": " curiosity",
    "6392": " discovering",
    "6393": " firm",
    "6394": " fab",
    "6395": " fabric",
    "6396": " farther",
    "6397": " fascinated",
    "6398": " forehead",
    "6399": " forgiving",
    "6400": " gri",
    "6401": " grandmother",
    "6402": " greet",
    "6403": " groups",
    "6404": " growling",
    "6405": " hus",
    "6406": " improved",
    "6407": " increased",
    "6408": " itchy",
    "6409": " items",
    "6410": " kicks",
    "6411": " knocks",
    "6412": " mailed",
    "6413": " motion",
    "6414": " naps",
    "6415": " pout",
    "6416": " paths",
    "6417": " perched",
    "6418": " plenty",
    "6419": " pockets",
    "6420": " powers",
    "6421": " properly",
    "6422": " rainbows",
    "6423": " requested",
    "6424": " sides",
    "6425": " scarves",
    "6426": " snatched",
    "6427": " somebody",
    "6428": " spiders",
    "6429": " spins",
    "6430": " startled",
    "6431": " superheroes",
    "6432": " teased",
    "6433": " thro",
    "6434": " tractor",
    "6435": " travell",
    "6436": " tricky",
    "6437": " truly",
    "6438": " twirl",
    "6439": " woof",
    "6440": " widened",
    "6441": " yells",
    "6442": "Buzz",
    "6443": "Dave",
    "6444": "Lilly",
    "6445": "Mandy",
    "6446": "Mar",
    "6447": "Or",
    "6448": "Ru",
    "6449": "anie",
    "6450": "atches",
    "6451": "cuse",
    "6452": "dam",
    "6453": "rey",
    "6454": " Brownie",
    "6455": " Holly",
    "6456": " Oak",
    "6457": " Patch",
    "6458": " Put",
    "6459": " Prince",
    "6460": " Say",
    "6461": " Shadow",
    "6462": " Sparkle",
    "6463": " Truck",
    "6464": " Uncle",
    "6465": " Woo",
    "6466": " bur",
    "6467": " behaving",
    "6468": " buzzed",
    "6469": " chases",
    "6470": " creating",
    "6471": " curtains",
    "6472": " dar",
    "6473": " dived",
    "6474": " direction",
    "6475": " fut",
    "6476": " folding",
    "6477": " future",
    "6478": " giggling",
    "6479": " hallway",
    "6480": " handful",
    "6481": " honked",
    "6482": " images",
    "6483": " listens",
    "6484": " nine",
    "6485": " neither",
    "6486": " observed",
    "6487": " pointy",
    "6488": " polar",
    "6489": " policeman",
    "6490": " pops",
    "6491": " promises",
    "6492": " reaching",
    "6493": " rewarded",
    "6494": " rip",
    "6495": " rocking",
    "6496": " shrinking",
    "6497": " soaring",
    "6498": " sobbed",
    "6499": " stands",
    "6500": " swit",
    "6501": " swoop",
    "6502": " throat",
    "6503": " tunnels",
    "6504": " usually",
    "6505": " worries",
    "6506": "Charlie",
    "6507": "Excuse",
    "6508": "Hold",
    "6509": "Listen",
    "6510": "Pe",
    "6511": "Sometimes",
    "6512": "Yeah",
    "6513": "aker",
    "6514": "anes",
    "6515": "eff",
    "6516": "ining",
    "6517": "inkle",
    "6518": "seek",
    "6519": "steps",
    "6520": "though",
    "6521": "vin",
    "6522": " Birdie",
    "6523": " For",
    "6524": " Gina",
    "6525": " However",
    "6526": " Mouse",
    "6527": " Nothing",
    "6528": " Olly",
    "6529": " Pl",
    "6530": " ast",
    "6531": " agrees",
    "6532": " avo",
    "6533": " basement",
    "6534": " bey",
    "6535": " beyond",
    "6536": " bodies",
    "6537": " bracelets",
    "6538": " cent",
    "6539": " cust",
    "6540": " cans",
    "6541": " celebrating",
    "6542": " chop",
    "6543": " chuck",
    "6544": " completely",
    "6545": " contro",
    "6546": " corners",
    "6547": " custom",
    "6548": " dent",
    "6549": " deserve",
    "6550": " dropping",
    "6551": " everyday",
    "6552": " firefly",
    "6553": " gross",
    "6554": " gasp",
    "6555": " grows",
    "6556": " growls",
    "6557": " husband",
    "6558": " interested",
    "6559": " lap",
    "6560": " leaning",
    "6561": " lett",
    "6562": " lettuce",
    "6563": " movies",
    "6564": " napkins",
    "6565": " nests",
    "6566": " noses",
    "6567": " pretends",
    "6568": " repa",
    "6569": " san",
    "6570": " sank",
    "6571": " scur",
    "6572": " scurried",
    "6573": " seesaw",
    "6574": " sibl",
    "6575": " siblings",
    "6576": " spong",
    "6577": " sponge",
    "6578": " staring",
    "6579": " stays",
    "6580": " suffered",
    "6581": " tasks",
    "6582": " unp",
    "6583": " untied",
    "6584": " vanilla",
    "6585": " whispers",
    "6586": "==",
    "6587": "Car",
    "6588": "Henry",
    "6589": "Maggie",
    "6590": "Quack",
    "6591": "Sunny",
    "6592": "abella",
    "6593": "angled",
    "6594": "ason",
    "6595": "bie",
    "6596": "cakes",
    "6597": "eds",
    "6598": "ido",
    "6599": "iggie",
    "6600": "lowers",
    "6601": "une",
    "6602": "—",
    "6603": " \n ",
    "6604": " Cow",
    "6605": " Crab",
    "6606": " Ex",
    "6607": " Horsy",
    "6608": " Julie",
    "6609": " Jolly",
    "6610": " Mix",
    "6611": " Nice",
    "6612": " Our",
    "6613": " Pam",
    "6614": " Pine",
    "6615": " Pup",
    "6616": " Sofia",
    "6617": " Twinkle",
    "6618": " Wink",
    "6619": " Whist",
    "6620": " accomplish",
    "6621": " backwards",
    "6622": " batteries",
    "6623": " bravery",
    "6624": " confident",
    "6625": " dollar",
    "6626": " dots",
    "6627": " fact",
    "6628": " however",
    "6629": " keys",
    "6630": " losing",
    "6631": " merry",
    "6632": " moo",
    "6633": " partic",
    "6634": " patted",
    "6635": " peeking",
    "6636": " potion",
    "6637": " practicing",
    "6638": " pumpkins",
    "6639": " ranger",
    "6640": " reads",
    "6641": " repaired",
    "6642": " replaced",
    "6643": " sails",
    "6644": " singer",
    "6645": " slam",
    "6646": " speaking",
    "6647": " spreading",
    "6648": " squishy",
    "6649": " squares",
    "6650": " supplies",
    "6651": " surface",
    "6652": " sweets",
    "6653": " tearing",
    "6654": " tickled",
    "6655": " vowed",
    "6656": " ventured",
    "6657": " wishing",
    "6658": " wobbly",
    "6659": " yum",
    "6660": "?'",
    "6661": "Big",
    "6662": "Bu",
    "6663": "Bunny",
    "6664": "Chirpy",
    "6665": "Doggy",
    "6666": "Lola",
    "6667": "Run",
    "6668": "Susie",
    "6669": "Those",
    "6670": "Very",
    "6671": "Whee",
    "6672": "awn",
    "6673": "eed",
    "6674": "iley",
    "6675": "itely",
    "6676": "joyed",
    "6677": "ounce",
    "6678": "pite",
    "6679": "utty",
    "6680": " Biggie",
    "6681": " Birthday",
    "6682": " Enjoy",
    "6683": " Fit",
    "6684": " Monster",
    "6685": " Nick",
    "6686": " Ol",
    "6687": " Paws",
    "6688": " Sl",
    "6689": " Sorry",
    "6690": " Suzie",
    "6691": " Without",
    "6692": " arrows",
    "6693": " aside",
    "6694": " calmed",
    "6695": " choo",
    "6696": " chefs",
    "6697": " comforted",
    "6698": " competition",
    "6699": " counts",
    "6700": " deal",
    "6701": " decorating",
    "6702": " dentist",
    "6703": " dolphins",
    "6704": " entire",
    "6705": " entrance",
    "6706": " filling",
    "6707": " firefighters",
    "6708": " flames",
    "6709": " footsteps",
    "6710": " grip",
    "6711": " guests",
    "6712": " knees",
    "6713": " lighter",
    "6714": " marked",
    "6715": " minerals",
    "6716": " mommies",
    "6717": " ni",
    "6718": " necklaces",
    "6719": " outdo",
    "6720": " pec",
    "6721": " padd",
    "6722": " paddle",
    "6723": " planning",
    "6724": " players",
    "6725": " poster",
    "6726": " pouring",
    "6727": " risk",
    "6728": " reflection",
    "6729": " refreshed",
    "6730": " ripe",
    "6731": " roses",
    "6732": " rolls",
    "6733": " rotting",
    "6734": " satis",
    "6735": " scratches",
    "6736": " shorts",
    "6737": " snowmen",
    "6738": " softer",
    "6739": " sprang",
    "6740": " stain",
    "6741": " stem",
    "6742": " steady",
    "6743": " stroked",
    "6744": " student",
    "6745": " twinkling",
    "6746": " unpacked",
    "6747": " uses",
    "6748": " wandering",
    "6749": " wires",
    "6750": " workers",
    "6751": "?\",",
    "6752": "Fine",
    "6753": "Great",
    "6754": "Le",
    "6755": "Lulu",
    "6756": "Mine",
    "6757": "Pipp",
    "6758": "Ruby",
    "6759": "Some",
    "6760": "Spike",
    "6761": "Yummy",
    "6762": "cl",
    "6763": "ctions",
    "6764": "eal",
    "6765": "father",
    "6766": "fly",
    "6767": "haust",
    "6768": "ivi",
    "6769": "order",
    "6770": "  ",
    "6771": " Aunt",
    "6772": " Abigail",
    "6773": " Anne",
    "6774": " Book",
    "6775": " Brian",
    "6776": " Dizzy",
    "6777": " Goodbye",
    "6778": " Hur",
    "6779": " Jeff",
    "6780": " Jojo",
    "6781": " Pu",
    "6782": " Sw",
    "6783": " Stella",
    "6784": " Tweetie",
    "6785": " Yawn",
    "6786": " Zee",
    "6787": " bunch",
    "6788": " bathing",
    "6789": " beam",
    "6790": " begin",
    "6791": " burns",
    "6792": " chat",
    "6793": " cheeks",
    "6794": " chuckled",
    "6795": " closes",
    "6796": " conn",
    "6797": " conse",
    "6798": " consequ",
    "6799": " consequence",
    "6800": " desert",
    "6801": " drums",
    "6802": " elbow",
    "6803": " exhaust",
    "6804": " flapping",
    "6805": " flavor",
    "6806": " heav",
    "6807": " hider",
    "6808": " included",
    "6809": " knowled",
    "6810": " knowledge",
    "6811": " least",
    "6812": " licking",
    "6813": " lollipops",
    "6814": " mood",
    "6815": " notes",
    "6816": " opp",
    "6817": " outdoors",
    "6818": " overjoyed",
    "6819": " passing",
    "6820": " pastries",
    "6821": " performed",
    "6822": " piggy",
    "6823": " prayer",
    "6824": " rising",
    "6825": " recorder",
    "6826": " relief",
    "6827": " remembering",
    "6828": " respons",
    "6829": " seeker",
    "6830": " shelves",
    "6831": " shovels",
    "6832": " signed",
    "6833": " single",
    "6834": " stool",
    "6835": " steer",
    "6836": " strongest",
    "6837": " supported",
    "6838": " surfing",
    "6839": " tangled",
    "6840": " tiss",
    "6841": " third",
    "6842": " touches",
    "6843": " towels",
    "6844": " tramp",
    "6845": " trampol",
    "6846": " trampoline",
    "6847": " wow",
    "6848": " waiter",
    "6849": " watering",
    "6850": " winked",
    "6851": "Annie",
    "6852": "Bear",
    "6853": "Dolly",
    "6854": "Ellie",
    "6855": "Follow",
    "6856": "Get",
    "6857": "Katie",
    "6858": "Lizzy",
    "6859": "Luckily",
    "6860": "Mike",
    "6861": "Out",
    "6862": "Roar",
    "6863": "Sn",
    "6864": "Steve",
    "6865": "Take",
    "6866": "Zoom",
    "6867": "alph",
    "6868": "aye",
    "6869": "brush",
    "6870": "ela",
    "6871": "ently",
    "6872": "ercy",
    "6873": "iles",
    "6874": "rix",
    "6875": "rixie",
    "6876": "sty",
    "6877": "uri",
    "6878": "umbling",
    "6879": "vroom",
    "6880": "zes",
    "6881": " icing",
    "6882": " 10",
    "6883": " Belle",
    "6884": " Beth",
    "6885": " Fido",
    "6886": " Hurricane",
    "6887": " Jamie",
    "6888": " Janie",
    "6889": " Jones",
    "6890": " Kaylee",
    "6891": " Lau",
    "6892": " Nutty",
    "6893": " Oxy",
    "6894": " Ph",
    "6895": " Reg",
    "6896": " Sc",
    "6897": " Softy",
    "6898": " Vivi",
    "6899": " Ziggy",
    "6900": " aff",
    "6901": " aimed",
    "6902": " achieve",
    "6903": " adding",
    "6904": " backpacks",
    "6905": " bars",
    "6906": " baths",
    "6907": " blown",
    "6908": " bru",
    "6909": " consequences",
    "6910": " control",
    "6911": " cousin",
    "6912": " dancers",
    "6913": " darling",
    "6914": " darkness",
    "6915": " decis",
    "6916": " decisions",
    "6917": " ends",
    "6918": " exhausted",
    "6919": " fairies",
    "6920": " fits",
    "6921": " forgiven",
    "6922": " hesitated",
    "6923": " humans",
    "6924": " impo",
    "6925": " impossible",
    "6926": " instrum",
    "6927": " introduced",
    "6928": " joining",
    "6929": " kittens",
    "6930": " loading",
    "6931": " machines",
    "6932": " matters",
    "6933": " minded",
    "6934": " mushrooms",
    "6935": " ornaments",
    "6936": " particular",
    "6937": " prayers",
    "6938": " rumble",
    "6939": " rusty",
    "6940": " rains",
    "6941": " rocked",
    "6942": " sale",
    "6943": " sewed",
    "6944": " ships",
    "6945": " sneezing",
    "6946": " spat",
    "6947": " squeaked",
    "6948": " stew",
    "6949": " surroundings",
    "6950": " swords",
    "6951": " swooped",
    "6952": " turt",
    "6953": " tables",
    "6954": " thorn",
    "6955": " toaster",
    "6956": " turtles",
    "6957": " twirling",
    "6958": " whistles",
    "6959": " wipes",
    "6960": "Danny",
    "6961": "Harry",
    "6962": "Jump",
    "6963": "May",
    "6964": "Penny",
    "6965": "Rose",
    "6966": "ael",
    "6967": "autious",
    "6968": "bert",
    "6969": "een",
    "6970": "fall",
    "6971": "ichael",
    "6972": "inny",
    "6973": "no",
    "6974": "romise",
    "6975": "rrr",
    "6976": "ths",
    "6977": "urious",
    "6978": " Dina",
    "6979": " Faye",
    "6980": " Ind",
    "6981": " Ju",
    "6982": " Jacky",
    "6983": " Jennie",
    "6984": " Liam",
    "6985": " Mam",
    "6986": " Mild",
    "6987": " Mill",
    "6988": " Other",
    "6989": " Pink",
    "6990": " Rudy",
    "6991": " Sadly",
    "6992": " Shiver",
    "6993": " Spirit",
    "6994": " Toys",
    "6995": " Those",
    "6996": " Toot",
    "6997": " Wo",
    "6998": " aloud",
    "6999": " angels",
    "7000": " bumps",
    "7001": " carts",
    "7002": " clowns",
    "7003": " crumb",
    "7004": " curly",
    "7005": " determination",
    "7006": " directions",
    "7007": " doctors",
    "7008": " erase",
    "7009": " fart",
    "7010": " fever",
    "7011": " forgets",
    "7012": " forks",
    "7013": " frowning",
    "7014": " gee",
    "7015": " goo",
    "7016": " geese",
    "7017": " ghosts",
    "7018": " gobbled",
    "7019": " gracefully",
    "7020": " grandfather",
    "7021": " guide",
    "7022": " heading",
    "7023": " health",
    "7024": " heavier",
    "7025": " jackets",
    "7026": " lace",
    "7027": " lending",
    "7028": " loops",
    "7029": " mesmer",
    "7030": " nuzz",
    "7031": " neare",
    "7032": " nodd",
    "7033": " nodding",
    "7034": " prick",
    "7035": " regretted",
    "7036": " robber",
    "7037": " salty",
    "7038": " sewing",
    "7039": " skirts",
    "7040": " slammed",
    "7041": " slowed",
    "7042": " source",
    "7043": " sparks",
    "7044": " stumble",
    "7045": " stung",
    "7046": " swimmer",
    "7047": " talents",
    "7048": " tested",
    "7049": " tighter",
    "7050": " tipto",
    "7051": " twisting",
    "7052": " und",
    "7053": " uns",
    "7054": " wakes",
    "7055": " wee",
    "7056": " wrist",
    "7057": " yourselves",
    "7058": "Alex",
    "7059": "Baby",
    "7060": "Bet",
    "7061": "Beep",
    "7062": "Co",
    "7063": "Grace",
    "7064": "abel",
    "7065": "ades",
    "7066": "ading",
    "7067": "alloween",
    "7068": "cie",
    "7069": "cited",
    "7070": "chy",
    "7071": "ept",
    "7072": "gers",
    "7073": "hi",
    "7074": "lle",
    "7075": "neath",
    "7076": "ody",
    "7077": "oke",
    "7078": "sm",
    "7079": "ters",
    "7080": "you",
    "7081": " Cro",
    "7082": " Didi",
    "7083": " Fle",
    "7084": " Frosty",
    "7085": " Jon",
    "7086": " Lina",
    "7087": " Match",
    "7088": " Se",
    "7089": " Sadie",
    "7090": " Starry",
    "7091": " Suki",
    "7092": " Te",
    "7093": " Tippy",
    "7094": " Try",
    "7095": " Thanks",
    "7096": " Trust",
    "7097": " Zero",
    "7098": " active",
    "7099": " among",
    "7100": " annoyed",
    "7101": " astron",
    "7102": " astronaut",
    "7103": " avoid",
    "7104": " bumpy",
    "7105": " bun",
    "7106": " badge",
    "7107": " breathed",
    "7108": " cautious",
    "7109": " cor",
    "7110": " cobwebs",
    "7111": " combed",
    "7112": " countryside",
    "7113": " crumbs",
    "7114": " customer",
    "7115": " den",
    "7116": " disob",
    "7117": " dollhouse",
    "7118": " donkey",
    "7119": " ev",
    "7120": " farthest",
    "7121": " feast",
    "7122": " fleas",
    "7123": " force",
    "7124": " frowns",
    "7125": " glued",
    "7126": " hides",
    "7127": " honesty",
    "7128": " hopeful",
    "7129": " insects",
    "7130": " leap",
    "7131": " lies",
    "7132": " loses",
    "7133": " mater",
    "7134": " magpie",
    "7135": " mischie",
    "7136": " models",
    "7137": " objects",
    "7138": " outf",
    "7139": " outfit",
    "7140": " paintbrush",
    "7141": " pecked",
    "7142": " performing",
    "7143": " pleaded",
    "7144": " rows",
    "7145": " rubs",
    "7146": " ruining",
    "7147": " sy",
    "7148": " self",
    "7149": " skunk",
    "7150": " slipping",
    "7151": " snuck",
    "7152": " solut",
    "7153": " stroll",
    "7154": " sunscreen",
    "7155": " swept",
    "7156": " sweaty",
    "7157": " switched",
    "7158": " tissue",
    "7159": " tweet",
    "7160": " underneath",
    "7161": " videos",
    "7162": " warmer",
    "7163": " yielded",
    "7164": "--",
    "7165": ".'\"",
    "7166": "...",
    "7167": "Elly",
    "7168": "Even",
    "7169": "For",
    "7170": "Keep",
    "7171": "Kim",
    "7172": "Lina",
    "7173": "Sad",
    "7174": "Shrink",
    "7175": "Vroom",
    "7176": "aying",
    "7177": "iel",
    "7178": "iggles",
    "7179": "iversity",
    "7180": "oosh",
    "7181": "reverse",
    "7182": " Adam",
    "7183": " Along",
    "7184": " Baa",
    "7185": " Ball",
    "7186": " Bally",
    "7187": " Candy",
    "7188": " Chick",
    "7189": " Day",
    "7190": " Davey",
    "7191": " Halloween",
    "7192": " Hold",
    "7193": " Laser",
    "7194": " Listen",
    "7195": " Mint",
    "7196": " Mother",
    "7197": " Megan",
    "7198": " Pen",
    "7199": " Percy",
    "7200": " Tam",
    "7201": " Wiggles",
    "7202": " Whistle",
    "7203": " aud",
    "7204": " ache",
    "7205": " adults",
    "7206": " afterwards",
    "7207": " age",
    "7208": " anger",
    "7209": " ashes",
    "7210": " backed",
    "7211": " blinking",
    "7212": " buying",
    "7213": " cash",
    "7214": " chara",
    "7215": " charac",
    "7216": " creams",
    "7217": " curiously",
    "7218": " damage",
    "7219": " def",
    "7220": " designed",
    "7221": " dod",
    "7222": " dragonfly",
    "7223": " earn",
    "7224": " fans",
    "7225": " flight",
    "7226": " gazing",
    "7227": " halves",
    "7228": " ignoring",
    "7229": " imagining",
    "7230": " including",
    "7231": " joins",
    "7232": " knocking",
    "7233": " leads",
    "7234": " loudest",
    "7235": " munch",
    "7236": " markers",
    "7237": " masterpie",
    "7238": " masterpiece",
    "7239": " materi",
    "7240": " oc",
    "7241": " occ",
    "7242": " plain",
    "7243": " planting",
    "7244": " prevented",
    "7245": " prickly",
    "7246": " printing",
    "7247": " purr",
    "7248": " rather",
    "7249": " raind",
    "7250": " rainy",
    "7251": " raindr",
    "7252": " raindrops",
    "7253": " reason",
    "7254": " rever",
    "7255": " reminds",
    "7256": " responsible",
    "7257": " sens",
    "7258": " sway",
    "7259": " scra",
    "7260": " sculp",
    "7261": " scrub",
    "7262": " sculpture",
    "7263": " shown",
    "7264": " slither",
    "7265": " slower",
    "7266": " spits",
    "7267": " squeezing",
    "7268": " stuffing",
    "7269": " tig",
    "7270": " tipped",
    "7271": " talented",
    "7272": " tigers",
    "7273": " treehouse",
    "7274": " trusting",
    "7275": " unw",
    "7276": " unsure",
    "7277": " visitors",
    "7278": " zooms",
    "7279": "Bow",
    "7280": "Boys",
    "7281": "Betty",
    "7282": "Buzzy",
    "7283": "Che",
    "7284": "Clara",
    "7285": "Gina",
    "7286": "Lena",
    "7287": "Put",
    "7288": "Pippin",
    "7289": "aure",
    "7290": "addie",
    "7291": "aned",
    "7292": "ans",
    "7293": "auren",
    "7294": "bbie",
    "7295": "cept",
    "7296": "ddie",
    "7297": "elia",
    "7298": "ilo",
    "7299": "iolet",
    "7300": "llen",
    "7301": "rin",
    "7302": "rup",
    "7303": " Bark",
    "7304": " Bluey",
    "7305": " Brun",
    "7306": " Bruno",
    "7307": " Ed",
    "7308": " Elle",
    "7309": " Gray",
    "7310": " Gracie",
    "7311": " Indy",
    "7312": " Near",
    "7313": " Oliver",
    "7314": " Ske",
    "7315": " Shake",
    "7316": " Snap",
    "7317": " Snugg",
    "7318": " Snuggles",
    "7319": " Tia",
    "7320": " Trixie",
    "7321": " Up",
    "7322": " Wake",
    "7323": " Weapon",
    "7324": " Woolly",
    "7325": " abil",
    "7326": " accomplishment",
    "7327": " adult",
    "7328": " amount",
    "7329": " audience",
    "7330": " bandages",
    "7331": " behaviour",
    "7332": " bottles",
    "7333": " bows",
    "7334": " brushing",
    "7335": " buses",
    "7336": " bunnies",
    "7337": " cott",
    "7338": " camping",
    "7339": " caterpillars",
    "7340": " champ",
    "7341": " champion",
    "7342": " cheers",
    "7343": " colder",
    "7344": " colored",
    "7345": " drivers",
    "7346": " duckling",
    "7347": " evil",
    "7348": " everybody",
    "7349": " freed",
    "7350": " fins",
    "7351": " firmly",
    "7352": " flipped",
    "7353": " fluttered",
    "7354": " form",
    "7355": " grocer",
    "7356": " groceries",
    "7357": " insp",
    "7358": " indeed",
    "7359": " journeys",
    "7360": " lower",
    "7361": " lifting",
    "7362": " maker",
    "7363": " miles",
    "7364": " mooed",
    "7365": " nearest",
    "7366": " occas",
    "7367": " oppos",
    "7368": " opposite",
    "7369": " overcome",
    "7370": " oysters",
    "7371": " paddled",
    "7372": " papa",
    "7373": " plucked",
    "7374": " pleasure",
    "7375": " presses",
    "7376": " rails",
    "7377": " recommended",
    "7378": " reminding",
    "7379": " reversed",
    "7380": " rubbing",
    "7381": " sill",
    "7382": " satisfied",
    "7383": " soaking",
    "7384": " solving",
    "7385": " solution",
    "7386": " squeal",
    "7387": " stol",
    "7388": " stopping",
    "7389": " stolen",
    "7390": " surfboard",
    "7391": " surprising",
    "7392": " tid",
    "7393": " tin",
    "7394": " ting",
    "7395": " talks",
    "7396": " tasting",
    "7397": " temper",
    "7398": " tires",
    "7399": " tossed",
    "7400": " travelled",
    "7401": " twice",
    "7402": " twinkled",
    "7403": " twists",
    "7404": " unfam",
    "7405": " unfamil",
    "7406": " unfamiliar",
    "7407": " unwra",
    "7408": " wealth",
    "7409": " wiping",
    "7410": " wobbled",
    "7411": " wounds",
    "7412": "!”.",
    "7413": "'.\"",
    "7414": "Always",
    "7415": "Cindy",
    "7416": "Dan",
    "7417": "David",
    "7418": "Fro",
    "7419": "Hurry",
    "7420": "Jazz",
    "7421": "Julie",
    "7422": "Joey",
    "7423": "Kate",
    "7424": "Pandy",
    "7425": "Pat",
    "7426": "Suzy",
    "7427": "Tina",
    "7428": "Under",
    "7429": "achel",
    "7430": "aren",
    "7431": "ching",
    "7432": "endy",
    "7433": "found",
    "7434": "hny",
    "7435": "inda",
    "7436": "ira",
    "7437": "issa",
    "7438": "itches",
    "7439": "itu",
    "7440": "itude",
    "7441": "obody",
    "7442": "pit",
    "7443": "pecting",
    "7444": "uing",
    "7445": "umph",
    "7446": "using",
    "7447": "wise",
    "7448": " ouch",
    "7449": " Acorn",
    "7450": " Brad",
    "7451": " Cally",
    "7452": " Cla",
    "7453": " Copper",
    "7454": " Dusty",
    "7455": " Excited",
    "7456": " Fish",
    "7457": " Hook",
    "7458": " Isabella",
    "7459": " Jackie",
    "7460": " Ke",
    "7461": " Michael",
    "7462": " Pin",
    "7463": " Poor",
    "7464": " Ra",
    "7465": " Ruff",
    "7466": " Show",
    "7467": " Skelly",
    "7468": " Tank",
    "7469": " Two",
    "7470": " Welcome",
    "7471": " Wendy",
    "7472": " Yell",
    "7473": " Yet",
    "7474": " action",
    "7475": " apologised",
    "7476": " automobiles",
    "7477": " backs",
    "7478": " banged",
    "7479": " becomes",
    "7480": " belts",
    "7481": " borrowed",
    "7482": " cashier",
    "7483": " char",
    "7484": " chos",
    "7485": " chosen",
    "7486": " circus",
    "7487": " cond",
    "7488": " coloured",
    "7489": " corre",
    "7490": " dump",
    "7491": " decision",
    "7492": " drifted",
    "7493": " dripping",
    "7494": " ease",
    "7495": " ech",
    "7496": " echo",
    "7497": " efforts",
    "7498": " encourag",
    "7499": " explorer",
    "7500": " familiar",
    "7501": " figured",
    "7502": " flip",
    "7503": " flock",
    "7504": " flown",
    "7505": " forgetting",
    "7506": " friendships",
    "7507": " gardener",
    "7508": " goalie",
    "7509": " grassho",
    "7510": " grasshopper",
    "7511": " guardian",
    "7512": " healing",
    "7513": " inches",
    "7514": " inspired",
    "7515": " lump",
    "7516": " lapt",
    "7517": " laptop",
    "7518": " lifts",
    "7519": " mischievous",
    "7520": " neatly",
    "7521": " newfound",
    "7522": " onions",
    "7523": " onward",
    "7524": " pancakes",
    "7525": " parted",
    "7526": " peacefully",
    "7527": " pigeons",
    "7528": " playroom",
    "7529": " pouted",
    "7530": " punishment",
    "7531": " rays",
    "7532": " raccoon",
    "7533": " refe",
    "7534": " referee",
    "7535": " repeating",
    "7536": " repeats",
    "7537": " respected",
    "7538": " results",
    "7539": " robin",
    "7540": " robots",
    "7541": " scored",
    "7542": " seasons",
    "7543": " shoo",
    "7544": " sharks",
    "7545": " sniffing",
    "7546": " spice",
    "7547": " speeding",
    "7548": " squeak",
    "7549": " strips",
    "7550": " stroke",
    "7551": " swall",
    "7552": " swap",
    "7553": " swallowed",
    "7554": " swimsuit",
    "7555": " ty",
    "7556": " tapping",
    "7557": " taped",
    "7558": " thrown",
    "7559": " tops",
    "7560": " trembled",
    "7561": " troubles",
    "7562": " tubes",
    "7563": " wasting",
    "7564": " weeke",
    "7565": " weekend",
    "7566": " within",
    "7567": " written",
    "7568": " yelp",
    "7569": " younger",
    "7570": "!’",
    "7571": "?!\"",
    "7572": "Abby",
    "7573": "Am",
    "7574": "Aunt",
    "7575": "Afterwards",
    "7576": "Alright",
    "7577": "Bang",
    "7578": "Bill",
    "7579": "Br",
    "7580": "Days",
    "7581": "Gu",
    "7582": "Guess",
    "7583": "Jessie",
    "7584": "Josh",
    "7585": "Liz",
    "7586": "Nick",
    "7587": "Op",
    "7588": "People",
    "7589": "Ri",
    "7590": "Ribb",
    "7591": "Ribbit",
    "7592": "Toby",
    "7593": "Thomas",
    "7594": "aver",
    "7595": "ably",
    "7596": "amb",
    "7597": "ashes",
    "7598": "but",
    "7599": "cher",
    "7600": "cky",
    "7601": "erm",
    "7602": "ici",
    "7603": "idey",
    "7604": "ighing",
    "7605": "ition",
    "7606": "itted",
    "7607": "lsa",
    "7608": "ngela",
    "7609": "oring",
    "7610": "owny",
    "7611": "son",
    "7612": "sse",
    "7613": "urr",
    "7614": "woo",
    "7615": "what",
    "7616": " 2",
    "7617": " Abbie",
    "7618": " App",
    "7619": " Although",
    "7620": " Bi",
    "7621": " Bloom",
    "7622": " CD",
    "7623": " Cha",
    "7624": " Chr",
    "7625": " Cloud",
    "7626": " Claire",
    "7627": " Fork",
    "7628": " Forky",
    "7629": " Isn",
    "7630": " Jay",
    "7631": " Kayla",
    "7632": " Lion",
    "7633": " Luckily",
    "7634": " Mamma",
    "7635": " Pill",
    "7636": " Pizza",
    "7637": " Purr",
    "7638": " Puppy",
    "7639": " Ria",
    "7640": " Smoke",
    "7641": " Stret",
    "7642": " Steppy",
    "7643": " Time",
    "7644": " Willy",
    "7645": " Woof",
    "7646": " Yellow",
    "7647": " aim",
    "7648": " arrives",
    "7649": " bully",
    "7650": " beeh",
    "7651": " beehive",
    "7652": " beginning",
    "7653": " behavior",
    "7654": " bellies",
    "7655": " bothered",
    "7656": " bothering",
    "7657": " breathing",
    "7658": " bruises",
    "7659": " caw",
    "7660": " cautiously",
    "7661": " cleaner",
    "7662": " coach",
    "7663": " cosy",
    "7664": " cons",
    "7665": " connected",
    "7666": " craft",
    "7667": " cracker",
    "7668": " crossing",
    "7669": " designs",
    "7670": " disobey",
    "7671": " drawn",
    "7672": " dresser",
    "7673": " enthusiasm",
    "7674": " fooled",
    "7675": " grabbing",
    "7676": " groaned",
    "7677": " guessing",
    "7678": " hoo",
    "7679": " haircuts",
    "7680": " height",
    "7681": " hedgeh",
    "7682": " hedgehog",
    "7683": " invitations",
    "7684": " joyful",
    "7685": " knots",
    "7686": " lamb",
    "7687": " lan",
    "7688": " lent",
    "7689": " lantern",
    "7690": " languages",
    "7691": " librarian",
    "7692": " lizards",
    "7693": " lowered",
    "7694": " messes",
    "7695": " miller",
    "7696": " moonlight",
    "7697": " napped",
    "7698": " needles",
    "7699": " nuzzled",
    "7700": " packages",
    "7701": " patches",
    "7702": " plot",
    "7703": " playhouse",
    "7704": " pokes",
    "7705": " purrs",
    "7706": " purpose",
    "7707": " queens",
    "7708": " rust",
    "7709": " rats",
    "7710": " rect",
    "7711": " sandpit",
    "7712": " scen",
    "7713": " secure",
    "7714": " sensation",
    "7715": " shady",
    "7716": " shaped",
    "7717": " smashed",
    "7718": " smelling",
    "7719": " sniffs",
    "7720": " spices",
    "7721": " spills",
    "7722": " spoonful",
    "7723": " stitches",
    "7724": " swo",
    "7725": " swollen",
    "7726": " teapot",
    "7727": " thorns",
    "7728": " tiptoed",
    "7729": " tot",
    "7730": " waking",
    "7731": " weeds",
    "7732": " weighing",
    "7733": " whimp",
    "7734": " willing",
    "7735": " winners",
    "7736": " wrink",
    "7737": " wrapping",
    "7738": "Ab",
    "7739": "Barry",
    "7740": "Bee",
    "7741": "Bessie",
    "7742": "Coco",
    "7743": "Hop",
    "7744": "Jamie",
    "7745": "Jon",
    "7746": "Like",
    "7747": "Soup",
    "7748": "Try",
    "7749": "Zara",
    "7750": "acles",
    "7751": "armer",
    "7752": "atur",
    "7753": "cope",
    "7754": "elie",
    "7755": "ening",
    "7756": "espite",
    "7757": "form",
    "7758": "igning",
    "7759": "imm",
    "7760": "ji",
    "7761": "match",
    "7762": "mates",
    "7763": "opes",
    "7764": "rily",
    "7765": "rth",
    "7766": "rick",
    "7767": "rier",
    "7768": "rthur",
    "7769": "sa",
    "7770": "the",
    "7771": "vers",
    "7772": " ill",
    "7773": " Angela",
    "7774": " Bumpy",
    "7775": " Books",
    "7776": " Comet",
    "7777": " Chirp",
    "7778": " Climb",
    "7779": " Cocoa",
    "7780": " Crabby",
    "7781": " Croco",
    "7782": " Daniel",
    "7783": " Doll",
    "7784": " Elsa",
    "7785": " Farmer",
    "7786": " Fire",
    "7787": " Flame",
    "7788": " Flora",
    "7789": " Frankie",
    "7790": " Granny",
    "7791": " Ha",
    "7792": " Jem",
    "7793": " Jump",
    "7794": " Jody",
    "7795": " Leaf",
    "7796": " Leafy",
    "7797": " Louise",
    "7798": " Mag",
    "7799": " Man",
    "7800": " Might",
    "7801": " Mop",
    "7802": " Mush",
    "7803": " Meowny",
    "7804": " Melissa",
    "7805": " Mighty",
    "7806": " Mixy",
    "7807": " Mushroom",
    "7808": " Ni",
    "7809": " Nobody",
    "7810": " Nibbles",
    "7811": " Oink",
    "7812": " Okay",
    "7813": " Rachel",
    "7814": " Rain",
    "7815": " Rich",
    "7816": " Ruf",
    "7817": " Rufus",
    "7818": " Spidey",
    "7819": " Spoon",
    "7820": " Take",
    "7821": " Tidy",
    "7822": " Tiger",
    "7823": " Tree",
    "7824": " University",
    "7825": " activity",
    "7826": " admiration",
    "7827": " aeroplanes",
    "7828": " bitten",
    "7829": " bom",
    "7830": " beaver",
    "7831": " beeped",
    "7832": " belongings",
    "7833": " birdse",
    "7834": " birdseed",
    "7835": " blast",
    "7836": " bomb",
    "7837": " brightest",
    "7838": " coug",
    "7839": " cares",
    "7840": " center",
    "7841": " centre",
    "7842": " changes",
    "7843": " cheaper",
    "7844": " clicked",
    "7845": " clues",
    "7846": " convin",
    "7847": " correctly",
    "7848": " cowb",
    "7849": " crackers",
    "7850": " creativ",
    "7851": " creativity",
    "7852": " daring",
    "7853": " dip",
    "7854": " dances",
    "7855": " deed",
    "7856": " defin",
    "7857": " definitely",
    "7858": " destroying",
    "7859": " discussed",
    "7860": " displayed",
    "7861": " doorway",
    "7862": " edges",
    "7863": " encount",
    "7864": " encouraging",
    "7865": " encouragement",
    "7866": " exercises",
    "7867": " fills",
    "7868": " films",
    "7869": " focus",
    "7870": " gest",
    "7871": " gasps",
    "7872": " gems",
    "7873": " giggles",
    "7874": " glared",
    "7875": " goodby",
    "7876": " goodbyes",
    "7877": " handsome",
    "7878": " horiz",
    "7879": " horizon",
    "7880": " inj",
    "7881": " insisting",
    "7882": " instruments",
    "7883": " intr",
    "7884": " jobs",
    "7885": " kings",
    "7886": " labels",
    "7887": " laces",
    "7888": " larger",
    "7889": " manners",
    "7890": " marker",
    "7891": " massages",
    "7892": " meals",
    "7893": " meaning",
    "7894": " mints",
    "7895": " minding",
    "7896": " moons",
    "7897": " momma",
    "7898": " months",
    "7899": " motorcycles",
    "7900": " noticing",
    "7901": " pon",
    "7902": " peeled",
    "7903": " pinching",
    "7904": " posse",
    "7905": " ponies",
    "7906": " possess",
    "7907": " probably",
    "7908": " realizing",
    "7909": " rectangle",
    "7910": " relaxing",
    "7911": " respond",
    "7912": " sav",
    "7913": " scurry",
    "7914": " scratching",
    "7915": " screws",
    "7916": " serv",
    "7917": " shops",
    "7918": " slapping",
    "7919": " sniffled",
    "7920": " springing",
    "7921": " squaw",
    "7922": " stamped",
    "7923": " stomp",
    "7924": " storekeeper",
    "7925": " streamers",
    "7926": " suffering",
    "7927": " sweep",
    "7928": " sweaters",
    "7929": " tum",
    "7930": " tumbled",
    "7931": " tying",
    "7932": " tummies",
    "7933": " uniforms",
    "7934": " wider",
    "7935": " waded",
    "7936": " waterfall",
    "7937": " wept",
    "7938": " whoosh",
    "7939": " wisely",
    "7940": " wobble",
    "7941": " worrying",
    "7942": "Bounce",
    "7943": "Brian",
    "7944": "By",
    "7945": "Freddy",
    "7946": "Marie",
    "7947": "Pinky",
    "7948": "Pip",
    "7949": "Pl",
    "7950": "Ray",
    "7951": "Sharing",
    "7952": "Which",
    "7953": "Zip",
    "7954": "aling",
    "7955": "anced",
    "7956": "anet",
    "7957": "annah",
    "7958": "armen",
    "7959": "aterpillar",
    "7960": "ba",
    "7961": "beep",
    "7962": "eel",
    "7963": "ez",
    "7964": "ears",
    "7965": "ertain",
    "7966": "ezi",
    "7967": "iky",
    "7968": "iving",
    "7969": "iddy",
    "7970": "illed",
    "7971": "immer",
    "7972": "ldy",
    "7973": "ley",
    "7974": "oey",
    "7975": "orking",
    "7976": "orter",
    "7977": "per",
    "7978": "ppies",
    "7979": "rie",
    "7980": "river",
    "7981": "tock",
    "7982": "that",
    "7983": "ulf",
    "7984": "urrender",
    "7985": "yes",
    "7986": "zoom",
    "7987": " Ant",
    "7988": " Arm",
    "7989": " Apple",
    "7990": " Bad",
    "7991": " Bucky",
    "7992": " Cici",
    "7993": " Cross",
    "7994": " Eddie",
    "7995": " Flap",
    "7996": " Flappy",
    "7997": " Flexible",
    "7998": " Giant",
    "7999": " Joan",
    "8000": " Judge",
    "8001": " Kelly",
    "8002": " Lauren",
    "8003": " Luc",
    "8004": " Leopard",
    "8005": " Mic",
    "8006": " Navy",
    "8007": " Number",
    "8008": " Old",
    "8009": " Ouch",
    "8010": " Ralph",
    "8011": " Roy",
    "8012": " Regina",
    "8013": " Reginald",
    "8014": " Satur",
    "8015": " Sk",
    "8016": " Saturday",
    "8017": " Seat",
    "8018": " Shampoo",
    "8019": " Slinky",
    "8020": " Spinny",
    "8021": " Stan",
    "8022": " Swing",
    "8023": " Tato",
    "8024": " Ti",
    "8025": " Toy",
    "8026": " Unt",
    "8027": " Uni",
    "8028": " Until",
    "8029": " Wonder",
    "8030": " Yog",
    "8031": " ais",
    "8032": " acts",
    "8033": " affect",
    "8034": " allowing",
    "8035": " annoying",
    "8036": " antic",
    "8037": " anticip",
    "8038": " aren",
    "8039": " aware",
    "8040": " bathed",
    "8041": " beast",
    "8042": " beanst",
    "8043": " beanstalk",
    "8044": " beloved",
    "8045": " bits",
    "8046": " blocked",
    "8047": " boards",
    "8048": " bol",
    "8049": " braver",
    "8050": " bravest",
    "8051": " bubb",
    "8052": " budge",
    "8053": " burst",
    "8054": " cafe",
    "8055": " characters",
    "8056": " clue",
    "8057": " classmates",
    "8058": " cleared",
    "8059": " common",
    "8060": " commun",
    "8061": " concer",
    "8062": " consider",
    "8063": " cops",
    "8064": " creations",
    "8065": " cutter",
    "8066": " dizz",
    "8067": " damaged",
    "8068": " dangers",
    "8069": " delayed",
    "8070": " demanding",
    "8071": " differences",
    "8072": " dizziness",
    "8073": " driveway",
    "8074": " faded",
    "8075": " fu",
    "8076": " farmers",
    "8077": " fishermen",
    "8078": " flaps",
    "8079": " floats",
    "8080": " gon",
    "8081": " garb",
    "8082": " garbage",
    "8083": " genie",
    "8084": " glitt",
    "8085": " gonna",
    "8086": " grassy",
    "8087": " greeted",
    "8088": " hamm",
    "8089": " hesitant",
    "8090": " hissing",
    "8091": " intrig",
    "8092": " mitt",
    "8093": " magician",
    "8094": " mayor",
    "8095": " memb",
    "8096": " members",
    "8097": " mesmerized",
    "8098": " nast",
    "8099": " nur",
    "8100": " nasty",
    "8101": " nect",
    "8102": " nectar",
    "8103": " observing",
    "8104": " outfits",
    "8105": " owners",
    "8106": " puff",
    "8107": " panicked",
    "8108": " pays",
    "8109": " pennies",
    "8110": " pens",
    "8111": " plug",
    "8112": " politely",
    "8113": " pours",
    "8114": " preparing",
    "8115": " presented",
    "8116": " rotten",
    "8117": " races",
    "8118": " reapp",
    "8119": " rewards",
    "8120": " respon",
    "8121": " response",
    "8122": " returning",
    "8123": " risks",
    "8124": " rods",
    "8125": " runner",
    "8126": " sadder",
    "8127": " screwd",
    "8128": " screwdriver",
    "8129": " scurrying",
    "8130": " seals",
    "8131": " seagulls",
    "8132": " sets",
    "8133": " shall",
    "8134": " simply",
    "8135": " snorted",
    "8136": " sprinkled",
    "8137": " stacked",
    "8138": " stall",
    "8139": " stings",
    "8140": " stun",
    "8141": " sternly",
    "8142": " stirs",
    "8143": " streets",
    "8144": " ties",
    "8145": " tuck",
    "8146": " tapped",
    "8147": " thoughts",
    "8148": " throughout",
    "8149": " toad",
    "8150": " toward",
    "8151": " travelling",
    "8152": " twinkle",
    "8153": " vehicles",
    "8154": " vests",
    "8155": " visitor",
    "8156": " visits",
    "8157": " wig",
    "8158": " whales",
    "8159": " wrinkled",
    "8160": " writer",
    "8161": ",'",
    "8162": "====",
    "8163": "Albert",
    "8164": "Bop",
    "8165": "Behind",
    "8166": "Birdy",
    "8167": "Cra",
    "8168": "Deal",
    "8169": "Dear",
    "8170": "Frank",
    "8171": "Friend",
    "8172": "However",
    "8173": "Instead",
    "8174": "Jolly",
    "8175": "Nothing",
    "8176": "Olive",
    "8177": "Only",
    "8178": "Papa",
    "8179": "Pr",
    "8180": "Quick",
    "8181": "RR",
    "8182": "Rock",
    "8183": "Slow",
    "8184": "Tilly",
    "8185": "Want",
    "8186": "ais",
    "8187": "acing",
    "8188": "anwh",
    "8189": "antha",
    "8190": "anwhile",
    "8191": "apay",
    "8192": "apers",
    "8193": "apaya",
    "8194": "arty",
    "8195": "atty",
    "8196": "bro",
    "8197": "boat",
    "8198": "broken",
    "8199": "cused",
    "8200": "eeling",
    "8201": "ending",
    "8202": "ering",
    "8203": "erious",
    "8204": "erk",
    "8205": "erms",
    "8206": "exi",
    "8207": "guess",
    "8208": "hings",
    "8209": "irls",
    "8210": "keepers",
    "8211": "omp",
    "8212": "ongr",
    "8213": "ophia",
    "8214": "ounced",
    "8215": "retty",
    "8216": "ssy",
    "8217": "udrey",
    "8218": "ums",
    "8219": "umphrey",
    "8220": "urple",
    "8221": "ushing",
    "8222": "yl",
    "8223": "years",
    "8224": " 5",
    "8225": " ''",
    "8226": " Aly",
    "8227": " Audrey",
    "8228": " Abi",
    "8229": " Amanda",
    "8230": " Auntie",
    "8231": " Bra",
    "8232": " Bobba",
    "8233": " Brush",
    "8234": " Brave",
    "8235": " Caterpillar",
    "8236": " Cle",
    "8237": " Chip",
    "8238": " Chuck",
    "8239": " Chug",
    "8240": " Despite",
    "8241": " Dust",
    "8242": " Everybody",
    "8243": " Fix",
    "8244": " Fun",
    "8245": " Hatty",
    "8246": " June",
    "8247": " Land",
    "8248": " Lexi",
    "8249": " Laura",
    "8250": " Milo",
    "8251": " Mina",
    "8252": " Moppy",
    "8253": " Marsh",
    "8254": " Nate",
    "8255": " Oh",
    "8256": " Op",
    "8257": " Only",
    "8258": " Pippy",
    "8259": " Pol",
    "8260": " Pop",
    "8261": " Peep",
    "8262": " Penel",
    "8263": " Penelope",
    "8264": " Playing",
    "8265": " Quack",
    "8266": " Razor",
    "8267": " Ready",
    "8268": " Robot",
    "8269": " Shiny",
    "8270": " Tick",
    "8271": " Thermometer",
    "8272": " Tibby",
    "8273": " Tweety",
    "8274": " Violet",
    "8275": " Wait",
    "8276": " Whip",
    "8277": " William",
    "8278": " Zoey",
    "8279": " amused",
    "8280": " anticipation",
    "8281": " appreciation",
    "8282": " artist",
    "8283": " bou",
    "8284": " bound",
    "8285": " baskets",
    "8286": " batt",
    "8287": " beaming",
    "8288": " birdhouse",
    "8289": " bouqu",
    "8290": " bouquet",
    "8291": " bud",
    "8292": " certain",
    "8293": " cheat",
    "8294": " chewy",
    "8295": " choosing",
    "8296": " clerk",
    "8297": " closing",
    "8298": " cloths",
    "8299": " cloudy",
    "8300": " collap",
    "8301": " comforting",
    "8302": " conc",
    "8303": " convinced",
    "8304": " corns",
    "8305": " croaked",
    "8306": " crowd",
    "8307": " cuddles",
    "8308": " cupcakes",
    "8309": " defe",
    "8310": " despite",
    "8311": " desser",
    "8312": " desserts",
    "8313": " digs",
    "8314": " disagre",
    "8315": " disturbing",
    "8316": " dollars",
    "8317": " dreamt",
    "8318": " dressing",
    "8319": " eld",
    "8320": " earned",
    "8321": " encountered",
    "8322": " environ",
    "8323": " envelopes",
    "8324": " environment",
    "8325": " except",
    "8326": " express",
    "8327": " exploration",
    "8328": " fist",
    "8329": " flavors",
    "8330": " focused",
    "8331": " forgives",
    "8332": " forgiveness",
    "8333": " funn",
    "8334": " gap",
    "8335": " generosity",
    "8336": " glows",
    "8337": " grat",
    "8338": " grandp",
    "8339": " grandparent",
    "8340": " gratitude",
    "8341": " guards",
    "8342": " hesitation",
    "8343": " hisses",
    "8344": " hotter",
    "8345": " intrigued",
    "8346": " invites",
    "8347": " jing",
    "8348": " lun",
    "8349": " longest",
    "8350": " lunchtime",
    "8351": " lungs",
    "8352": " magazines",
    "8353": " mailing",
    "8354": " materials",
    "8355": " meowing",
    "8356": " munching",
    "8357": " mushy",
    "8358": " nervously",
    "8359": " newspapers",
    "8360": " offering",
    "8361": " opinions",
    "8362": " pant",
    "8363": " pouch",
    "8364": " packet",
    "8365": " pedaled",
    "8366": " performance",
    "8367": " performer",
    "8368": " permitted",
    "8369": " pills",
    "8370": " plugged",
    "8371": " postc",
    "8372": " puzzled",
    "8373": " quacking",
    "8374": " rack",
    "8375": " raking",
    "8376": " reass",
    "8377": " reck",
    "8378": " realizes",
    "8379": " reckless",
    "8380": " rivers",
    "8381": " roars",
    "8382": " rustling",
    "8383": " sou",
    "8384": " sailboat",
    "8385": " sailors",
    "8386": " scent",
    "8387": " scolds",
    "8388": " sever",
    "8389": " several",
    "8390": " shh",
    "8391": " shorter",
    "8392": " shares",
    "8393": " shines",
    "8394": " skate",
    "8395": " slips",
    "8396": " slithered",
    "8397": " snar",
    "8398": " snug",
    "8399": " sprays",
    "8400": " squealed",
    "8401": " statues",
    "8402": " stomachs",
    "8403": " stores",
    "8404": " sunflowers",
    "8405": " supporting",
    "8406": " swallow",
    "8407": " sweetest",
    "8408": " syrup",
    "8409": " symbols",
    "8410": " tale",
    "8411": " teachers",
    "8412": " temperature",
    "8413": " terrified",
    "8414": " theat",
    "8415": " trading",
    "8416": " traveling",
    "8417": " unable",
    "8418": " vibr",
    "8419": " wadd",
    "8420": " wiser",
    "8421": " yelped",
    "8422": "Adam",
    "8423": "Ava",
    "8424": "Beth",
    "8425": "Binky",
    "8426": "Both",
    "8427": "Cla",
    "8428": "Claire",
    "8429": "Does",
    "8430": "Goodnight",
    "8431": "Hmm",
    "8432": "Isabella",
    "8433": "Johny",
    "8434": "King",
    "8435": "Leave",
    "8436": "Mon",
    "8437": "Promise",
    "8438": "Ralph",
    "8439": "Sadie",
    "8440": "Should",
    "8441": "Sof",
    "8442": "Tw",
    "8443": "Trust",
    "8444": "Uncle",
    "8445": "Willow",
    "8446": "act",
    "8447": "aven",
    "8448": "acher",
    "8449": "acle",
    "8450": "anga",
    "8451": "asha",
    "8452": "athan",
    "8453": "bed",
    "8454": "bird",
    "8455": "cted",
    "8456": "cloud",
    "8457": "creams",
    "8458": "date",
    "8459": "esses",
    "8460": "giving",
    "8461": "hole",
    "8462": "ics",
    "8463": "iece",
    "8464": "ift",
    "8465": "illip",
    "8466": "immering",
    "8467": "ivia",
    "8468": "izzie",
    "8469": "jack",
    "8470": "line",
    "8471": "lect",
    "8472": "ments",
    "8473": "olo",
    "8474": "oochy",
    "8475": "rinky",
    "8476": "sn",
    "8477": "sol",
    "8478": "uses",
    "8479": "uggy",
    "8480": "upin",
    "8481": "via",
    "8482": "water",
    "8483": "ylvia",
    "8484": "…",
    "8485": " Ac",
    "8486": " Ary",
    "8487": " Albert",
    "8488": " Arya",
    "8489": " Band",
    "8490": " Beepy",
    "8491": " Benji",
    "8492": " Bibo",
    "8493": " Birds",
    "8494": " Bobbie",
    "8495": " Booker",
    "8496": " Bussy",
    "8497": " Cable",
    "8498": " Cara",
    "8499": " Cir",
    "8500": " Cook",
    "8501": " Clouds",
    "8502": " Dezi",
    "8503": " Dot",
    "8504": " Dull",
    "8505": " Fair",
    "8506": " Find",
    "8507": " Flick",
    "8508": " Friendship",
    "8509": " Grand",
    "8510": " Hello",
    "8511": " Ice",
    "8512": " Jumpy",
    "8513": " Janey",
    "8514": " Kanga",
    "8515": " Laz",
    "8516": " Lot",
    "8517": " Laurie",
    "8518": " Lazy",
    "8519": " Lots",
    "8520": " Maddie",
    "8521": " Make",
    "8522": " More",
    "8523": " Ms",
    "8524": " Muggy",
    "8525": " Maya",
    "8526": " Melon",
    "8527": " Mixie",
    "8528": " Offic",
    "8529": " Oxygen",
    "8530": " Officer",
    "8531": " Papaya",
    "8532": " Party",
    "8533": " Pass",
    "8534": " Pet",
    "8535": " Poin",
    "8536": " Pot",
    "8537": " Purple",
    "8538": " Passport",
    "8539": " Phillip",
    "8540": " Point",
    "8541": " Print",
    "8542": " Rh",
    "8543": " Ricky",
    "8544": " Rit",
    "8545": " Ry",
    "8546": " Rita",
    "8547": " Roll",
    "8548": " Rude",
    "8549": " Ryan",
    "8550": " Since",
    "8551": " Summer",
    "8552": " Skip",
    "8553": " Snowball",
    "8554": " Space",
    "8555": " Spicy",
    "8556": " Square",
    "8557": " Stealing",
    "8558": " Sunshine",
    "8559": " Tere",
    "8560": " Tizzy",
    "8561": " Tock",
    "8562": " Ty",
    "8563": " Teresa",
    "8564": " Todd",
    "8565": " Trucky",
    "8566": " Volly",
    "8567": " War",
    "8568": " Well",
    "8569": " Wise",
    "8570": " Whoever",
    "8571": " ability",
    "8572": " achieved",
    "8573": " aisle",
    "8574": " although",
    "8575": " alley",
    "8576": " angrier",
    "8577": " angrily",
    "8578": " announced",
    "8579": " answering",
    "8580": " arr",
    "8581": " attend",
    "8582": " bless",
    "8583": " bends",
    "8584": " bendy",
    "8585": " blade",
    "8586": " blades",
    "8587": " blur",
    "8588": " blooms",
    "8589": " bolt",
    "8590": " bulbs",
    "8591": " causing",
    "8592": " cables",
    "8593": " carve",
    "8594": " cells",
    "8595": " chews",
    "8596": " clut",
    "8597": " coloring",
    "8598": " compete",
    "8599": " concerned",
    "8600": " conduct",
    "8601": " cottage",
    "8602": " cousins",
    "8603": " covering",
    "8604": " crashing",
    "8605": " creamy",
    "8606": " crickets",
    "8607": " crocodiles",
    "8608": " crowns",
    "8609": " dais",
    "8610": " darl",
    "8611": " ding",
    "8612": " daddies",
    "8613": " daisies",
    "8614": " darlings",
    "8615": " deli",
    "8616": " delaying",
    "8617": " delivery",
    "8618": " demon",
    "8619": " demonst",
    "8620": " designing",
    "8621": " differently",
    "8622": " digger",
    "8623": " disagreement",
    "8624": " disobeyed",
    "8625": " doorb",
    "8626": " doorbell",
    "8627": " echoed",
    "8628": " enem",
    "8629": " enemies",
    "8630": " expecting",
    "8631": " experien",
    "8632": " experienced",
    "8633": " explo",
    "8634": " explains",
    "8635": " fulf",
    "8636": " failed",
    "8637": " faith",
    "8638": " facts",
    "8639": " final",
    "8640": " finishing",
    "8641": " fires",
    "8642": " fixer",
    "8643": " flips",
    "8644": " foggy",
    "8645": " glee",
    "8646": " gesture",
    "8647": " glanced",
    "8648": " grumbled",
    "8649": " guesses",
    "8650": " guided",
    "8651": " guarding",
    "8652": " habit",
    "8653": " hatch",
    "8654": " heaven",
    "8655": " heartbroken",
    "8656": " helicopters",
    "8657": " heron",
    "8658": " hippos",
    "8659": " hiss",
    "8660": " hunters",
    "8661": " injured",
    "8662": " jets",
    "8663": " joyfully",
    "8664": " lull",
    "8665": " lectures",
    "8666": " locks",
    "8667": " luckily",
    "8668": " lullaby",
    "8669": " lumberjack",
    "8670": " mer",
    "8671": " medals",
    "8672": " messed",
    "8673": " mixture",
    "8674": " mugs",
    "8675": " niece",
    "8676": " nibbled",
    "8677": " odd",
    "8678": " obeyed",
    "8679": " owls",
    "8680": " pound",
    "8681": " puck",
    "8682": " paramed",
    "8683": " paramedics",
    "8684": " passen",
    "8685": " pecks",
    "8686": " plans",
    "8687": " playdate",
    "8688": " prank",
    "8689": " prove",
    "8690": " practised",
    "8691": " pressing",
    "8692": " providing",
    "8693": " pupils",
    "8694": " quarreled",
    "8695": " rushing",
    "8696": " rely",
    "8697": " reun",
    "8698": " realise",
    "8699": " refreshing",
    "8700": " repairs",
    "8701": " resisted",
    "8702": " riches",
    "8703": " riverb",
    "8704": " riverbank",
    "8705": " robb",
    "8706": " robe",
    "8707": " robbers",
    "8708": " salon",
    "8709": " scamp",
    "8710": " scampered",
    "8711": " scraped",
    "8712": " seawe",
    "8713": " seaweed",
    "8714": " seconds",
    "8715": " shinier",
    "8716": " shrank",
    "8717": " sirens",
    "8718": " situations",
    "8719": " sleds",
    "8720": " smartest",
    "8721": " smoother",
    "8722": " snowf",
    "8723": " snowfl",
    "8724": " soot",
    "8725": " spy",
    "8726": " spoiling",
    "8727": " steering",
    "8728": " storms",
    "8729": " strum",
    "8730": " styles",
    "8731": " suitcase",
    "8732": " suits",
    "8733": " suns",
    "8734": " swimsuits",
    "8735": " teams",
    "8736": " tentacles",
    "8737": " theatre",
    "8738": " thundercloud",
    "8739": " tidied",
    "8740": " toolbox",
    "8741": " towns",
    "8742": " travels",
    "8743": " triang",
    "8744": " triangles",
    "8745": " tunes",
    "8746": " type",
    "8747": " undone",
    "8748": " understands",
    "8749": " unwrap",
    "8750": " vibrant",
    "8751": " warmly",
    "8752": " washes",
    "8753": " welcoming",
    "8754": " whine",
    "8755": " whir",
    "8756": " whiskers",
    "8757": " whimpered",
    "8758": " whispering",
    "8759": " winks",
    "8760": " —",
    "8761": "Abigail",
    "8762": "Anne",
    "8763": "Carl",
    "8764": "Danger",
    "8765": "Eat",
    "8766": "Finny",
    "8767": "Froggy",
    "8768": "Gigi",
    "8769": "Gogo",
    "8770": "Got",
    "8771": "Ho",
    "8772": "Hoppy",
    "8773": "Ice",
    "8774": "Jacob",
    "8775": "Jess",
    "8776": "Karen",
    "8777": "Kids",
    "8778": "Kiki",
    "8779": "Mel",
    "8780": "Mother",
    "8781": "Robby",
    "8782": "Robert",
    "8783": "Speedy",
    "8784": "Splash",
    "8785": "Squeaky",
    "8786": "Sun",
    "8787": "Snow",
    "8788": "Sofia",
    "8789": "Someone",
    "8790": "Suzie",
    "8791": "Wake",
    "8792": "abelle",
    "8793": "armony",
    "8794": "asers",
    "8795": "att",
    "8796": "atul",
    "8797": "bil",
    "8798": "cri",
    "8799": "earl",
    "8800": "elina",
    "8801": "ets",
    "8802": "fire",
    "8803": "icent",
    "8804": "iden",
    "8805": "idence",
    "8806": "ige",
    "8807": "ildren",
    "8808": "inted",
    "8809": "ipes",
    "8810": "lor",
    "8811": "mate",
    "8812": "ming",
    "8813": "off",
    "8814": "occo",
    "8815": "ongratul",
    "8816": "ordan",
    "8817": "ortunately",
    "8818": "pop",
    "8819": "sers",
    "8820": "snap",
    "8821": "ssa",
    "8822": "stick",
    "8823": "uise",
    "8824": "ugging",
    "8825": "ula",
    "8826": " icky",
    "8827": " Alyssa",
    "8828": " Annabelle",
    "8829": " Ba",
    "8830": " Bang",
    "8831": " Bess",
    "8832": " Bones",
    "8833": " Bro",
    "8834": " Ballie",
    "8835": " Barky",
    "8836": " Becky",
    "8837": " BeeBee",
    "8838": " Bessy",
    "8839": " Breezy",
    "8840": " Broccoli",
    "8841": " Bund",
    "8842": " Bury",
    "8843": " Bundles",
    "8844": " Carmen",
    "8845": " Celia",
    "8846": " Clive",
    "8847": " Cory",
    "8848": " Cars",
    "8849": " Carlos",
    "8850": " Chair",
    "8851": " Chris",
    "8852": " Climbing",
    "8853": " Cookie",
    "8854": " Deal",
    "8855": " Dogs",
    "8856": " Edu",
    "8857": " Eduard",
    "8858": " Eduardo",
    "8859": " Fel",
    "8860": " Felix",
    "8861": " Flore",
    "8862": " Florence",
    "8863": " Fredrick",
    "8864": " Gill",
    "8865": " Ginny",
    "8866": " Grumpy",
    "8867": " Hank",
    "8868": " Humphrey",
    "8869": " Herb",
    "8870": " Herbie",
    "8871": " Jed",
    "8872": " Jelly",
    "8873": " Jellyfish",
    "8874": " Jemma",
    "8875": " Johnson",
    "8876": " Kevin",
    "8877": " Life",
    "8878": " Lime",
    "8879": " Lumber",
    "8880": " Lupin",
    "8881": " Magnet",
    "8882": " Marth",
    "8883": " Martha",
    "8884": " Monkey",
    "8885": " Nurse",
    "8886": " Ox",
    "8887": " Orin",
    "8888": " Poochy",
    "8889": " Potato",
    "8890": " Printy",
    "8891": " Puss",
    "8892": " Pupil",
    "8893": " Queeny",
    "8894": " Rick",
    "8895": " Rolly",
    "8896": " Rub",
    "8897": " Rae",
    "8898": " Rainbow",
    "8899": " Rosa",
    "8900": " Rubber",
    "8901": " Sly",
    "8902": " Sophia",
    "8903": " Sug",
    "8904": " Samantha",
    "8905": " Slide",
    "8906": " Spiky",
    "8907": " Still",
    "8908": " Sundays",
    "8909": " Switch",
    "8910": " Tip",
    "8911": " Tra",
    "8912": " Teacher",
    "8913": " Wolf",
    "8914": " Wooly",
    "8915": " Yogi",
    "8916": " aqu",
    "8917": " accomplished",
    "8918": " address",
    "8919": " afar",
    "8920": " afford",
    "8921": " ages",
    "8922": " airplanes",
    "8923": " apr",
    "8924": " applauding",
    "8925": " approach",
    "8926": " aprons",
    "8927": " aquar",
    "8928": " aquarium",
    "8929": " astronauts",
    "8930": " attack",
    "8931": " attem",
    "8932": " awful",
    "8933": " born",
    "8934": " buddy",
    "8935": " battle",
    "8936": " beautif",
    "8937": " bills",
    "8938": " bluebird",
    "8939": " boil",
    "8940": " burying",
    "8941": " congratul",
    "8942": " calmly",
    "8943": " chatter",
    "8944": " charge",
    "8945": " checking",
    "8946": " cherish",
    "8947": " clip",
    "8948": " clover",
    "8949": " combing",
    "8950": " computers",
    "8951": " concent",
    "8952": " conductor",
    "8953": " confidence",
    "8954": " container",
    "8955": " copied",
    "8956": " coughed",
    "8957": " cruel",
    "8958": " dand",
    "8959": " dashed",
    "8960": " dep",
    "8961": " det",
    "8962": " dips",
    "8963": " dandel",
    "8964": " demonstrated",
    "8965": " disappears",
    "8966": " disguise",
    "8967": " dives",
    "8968": " dodged",
    "8969": " dodging",
    "8970": " drift",
    "8971": " drip",
    "8972": " dumped",
    "8973": " earr",
    "8974": " earrings",
    "8975": " embra",
    "8976": " emerged",
    "8977": " endings",
    "8978": " enjoyable",
    "8979": " entering",
    "8980": " erasers",
    "8981": " exch",
    "8982": " examining",
    "8983": " experiences",
    "8984": " fet",
    "8985": " fences",
    "8986": " firefighter",
    "8987": " fluttering",
    "8988": " footp",
    "8989": " footprin",
    "8990": " footprints",
    "8991": " forts",
    "8992": " forests",
    "8993": " freedom",
    "8994": " freezing",
    "8995": " germs",
    "8996": " gears",
    "8997": " giants",
    "8998": " god",
    "8999": " godmother",
    "9000": " grandd",
    "9001": " hoof",
    "9002": " huff",
    "9003": " haw",
    "9004": " hamster",
    "9005": " handing",
    "9006": " hearing",
    "9007": " heights",
    "9008": " host",
    "9009": " humming",
    "9010": " instrument",
    "9011": " intently",
    "9012": " intelligence",
    "9013": " introducing",
    "9014": " ketch",
    "9015": " ketchup",
    "9016": " limp",
    "9017": " lur",
    "9018": " laz",
    "9019": " lamps",
    "9020": " level",
    "9021": " learner",
    "9022": " lessons",
    "9023": " lifegu",
    "9024": " lifeguard",
    "9025": " mate",
    "9026": " mur",
    "9027": " mattresses",
    "9028": " meatball",
    "9029": " meatballs",
    "9030": " melts",
    "9031": " mesmerised",
    "9032": " minds",
    "9033": " neighbours",
    "9034": " nightfall",
    "9035": " novels",
    "9036": " obst",
    "9037": " occasion",
    "9038": " occasions",
    "9039": " online",
    "9040": " opt",
    "9041": " ostriches",
    "9042": " otherwise",
    "9043": " passes",
    "9044": " poop",
    "9045": " particularly",
    "9046": " pearls",
    "9047": " peeks",
    "9048": " peels",
    "9049": " plumber",
    "9050": " poppies",
    "9051": " posts",
    "9052": " protects",
    "9053": " quilt",
    "9054": " rider",
    "9055": " rises",
    "9056": " rout",
    "9057": " ruff",
    "9058": " recipe",
    "9059": " reunited",
    "9060": " savanna",
    "9061": " scre",
    "9062": " scenery",
    "9063": " seeking",
    "9064": " shooed",
    "9065": " silent",
    "9066": " skateboard",
    "9067": " slug",
    "9068": " snapping",
    "9069": " snarled",
    "9070": " snowflakes",
    "9071": " souven",
    "9072": " souvenir",
    "9073": " sped",
    "9074": " spies",
    "9075": " spilling",
    "9076": " squawked",
    "9077": " stains",
    "9078": " stepping",
    "9079": " stomped",
    "9080": " stretches",
    "9081": " strolled",
    "9082": " swaying",
    "9083": " switches",
    "9084": " tempted",
    "9085": " testing",
    "9086": " thanking",
    "9087": " thieves",
    "9088": " tingling",
    "9089": " toucan",
    "9090": " trans",
    "9091": " transform",
    "9092": " treas",
    "9093": " treated",
    "9094": " untangle",
    "9095": " untw",
    "9096": " waistband",
    "9097": " warri",
    "9098": " waterm",
    "9099": " watermel",
    "9100": " watermelon",
    "9101": " weaker",
    "9102": " webs",
    "9103": " weighs",
    "9104": " wildf",
    "9105": " wrigg",
    "9106": " wrapper",
    "9107": " zookeepers",
    "9108": "',",
    "9109": "Any",
    "9110": "Arthur",
    "9111": "Belle",
    "9112": "Bo",
    "9113": "Bug",
    "9114": "Catch",
    "9115": "Caw",
    "9116": "Curious",
    "9117": "Chloe",
    "9118": "Duck",
    "9119": "En",
    "9120": "Fish",
    "9121": "Friends",
    "9122": "Hope",
    "9123": "Isn",
    "9124": "Jay",
    "9125": "Joy",
    "9126": "Jackie",
    "9127": "Kelly",
    "9128": "Maddie",
    "9129": "Mag",
    "9130": "Marth",
    "9131": "Maria",
    "9132": "Martha",
    "9133": "Meanwhile",
    "9134": "Near",
    "9135": "Nice",
    "9136": "Open",
    "9137": "Outside",
    "9138": "Polly",
    "9139": "Rabbit",
    "9140": "Surrender",
    "9141": "Sadly",
    "9142": "Share",
    "9143": "Shrinky",
    "9144": "Snap",
    "9145": "Still",
    "9146": "Tara",
    "9147": "Ted",
    "9148": "Theo",
    "9149": "Two",
    "9150": "Wiggly",
    "9151": "aige",
    "9152": "abr",
    "9153": "abrina",
    "9154": "accoon",
    "9155": "acy",
    "9156": "ager",
    "9157": "ali",
    "9158": "amps",
    "9159": "artled",
    "9160": "ashing",
    "9161": "aty",
    "9162": "bs",
    "9163": "cake",
    "9164": "can",
    "9165": "cou",
    "9166": "couraged",
    "9167": "dges",
    "9168": "dinky",
    "9169": "dog",
    "9170": "doo",
    "9171": "ese",
    "9172": "even",
    "9173": "eading",
    "9174": "elieve",
    "9175": "exit",
    "9176": "ibil",
    "9177": "icate",
    "9178": "icious",
    "9179": "icola",
    "9180": "ienna",
    "9181": "igger",
    "9182": "imals",
    "9183": "incy",
    "9184": "ippers",
    "9185": "ives",
    "9186": "just",
    "9187": "jamin",
    "9188": "mar",
    "9189": "nor",
    "9190": "okay",
    "9191": "onnie",
    "9192": "ooks",
    "9193": "opy",
    "9194": "peat",
    "9195": "peed",
    "9196": "ration",
    "9197": "rough",
    "9198": "rees",
    "9199": "repeat",
    "9200": "rest",
    "9201": "rnie",
    "9202": "sack",
    "9203": "she",
    "9204": "unched",
    "9205": "undred",
    "9206": "vered",
    "9207": "wen",
    "9208": "”,",
    "9209": " Alf",
    "9210": " Aman",
    "9211": " Accident",
    "9212": " Accidents",
    "9213": " Afterwards",
    "9214": " Amie",
    "9215": " Annabel",
    "9216": " Basket",
    "9217": " Bed",
    "9218": " Bolly",
    "9219": " Bonnie",
    "9220": " Basketball",
    "9221": " Blake",
    "9222": " Cate",
    "9223": " Comp",
    "9224": " Con",
    "9225": " Curious",
    "9226": " Chant",
    "9227": " Chantelle",
    "9228": " Cheese",
    "9229": " Chef",
    "9230": " Chewy",
    "9231": " Claws",
    "9232": " Close",
    "9233": " Clumsy",
    "9234": " Cowy",
    "9235": " Dee",
    "9236": " Dream",
    "9237": " Does",
    "9238": " Eva",
    "9239": " Fanny",
    "9240": " Fight",
    "9241": " Fold",
    "9242": " Furry",
    "9243": " Fighting",
    "9244": " Flash",
    "9245": " Flip",
    "9246": " Flutter",
    "9247": " Fleur",
    "9248": " Gl",
[...]
