  t
h e
  a
  s
  w
 t he
n d
e d
  b
 t o
 a nd
  h
  f
  T
i n
 w a
r e
i t
o u
  l
  d
  c
  p
a y
  m
e r
 wa s
 T he
o m
  he
i s
  n
i m
a r
o n
 s a
l l
i d
 h a
  g
a t
  S
in g
o t
e n
a n
l e
o r
i r
a m
e t
  H
  it
 t h
i g
 The y
 p l
  in
i l
 H e
  "
o w
v er
r i
  u
u t
 pl ay
it h
 sa id
 b e
 d ay
 w ith
p p
O n
  o
  y
o o
k ed
  r
 he r
c e
l d
 h is
 T im
  I
 S he
 s t
k e
  e
 b ig
n t
c k
ver y
 y ou
s t
v e
e nd
u n
 ha pp
  on
a ll
ri end
 f riend
 the y
  L
il y
 w e
 ha d
 u p
 l i
 n ot
he r
 wa nt
it t
 o f
a d
 d o
  B
s e
 happ y
en t
  very
  M
e s
 sa w
On e
 th at
ou ld
' s
 f or
itt le
 m om
 l ittle
 s o
 s h
 s he
im e
c h
 n am
 t ime
  k
 n e
ou nd
. "
 the re
 nam ed
 b o
 s m
 we re
 want ed
 L ily
 friend s
ou t
ir d
 b ut
v ed
h t
! "
T he
 T om
 b ird
e l
a ke
 a n
a l
 to o
om e
 w ent
 w h
id e
On ce
 a ll
 I t
 he l
u g
u e
 hel p
  is
 l oo
  A
 up on
 l o
t er
r y
 to y
o re
 f un
i nd
g et
i ll
am e
 a s
  j
r a
 a t
get her
 c at
 d id
  re
u r
 to gether
a ck
 s e
l y
 t re
oo d
 do g
i c
 c ould
t ed
 c an
 b all
ar d
 g ir
 the ir
ar k
 gir l
 play ed
e c
m y
 h im
 g o
w ay
 r o
? "
he d
a in
 k n
 l e
  out
he n
 a re
 f r
u m
' t
 the m
 bo y
 sa d
u l
a x
 tre e
ot her
ou g
 m an
 lo ved
 ha ve
 c l
 f ound
 loo ked
 s p
 S ue
 st ar
 s c
on e
 b ack
ow n
h ing
a re
 M ax
 li ke
 be c
s ide
f ul
 m e
o p
on g
 p ark
 w ould
ig ht
 li ked
r ound
  One
el t
 f a
 c ar
 m ake
e ll
 B ut
 f elt
 l a
  W
 as ked
 S am
Y ou
ar ed
om et
i ce
 c ame
 ne w
 star ted
a g
 se e
 n o
oug ht
ou se
 B en
 a l
il ed
 a g
  other
 g ood
p ot
 s omet
 sm all
 b r
o b
s s
 sm iled
ad e
ri ed
ing s
 s ay
 f ind
 w or
 a way
 e x
 fr om
 th ought
 m ade
 S pot
 wh at
 h ome
 c o
 play ing
en ed
 somet hing
t y
 p ut
 e very
 wa l
a ch
 m u
i a
u c
oo k
i e
n y
  F
 ag ain
 r an
 d own
i le
d d
ar n
 toy s
a ve
 p r
k ing
 sc ared
 s ome
 too k
 la ug
  J
 h ouse
 f l
i f
a b
 a round
 bo x
 s w
u re
i ck
 le arn
e p
re t
is h
ou d
u ck
 you r
 li ved
  You
 th ings
 s un
 the n
 w ill
e w
 b l
 m y
a s
 w hen
 a b
pp ed
, "
u s
 g et
an k
T im
T h
 c h
 l ot
uc y
ot h
a p
um p
 M ia
 wh o
 t ried
is t
 f e
 kn ow
 g ot
it ed
u st
 man y
 ab out
 say s
 in t
all y
nd er
 r ed
 kn ew
 p ret
i ve
 d ec
L ily
is e
ou s
 an y
a u
  D
a ce
 c are
 m ore
 p ic
q u
f ter
 be st
au se
 o p
 bec ame
 L ucy
 p o
 wa ter
way s
 
f e
 h ug
 learn ed
 B ob
 ex c
 bec ause
it e
 al ways
 loo k
 out side
 int o
 ro om
 b oth
 u n
id ed
 S o
 sh ow
 laug hed
 e at
 dec ided
 A nd
 g re
 h o
ur p
u dd
an t
 p e
er s
  v
  E
 M om
 j ump
n n
 l ong
 on e
  ke
 th is
 n ice
 r un
Y es
 exc ited
 fa st
The y
T om
 fe el
 d ad
 to ld
 m o
 s k
 in side
ou r
 a m
 t r
 s l
u ll
le w
 s or
 t ake
urp r
 ro ck
in y
 pret ty
nn a
 s urpr
 g ave
 e ach
 g ra
im al
 an imal
in k
 mu ch
 h ow
W h
 st r
 o ld
 ne ed
B ut
 th an
 l et
v en
ar a
r o
g ed
 to w
es s
 u nder
  C
 sor ry
  or
 wal ked
 c le
a nd
f t
 t a
 ha nd
 t e
g e
is ed
o g
 f ish
ur n
ur t
 k ind
f f
 cl o
 H is
 wa t
v ing
 h ig
 animal s
a se
 A my
 j ust
 happ ened
 u s
c hed
 f ood
p l
 fl ow
 sk y
he re
 s n
r om
  ide
 l ist
 t ry
 W e
 ne ar
g ry
 did n
 ide a
 b et
  en
ab le
at e
in e
 f i
 f lew
ec i
 it s
re am
 care ful
Th ank
 sh are
 c ake
 he ard
e x
 bet ter
 t w
 st or
  if
 sp eci
 speci al
 d an
p ec
b er
i on
 T h
 be ar
 lot s
 w ind
l f
m ore
 any more
 cle an
udd en
 ne ver
 f o
 d on
M om
 g r
 b ug
 t al
op le
 c om
 h ard
 b u
 e nd
 The n
 b y
 f ly
udden ly
 m ag
or t
 f ore
 t urn
 o ver
 A nna
 E very
 e ven
r m

 

 lo ve
 co l
 pe ople
 sa fe
 a fter
 b ad
ad y
 hig h
 f am
 g round
a k
 do or
im b
 c ome
 sh iny
b b
 pr oud
 cl imb
 op ened
A s
u ff
 h urt
 pic ked
 bl ue
 l oud
pec ted
L et
 c he
 g ive
 wa y
 surpr ised
 g l
' m
 un ex
 unex pected
il d
 than ked
 c u
 b ook
um my
 F rom
 W hen
 c all
 col or
 H er
 f ar
ard en
 g arden
 e ver
 mag ic
  K
 p ar
oug h
k ay
  im
 hug ged
 st ill
 pl ace
N o
 u nt
oo l
 S ara
 of f
ag e
 m a
 sm ile
 wal k
t ure
  P
 jump ed
 fam ily
 I n
 unt il
i z
un ny
he s
 p a
e m
 sh ould
  qu
 n ow
i p
 k id
c t
 st ick
itt y
 st ay
 str ong
 fore st
 st o
an e
 d ra
a ut
 a pp
uff y
d y
 br o
 bo at
 gre at
 b ra
 s qu
 be aut
 t ra
 ne x
 nex t
 help ed
 j o
 S ally
le ase
 ha t
 happ ily
le s
 pic ture
 stor y
i ful
 beaut iful
i es
 list en
n ing
t h
 show ed
 call ed
 wh ile
o on
 clo s
 m et
 kid s
N ow
 op en
p t
 fr og
 m or
 re m
l uffy
 tow n
 so ft
 every one
C an
I t
g er
 im p
 be ing
H e
W hen
 a d
 sto pped
re l
 r ain
 an gry
 y ummy
b y
 wat ch
b it
 do ll
 c a
 could n
ab bit
ar y
v ent
 L et
re e
 tr uck
 d e
is hed
 K itty
 m ouse
 r abbit
b e
dd ed
 at e
re ss
is s
 w o
 F luffy
 lo st
 wa rm
 sl ide
 fa ce
 bra ve
 g ame
 W h
 ke ep
 f ell
 le ave
f ore
 flow ers
 tw o
 c ook
ow l
 b ed
 c ry
 p us
ill y
s o
o ck
 so on
 no ise
 gre en
 al so
  R
Th at
 b unny
e ar
 no dded
 w here
g an
se lf
 fi x
 sa t
 ha ving
ir ed
H i
 be fore
 y ell
 ke pt
 
 ho le
 p ain
 he ar
 
b le
d ay
 st ore
Wh at
 hand s
 cat ch
L ook
 u se
ir rel
The n
 f in
 s ing
a z
ir st
 us ed
 mom my
 ex pl
 th r
 fun ny
 bird s
 squ irrel
B en
  Now
 c ra
 loo king
u ch
 e y
 t ired
 go ing
 wa it
 b re
 k it
o y
e et
ay be
le ep
 me an
an ge
t hing
ug ht
  our
l ed
 p ull
a ir
 d if
 fa v
 sun ny
 t ri
 po nd
em ber
 C an
 ha s
 kit c
 kitc hen
 w r
 par ty
  ice
 th ink
 fl o
 J o
or n
 wor k
t ing
 he ad
W e
a c
u it
 b us
 m ess
 wor ked
 d r
n g
 re al
 D o
z y
i ous
h n
 o kay
 other s
 s ound
ll ow
 be h
 mor al
 ey es
at h
 sa nd
  z
 ad vent
 sh ared
 tal k
re w
 rem ember
  “
 fav or
j oy
m a
 favor ite
 as k
 r ight
H ell
Hell o
 c ut
 cu ri
 co ld
  ri
 h op
 c on
 imp ort
 h ill
 m on
ll y
 d ir
im es
 en joy
 ma king
 curi ous
 fo llow
 v o
 p ie
 br ight
 y ard
  G
 flow er
A t
k en
 sw eet
D on
 mo ve
re ed
 d uck
 d is
  own
 re st
 dra w
 f irst
 import ant
 to p
 J ack
 cl a
 sh o
 be gan
 t all
 p ick
 bl ock
 wat ched
ou nt
 s leep
 be l
 l ady
A fter
 n ight
 th ing
W ow
i ed
 r ace
st er
 ta il
 h ot
fe re
 h id
 h un
 dif fere
 ag reed
 flo or
 he re
 sh out
 st op
ec t
 for g
 Th is
 d ark
 b ag
 gra ss
 wor ry
ig n
 s ong
 t able
 ta st
 t ell
 need ed
 pr in
q ue
 leave s
 vo ice
ar ing
 re ad
 yell ow
 far m
ap er
 F in
 r u
 d ress
 tre es
 ha ir
 sw ing
Wh y
 differe nt
 d el
 advent ure
 wal king
 surpr ise
 turn ed
 p lease
 
 M r
 hun gry
M ax
 S uddenly
 car s
 do es
 D ad
 color s
o om
S uddenly
 laug h
b o
S ue
 clos er
a ched
 pret end
S am
 li on
c o
i ent
er ed
il a
 bro ken
 c ried
 pr om
 w ood
 w et
by e
 pie ce
 Tim my
 friend ly
 f ull
 beh ind
 tra in
is y
 dan ce
A nna
pp y
 climb ed
 to uch
 an other
 dan c
 g one
S o
a f
w here
 app le
 sm ell
bb ed
 st e
 sw im
 block s
c ked
 feel ing
at er
s h
 Th at
 p aper
 am az
S he
 A s
 a nt
 but ter
 p er
 run ning
 J ane
 re ached
 help ing
 fa ir
 list ened
 good bye
ic ed
 re ady
 ho ld
 on ly
a v
 l ight
 a c
r ay
ab y
i ke
  O
 ro ll
S ara
 c ream
 Bob o
 d ri
 re pl
 pus hed
 s it
ke y
 f ight
 sl ow
 pl an
 clo se
r ed
 A ll
 l ess
 d one
p e
 wa g
  owl
 wa ll
 c ool
 mu st
 se es
 gl ad
 fr uit
 w ise
 t iny
ie ld
 mom ent
 wo nder
 try ing
 st uck
at her
 d ream
 d in
 thr ough
I n
as h
 p en
 w ished
 fi re
am es
 re ach
 b ar
 th ank
 b aby
 be en
 expl ore
 jo in
 wind ow
ot t
 look s
 do ing
 Every one
 a r
 b it
 bu y
 shout ed
 a ir
 bu ild
 h ide
M ia
 Mom my
 ne st
 sw am
 sc ary
 f all
 com ing
 cl oud
 br an
 la nd
 b lew
 w in
one y
 se en
 per f
and y
as k
 ch ild
 dir ty
 book s
 he ld
av y
p h
 big ger
 le ft
 qu ick
 repl ied
 m at
 under st
el y
 m ight
 tre at
 color ful
nd ma
 gra bbed
 pull ed
 turn s
 wh y
O kay
 butter f
 d ro
iz ed
 remember ed
 f ill
ic y
 nam e
 ch air
 cu p
uck y
 bro ke
 ca st
or m
 c ount
 somet imes
 s ure
 th ree
a isy
 sp l
at ion
ou p
 ho pped
 p ink
 stay ed
t on
 sn ow
 j ob
 cla pped
O h
u p
 g ames
 b ott
d er
 g if
e e
 wa ited
 The re
' re
 pl ant
 gr ow
 not iced
 ball oon
 less on
 any thing
i x
 picture s
 wood s
 m out
 mout h
 A fter
 pain t
 s et
 wa ved
udd y
 enjoy ed
ow er
ro om
 al one
 sp ot
 p ot
 con t
J o
Th is
 se a
 br other
 like s
d s
ar t
ou n
H er
am p
 t ight
 th rew
 y ear
" .
 he avy
 wh ite
 follow ed
 g ent
 quick ly
 butterf ly
in s
 cook ies
 m iss
S pot
 de ep
 j u
ap e
as ure
 every where
d e
L ucy
 be e
z e
 p at
 Jo hn
a ught
ri es
 m ar
B ob
 wor ld
c le
is ter
 cl ot
 wr ong
 clot hes
 cast le
 c re
 we ar
le ss
 p u
l c
ro ss
 but ton
 m um
 le af
i et
o lly
  ve
 B uddy
 n ap
n er
 ke y
 m ix
 qu iet
are nt
 make s
an g
 br ought
 r ound
 p arent
r ow
 want s
r ot
u ed
ull y
 D aisy
 him self
 we ll
o s
 w on
 del ic
 r ide
 f ield
m an
 danc ed
 a rm
 bre ak
 L ila
 tow er
 s ign
D o
 Wh at
f ully
 h it
 sn ack
 dra g
th y
 fast er
 gif t
 k ing
 tal ked
 forg ot
 w ish
 be ach
 le g
g g
 ri ver
 s ister
 mu s
ce ss
 fin ished
en ce
 bran ch
 com p
 d ry
le ph
 sh aring
c y
itt en
ve s
F rom
 In side
 b ike
 po l
 din ner
 drag on
 f ur
ard s
 dan ger
 r a
 re l
 e m
 b or
 re ally
 underst and
 v is
i pp
 sh in
 T o
an ce
 bl ack
Jo hn
 bott le
re n
 mon key
 fo x
H is
 mon ster
ed dy
 p ig
 A t
 sm art
 po in
 cont in
 rock s
 wor ried
 care fully
 g u
A my
 b owl
 some one
ct or
im i
 fair y
 at t
 to day
a st
 fill ed
 eat ing
 p udd
 s ide
 e l
 we lc
us h
se s
 b oun
 c ow
 g i
ve l
 br own
 sn ake
itt ing
e ad
 w he
 prom ised
 f an
 happ en
 p et
 s illy
Wh ile
 every thing
J ust
 y es
 re s
t s
 M aybe
 So on
 parent s
 s oup
 mus ic
 vis it
 let ter
 mu d
 el se
 f ree
at ed
 piece s
 child ren
 ro ad
 b ite
st ead
 contin ued
 sa ng
 sh op
 tal king
F in
 k ite
 perf ect
 e gg
 fly ing
z z
 smile s
 B illy
 real ized
 thr ow
 ma il
 e ar
 Sara h
 wor ds
or d
 E m
. ”
 amaz ing
 j ar
 laug hing
ck et
 wag ged
  que
 or ange
 mo ved
 se c
 s itting
 en ough
 clos ed
  Z
 pa ss
e y
 m other
 shin ing
 with out
 sm o
g ly
 b uck
 cra b
 st and
 danger ous
 ro pe
 sa il
f ort
 b ath
 bar ked
 sec ret
 str ange
 st u
 M imi
 dr ink
 tast y
un ch
 welc ome
ell a
f ish
 pa w
us ed
bo ard
i ver
 cry ing
 c e
 he al
 pa st
 wh ist
 l on
is es
 c andy
 li ving
  -
 hig her
 lon ely
M aybe
c hes
 C h
 own er
 p re
 sho es
 bel ie
 farm er
 sa ck
 mor ning
P lease
 to m
ar m
at o
ch ool
 J en
 delic ious
 sw ings
g y
 p urp
 s chool
ra ct
 sc ream
is k
ll ie
 te ac
 fin ally
 pus h
i ble
 gra ndma
 p h
 roll ed
 st one
! ”
 pudd le
Mom my
ld er
leph ant
 doll s
 st re
i ch
 B l
m e
 bl ank
 get ting
 ask s
 l ake
 purp le
am a
i re
ask et
ll a
 m ad
 she ll
 tr ou
 year s
 blank et
 ca ught
as ed
 c orn
 tre asure
s et
 m oney
 run s
 w ore
 b asket
u b
 hop ed
 p ile
on s
 sa me
isk ers
 Jo e
 sing ing
e o
 her self
a pp
 w ings
 p ers
 app les
ck s
 b en
 cut e
b r
 Tom my
 b at
 j e
 m ine
 pl ane
ig h
 gent le

  
 c ray
 car rot
 e lephant
 teac her
 co at
 ball s
 dro pped
 p ill
 se ar
 star t
 f it
 day s
 t eddy
 c our
ir th
irth day
 do ctor
Fin ally
 cour se
 wa r
in ed
 fore ver
 jo y
 wo ke
aught y
 hid ing
 n aughty
 c ard
 se ed
 br ing
 m in
 prom ise
 Wh iskers
il k
 ar ri
 mo st
 te ach
 b and
 c r
 cook ie
 sp in
ump y
 che e
 f ence
 sh ap
at or
o l
 Bl ue
 G ra
 bus h
 ro b
 l unch
 m ilk
 sh r
 think s
 b irthday
 e as
 u gly
 no se
ar p
 to uc
 Th ank
 ju ice
o se
 o b
 v ill
 b ow
 gre w
 bel ong
 p op
 an s
 ans w
 shap es
f used
 F red
 sh arp
i pped
it ch
 cre at
a il
a ss
 hear t
 you ng
 ben ch
ir t
s y
um ber
 B ella
 stre et
i er
 L eo
' ll
b ow
 see m
 b one
J ack
 ab le
 l ate
 m ark
 w ra
er ry
a le
b all
et er
s c
 belie ve
 rock et
 buck et
 z oom
 bre ad
 co in
 dir t
 magic al
 p ower
 po cket
 rob ot
 in c
 k iss
 sh y
 sp oon
 touc hed
 bus y
 sh ook
 slow ly
 k itten
 tw ins
 arri ved
 che ered
 pr ob
 feel s
 sh ake
 cra w
 le m
 car ry
 ne ck
 se at
 stor m
 tri p
 amaz ed
l ing
 f ew
 sp o
un g
 vill age
e ared
 be ll
O K
ig g
id ge
le m
 ta king
 co ll
 fix ed
 gr umpy
 pat ient
 stor ies
 n ut
 prob lem
oo se
 whe el
o st
urt le
 sound s
G ood
 d ist
 gr ay
 li ve
 wonder ful
ir p
 rain bow
un a
 tow ards
 wa ve
 hug e
 s ug
 dri ver
 ru de
 sp ark
 h or
 co ver
 song s
 whist le
fort able
or s
 M ark
 car t
 c ir
 Mom o
 w ide
e my
 sa l
 d es
 re c
L ila
ep end
 str ing
en s
u nt
 dis app
 s uc
 treat s
bb le
ell y
k in
 me et
 p ath
pp ing
 chee se
 hold ing
 up set
il ing
al m
 mo on
 t urtle
B e
op h
 w ild
 wor m
O f
  N
 hug s
 l ay
S ure
our n
 fight ing
 gra b
 d i
 gi ant
 li fe
 bug s
 j ourn
 pe ace
 pu ppy
 j ew
 smo oth
r ing
um b
 b an
 jo ke
 not e
ad ow
 Em ma
 J ust
 cl oth
 jew el
 no ises
 h oney
 m ist
 s our
 smell y
 in v
 l ucky
ount ain
 c ou
 land ed
 s er
iz zy
ul ar
  On
one st
 n et
pp er
 c ave
 r ad
 th in
S t
 A nn
 be ak
 h onest
 prin cess
a ur
 bo ss
 dri ve
 j elly
if e
n ot
 ban an
 che w
 par t
is a
 can not
 see k
er y
 M olly
 a ct
 miss ed
 b a
 m ed
 star s
 dog s
o ve
  ign
 s ick
 s uddenly
re ad
 dro ve
 o ven
s p
 b ri
l ower
 Fin ally
 spl as
 st ep
 te a
 she lf
 ex p
ig er
 snow man
 in stead
 was n
 D og
 f le
 fo ot
 tast e
He y
 duck s
 m aybe
 ac ross
 s el
L ater
er t
op e
 fan cy
 help ful
 sand w
ate ful
 adventure s
 b ought
e st
 or gan
 was h
 c ross
e re
i an
 R emy
 gl ow
 l ine
T o
 com es
 gr ateful
 for get
 sl id
 as h
 con fused
 ch ange
 heal thy
 pill ow
 pu zz
 sp e
id y
le t
 d ish
 p ract
 O llie
 z oo
 ste pped
 v al
o ppy
oom y
 la st
ere st
 c ap
 int erest
 l ad
 ch o
 e lder
 sel fish
 eas y
 elder ly
 who le
 wor king
it y
 any one
 hop e
 stick s
 watch ing
w ard
 c alm
 mess y
co l
 ch ased
 dad dy
 forg ive
 p ri
 sa ve
 take s
 te am
 a v
 my ster
 we ak
am ed
irp y
iz e
 wr ite
e ver
 lad der
 sh irt
t o
 t ape
 wo lf
o c
 S p
 cle ver
 leg s
 lem on
 spl ash
pec t
 fe ather
 hor se
 m ind
 ph one
 long er
 pers on
 plant s
 j og
 p our
 pr ot
 st ret
 t idy
id er
 em p
or k
 C at
 al ong
 b ark
 emp ty
 l ater
 p an
S oon
iz z
 B u
 bo ot
 face s
 seem ed
S ally
 co zy
 lo ck
 pretend ed
bb les
 li ft
 sleep y
 h um
ion s
 fin ish
 s u
 sa ved
 st ir
 wait ing
it ing
 m ach
 swim m
ll o
 re t
C ome
ill ar
p illar
 C ome
 boun ce
 ch ick
 che er
 sp icy
? ”
ain ed
u ally
  ent
 L isa
 go at
 r ing
 ret urn
 scream ed
 Ch irpy
 f ake
 p ool
ul t
 Dad dy
 jump ing
d en
 interest ing
 s uch
 su pp
 cloud s
 t ie
 wonder ed
 prin t
 D ucky
 fruit s
 mist ake
 p in
 dr ank
un k
 sp ray
o cked
 cat er
 cater pillar
 e ag
 pl ate
 th ough
 To gether
 boss y
 st ra
bo x
d ge
iss ors
 on to
 g ather
 Ben ny
 build ing
 d rew
 k ick
et h
 mach ine
 sc issors
 swimm ing
 T V
 W ith
 ri ch
le br
 E lla
 S t
 ce lebr
 give s
 hid den
 n orm
 n umber
 she ep
 norm al
on t
 br ush
 w ing
e k
oo f
 arm s
 clean ed
 cray ons
 expl or
 fur ry
 love ly
K itty
 fr ont
 gl ue
 trou ble
 M y
 c her
 f ing
 p ack
 pen c
 sp ider
ac ed
izz a
m ent
 Dog gy
 c age
 l ar
 mat ch
 penc il
 poin ted
 sug ar
 B unny
 The ir
 app eared
 m el
el p
 put s
ur se
 prin ce
 smell ed
 Gra ndma
 L una
 g ate
 gent ly
 pr ay
 s ur
n ed
oo p
os aur
 back y
 backy ard
 din osaur
 mat ter
 sear ch
 dr um
 f il
 fe ar
A nd
 cla ss
 sh ip
p a
 cir cle
 g un
 que en
 tow el
 G o
 cou ch
 sm iling
 v an
  icy
 im ag
 near by
 te ar
aught er
 ash amed
 yell ed
 power ful
 J erry
 S omet
 c ri
 fl ag
 lar ge
 place s
 que st
 wa nd
 la w
H elp
 Wh y
 a f
 l amp
 w om
le v
 M ama
 car ried
 d aughter
 m ir
 p izza
 wom an
ge st
ic ked
or row
 a p
 gl ass
 journ ey
 tr ust
 wra p
M y
 J im
 g as
 ne igh
 ru b
 tr ue
St op
y m
 b al
 neigh b
 tri es
on es
r or
v ous
 J ill
 em b
 ign or
 je ep
 un i
 uni que
 exp ens
 expens ive
 fr ight
 we aring
is p
 I f
 go es
 h ur
 tom orrow
 B e
 d izzy
 love s
itt er
 ant s
 d ig
 sa f
 we ird
c ed
 Bob by
 ch ase
 danc ing
 he llo
 mir ror
 the se
ra id
ug g
 af raid
 re g
 sp ring
 B r
 not hing
 sc ar
 T iny
 fright ened
 po or
ar ra
arra ss
 c and
 eag er
 emb arrass
 la zy
 n er
 te st
 un k
 wh isp
m er
nd pa
 prot ect
if f
 de st
 st ood
 tom ato
a w
 ner vous
 suc cess
n ess
n own
 br idge
 puzz le
 splas hed
bb y
 b ake
 cl ay
 p ay
 unk nown
 w ip
 w is
 creat ive
 dec or
 g en
 g igg
 go ld
 imp ress
 inc red
 fe et
in a
vent ually
 R ex
 incred ible
er a
 le ad
 sandw ich
 so ck
 so l
 t ent
 sw an
 te eth
 use ful
an y
 H ow
 M ary
 clo ck
 B ear
 B ird
 bor ing
 res pect
 ste ak
u al
ut e
 dis co
 so ap
 squ are
 stra w
ber ry
 clos et
 f ool
 mix ed
 pre s
l ves
 kn ocked
 m ask
 p ump
 peace ful
 pot ato
ow ed
 b urn
 fam ous
 myster ious
 sw ord
 wh ale
air s
c ream
 And y
 be an
 gen er
 h ar
Tom my
up id
  3
 answ er
 sh ark
 so ld
 y og
r ated
w e
 sc o
 P lease
 fe ed
 k icked
 pol ite
 r ug
 would n
ar l
b led
c ient
 an cient
 dis g
 j am
 me asure
 snack s
c om
er ri
 bl ow
 corn er
 rel ie
 e sc
 no isy
 sp ace
o nd
 bran ches
 scar f
 sp read
im p
ot e
re en
 D on
 cho col
 pain ted
 st upid
orm ous
 egg s
 mar ch
 r ough
 sho e
r ob
 paw s
 wag on
 cr own
 d ug
 de ad
 disg ust
 fr ust
 mom s
 stu dy
u ce
 Somet imes
 b arn
 fool ish
 t erri
rob e
 en ormous
 m is
 pres ent
 r are
 se ll
 ste al
D ad
en ny
 ba ld
 banan a
 chocol ate
 disgust ing
 med ic
 sal ad
 sc are
 underst ood
 ve get
 veget able
 cl ap
 gener ous
 her o
 medic ine
 st uff
ad o
c orn
ed ient
ig hed
 b itter
 dif f
 diff ic
 g oose
 gr oup
 In stead
 Sam my
 bre ath
 diffic ult
 frust rated
 mu sh
 perf orm
 ro ar
 th ick
p es
 P e
 cover ed
 mark et
 mel on
 sh adow
 small er
 t ick
 g uit
 guit ar
 ob edient
 or d
 tast ed
 wa ke
m b
or ry
p ort
ro y
 S ome
 dest roy
 h orn
 ha ng
 la b
al k
 as leep
 bor ed
 m ot
 m ountain
 re f
 to ug
as ses
in al
 stand ing
 ta ught
 wh ich
Tim my
a king
 Br own
 bec ome
 h arm
 relie ved
l and
us ual
 join ed
 s uit
 terri ble
 toug h
 explor ing
 j ung
 je al
 jeal ous
 mo ving
 mush room
 pe bble
 squ ash
at ter
 ad m
 jung le
 kn ife
 par rot
 your self
al s
f ted
ig inal
 as king
 cle ar
 disco ver
 pump kin
 t un
 un usual
He re
To gether
 d ull
 pri ze
 spo iled
 b ul
 chick en
 f at
 sun f
at ch
 might y
 nut s
 pop corn
 t iger
 bul b
 com b
 f ine
 hear s
 thought ful
 P oppy
 h ay
 s que
 seed s
 st ri
 too l
 tw ist
 v ase
id ent
m p
um e
  ind
 dr op
 fi er
 fier ce
 or iginal
ra g
 W ill
 c op
 draw ing
 end ing
 sn ee
 carrot s
 is land
 thank ful
 c ro
 che ap
 embarrass ed
 mu ff
 rel ax
 sp ent
In side
um sy
 a unt
 bl oom
 cl own
 en g
 fo ld
 know ing
 m ic
 trou bled
se lves
 T r
 bal ance
 find ing
 fr own
 rec ord
 sunf lower
 te mp
A re
com fortable
ot o
  '
 M any
 che st
 hat s
 lo se
 un comfortable
 A l
 S unny
 a dd
 advent ur
 c one
 exc iting
 gu ess
 o ce
 oce an
 sho ot
irst y
s er
 ac orn
 li fted
 st amp
il t
in ess
x ible
 Jen ny
 cl umsy
 sc atter
 se al
 tri ck
d le
op ard
y al
 adventur ous
 c ush
 hair y
 past a
 wr ote
S orry
ag es
ang le
 ar row
 bo dy
 cat s
 cra zy
 lo yal
 neck l
 neckl ace
 pick s
 un l
W here
 b er
 ber ries
 bra ce
 co st
 com fortable
 d epend
 ex am
 harm less
 ho se
 stu bb
 tell s
t i
 beh ave
 del iver
 sear ched
a pped
am ond
i ant
ur key
x ious
 an xious
 di amond
 eng ine
 organ ized
ag he
aghe t
aghet ti
 coll ect
 cray on
 f is
 mo v
 rem ind
 stubb orn
M olly
epend ent
g u
 Em ily
 play ful
 pract iced
 sc r
 stret ch
 sw e
 t urkey
 th irsty
l ight
 bu bbles
 en v
 en vel
 f rag
 gl oomy
 j ug
 mail box
 p ir
 t ied
 wor d
an ged
h ost
 bar ber
 bath room
 craw l
 fle xible
 ind ependent
 pol ice
 pr un
 r aced
 re p
 sp aghetti
 your s
ant s
co d
cod ile
ill a
l ph
 E ven
 cra ck
 de er
 esc ape
 pr o
 s il
H ow
  U
 frag ile
 g host
 li z
 mot or
 pass ed
 pig e
 celebr ate
 de af
 depend able
 jo lly
 need s
a ff
 Wh ile
 be es
 che ss
 do lph
 do ve
 f ig
 r at
 r oof
 sto ve
 whe at
i o
sh ine
 att ic
 bri ll
 cro codile
 fl ash
 le opard
 ra ven
 st at
c ident
 boy s
 brill iant
 ch anged
 expl ained
 lo g
 m ap
 p ress
 pain ting
 show s
 sun g
 y arn
n ic
 col our
 hum ble
 pic nic
 th u
 we al
I f
The ir
g round
  er
 bo ard
 craw led
 m ill
 sh iver
 tri cks
 z ip
 ch oose
 envel ope
 ignor ant
 temp le
 us ing
h ip
n el
 av oc
 balloon s
 cheer ful
 fr ame
 friends hip
 h oop
 ru ined
 s end
 sung l
 sungl asses
M ama
M e
i v
w eet
 ac cident
 bat ter
 bott om
 bu ilt
 count ed
 fo lder
 kn ee
 pe pper
 pop ular
 ra ft
in ary
m et
n et
 comp et
 delic ate
 hel met
 p ants
 ro se
 spot ted
 st ones
 wa ves
id dle
m ost
 env ious
 j ack
 kiss ed
 sc reen
 sp ill
 sun shine
 to ast
 tri angle
E very
ig ator
ul u
w ork
 You r
 care less
 clean ing
 liz ard
 loud er
 m iddle
 mis er
 miser able
 s ighed
 st age
 tr ump
 trump et
f fe
ffe e
  No
 al most
 fing er
 har sh
 impress ive
 p ow
 pige on
 sc ale
 ser ious
 stat ue
 tun nel
 vegetable s
 wa nder
J ane
it her
y ing
 S h
 all igator
 bel t
 bor row
 brace let
 ho pping
 ma ze
 sa iled
ia ble
se um
 ear th
 fig ure
 gu ard
 me ant
 mu seum
 nap kin
 no sy
 sl ipped
 att ract
 b in
 com pl
 pen ny
 po st
 sa us
 ta ken
 was hed
The re
 c oo
 c ries
 co ffee
 g ar
 happ iness
 hurt s
 jack et
 jelly fish
 mov ie
 neighb or
 r h
 rel iable
M um
 attract ive
 fil thy
 g or
 kn ight
 ord inary
ber ries
ct op
 c am
 cush ion
 g em
 on es
 rad io
 sh ore
 weal thy
as er
 belong ed
 box es
 c ab
 for ward
 mag net
 muff in
 pe ach
 walk s
ipp er
ob ile
om obile
ut omobile
 cam era
 gor illa
 lo cked
 no d
 pour ed
 sh ade
 shell s
 t ag
l ive
 a utomobile
 answ ered
 boat s
 cab in
 dolph in
 fl uffy
 lo ll
 loll ip
 lollip op
 pers ist
 reg ular
 whisp ered
p ack
z zy
 des k
 draw er
 gi ving
 no ds
 t imes
a ppy
ex t
on y
 M iss
 compet it
 cre ate
 f our
 lo ad
 mu le
 sail or
 smo ke
d om
 ch u
 g um
 ju dge
 lot ion
 o ctop
 say ing
 tra vel
c les
co a
om es
ut h
 J ake
 To day
 an g
 chu bby
 cup board
 del ight
 shr imp
 sn iff
 strong er
 tw ig
 w itch
et e
ink y
 bu bble
 gar age
 house s
 inv ited
 li br
 return ed
 success ful
 w ool
G o
g ing
ic t
u nd
 help less
 le an
 live ly
 mo le
 need le
 nice ly
 show ing
 supp ort
ess ie
ur b
 al ert
 d ough
 fear ful
 gr own
 help s
 mo der
 persist ent
 u mb
 umb re
 y et
Wh o
 cl ub
 dist urb
 dream s
 fr idge
 get s
 rad ish
 sco ot
 sh ine
 sol ve
 sque e
 th ie
 tr unk
an ut
 L ulu
 bed room
 coo ked
 dec ide
 l ow
 li cked
 moder n
 octop us
 sleep ing
 val ue
an ger
 boun ced
 car p
 ce re
 creat ure
 loud ly
 re pe
  ot
 S n
 ac ce
 b ase
 c ity
 d ive
 h ive
 ot ter
 qu ar
 s le
 sor t
 spe ak
 spe ed
 t ank
 t ire
 un cle
 way s
 wis hes
 cand le
 er aser
 g ym
 h ipp
 hard er
 learn ing
 spl it
 thu nder
 tr uth
 umbre lla
az z
en se
 ad or
 l it
 rep air
 sp end
 st ation
Sara h
 cere al
 ch alk
 cher ries
 f ather
 gu il
 guil ty
 m ild
 m op
 or der
c ut
ri c
x y
 big gest
 co coa
 flash light
 j et
 jewel ry
 poin ting
 quar rel
 thie f
 v ine
 we ek
 wheel s
B illy
ir on
o in
ul if
y e
  ed
 R ob
 Tr ue
 ador able
 ca ct
 ca ulif
 f ountain
 gra ce
 h omes
 imp at
 impat ient
 kn ot
 s ink
 so ar
ter n
 cact us
 carp et
 happen ing
 libr ary
 pow der
 te as
g en
 c ase
 for th
 her b
 off ice
 pen gu
 sk ipped
 st ream
 swe ater
 Do lly
 fis her
 fl ute
 for k
 gra ndpa
 ha lf
 l ying
 sh ield
 st aff
Bob o
arm ing
ir it
ke ep
t en
 ch arming
 gra pes
 hand le
 hipp o
 when ever
is ted
j ect
ob y
or y
r n
ra ge
 ang el
 caulif lower
 count ing
 feather s
 sk in
 tri pped
 val u
ass ion
es day
 P eter
 avoc ado
 des ign
 e lev
 elev ator
 h unt
 know s
 l ed
 mar ry
 sle pt
 straw berry
 t ap
 them selves
 thin king
 tick et
ach t
p ed
z ed
 competit ive
 compl ain
 dish w
 dishw as
 dishwas her
 e ventually
 gif ted
 sp un
 te leph
 teleph one
 wra pped
 y acht
ed y
  iron
 exc ite
 int ell
 intell ig
 shr ink
 sk ip
 comp assion
 disapp oin
 fle a
 gather ed
 hair cut
 ph oto
 qu it
 sa uce
 tow ers
 tr ay
M ummy
 R ose
 T weet
 an ch
 d eter
 decor ate
 gigg led
 n urse
 pir ate
 po em
 po le
 w ire
at es
ri ll
 a er
 aer op
 aerop l
 am b
 amb ul
 ambul ance
 anch or
 cri cket
 ear s
 ha m
 quest ion
 rest less
 sh ape
 to e
 to rn
 valu able
 wa ff
J im
el ery
 bar rel
 button s
 deter m
 hot el
 n umb
 slid es
 v ide
 y aw
F luffy
 ed ge
 set t
 str anger
G ive
ac he
ag ed
at s
is ion
 b ull
 c elery
 me al
 numb ers
 pat tern
 s ight
 sh ut
 tear s
 tra il
 unl ock
 w ife
 z ipper
at ing
bo dy
 B oun
 Jim my
 bus hes
 compassion ate
 disappoin ted
 fisher man
 intellig ent
 laugh s
 mean s
 p it
 ri bb
 sal t
 spin ning
 tra p
 we igh
o ld
 banan as
 card board
 comp ut
 mo d
 mod el
 p le
?" .
 K im
 P ete
 T oby
 e ither
 ho sp
 hosp it
 hospit al
 in k
 ju icy
 m ug
 new sp
 pe ar
 sold ier
 sur f
 v ie
 vie w
 wall s
he ad
keep er
 a dded
 bird c
 c urt
 m itten
 o il
 r id
 sh ort
de st
it o
oph ie
qu ito
 Pe ople
 birdc age
 curt ain
 dist ant
 n ail
 p al
 p ap
 pe e
 pre p
 saf ely
 sil ver
 sp ear
 suc ce
' d
M r
ent ion
n am
 cri b
 en c
 mo s
 mos quito
 spill ed
!" .
us hed
 Bu zz
 b ump
 bike s
 c ob
 co ins
 cost ume
 dream ed
 lab el
 light s
 p urse
 pa le
 pain ter
 play ground
 quest ions
 ro de
 t ask
 t ummy
 wip ed
 yog urt
a ving
f a
r on
up er
ur ing
ut es
 O K
 aeropl ane
 gl ove
 grace ful
 min utes
 motor cy
 pretend ing
 rub ber
 sho cked
 sp irit
 succe ed
p ar
 L ittle
 ch ain
 co al
 coll ar
 comput er
 d ust
 fall s
 hel ic
 helic op
 helicop ter
 it self
 p or
 pal ace
 pro v
 saus age
 st ack
, ”
a it
at ely
in oc
inoc er
ur ch
 cry st
 cryst al
 kind ness
 kn ob
 or nam
 ornam ent
 p un
 scoot er
iger ator
inocer os
r igerator
u el
 T eddy
 a x
 fa uc
 fauc et
 g ear
 go lf
 l ime
 m elt
 o ak
 pa cked
 par ade
 ro d
 step s
 Every where
 base ball
 ey e
 h our
 le ash
 li e
 mo dest
 newsp aper
 ref rigerator
 th ose
 ve nd
umb led
 B ill
 av ail
 brother s
 c able
 comp let
 disapp eared
 dri ving
 f og
 fi rew
 firew ork
 hat e
 li c
 make up
 mat t
 pick ing
 rh inoceros
 s uper
 se par
I s
c ing
il ot
lev ision
ug ged
 G ive
 Sp ike
 in se
 lic ense
 no vel
 of ten
 on ion
 p ine
 res c
 ser ve
 so fa
 swing ing
 te levision
 vide o
amp oo
st ri
 Bird y
 C l
 avail able
 ax e
 ch urch
 cup s
 determ ined
 h ook
 ha ll
 m ath
 man aged
 med al
 pol ish
 ru bbed
 sp ell
W ell
a ked
r oph
t ime
 B et
 F o
 M um
 al arm
 bag s
 cob we
 cobwe b
 cool er
 disapp ear
 draw ings
 me adow
 miss ile
 por ch
 sc rew
 spark ly
 tall er
roph one
  ig
 band age
 basket ball
 bat ht
 batht ub
 books he
 climb ing
 di ary
 gr owl
 ho c
 hoc key
 met al
 pengu in
 star ed
 vend or
 war d
 ward robe
ar ry
st airs
 John ny
 al re
 alre ady
 batter y
 bookshe lf
 cher ry
 ent h
 enth us
 enthus ia
 gas ped
 hur ry
 ig l
 igl oo
 m ay
 me at
 min er
 o stri
 ri ce
 roll ing
 th read
 ve il
B ye
er c
 P ipp
 Sn ow
 c omet
 expl ain
 gra pe
 hunt er
 inse ct
 it ch
 kn ock
 mag az
 organ ize
 pap ers
 r ise
 ro ot
 stret ched
 stu d
 sw ung
R e
W ait
om ed
 b icy
 l umber
 m ummy
 matt ress
 mic rophone
 motorcy cle
 not ice
 o k
 ob ject
A l
S ee
af fe
ist ol
ver se
 ar g
 cook ing
 d ess
 dream ing
 enc ou
 ex erc
 fl ame
 imp ro
 must ache
 p ilot
 p istol
 re ward
 real ised
 sn ap
n ger
ric ane
 Z oomy
 black board
 f ought
 fl our
 joke s
 she et
 sug gest
 tr oph
 un pack
 vo lc
 volc an
 wall et
 win ter
G ra
a ul
omet er
 L ee
 bicy cle
 bl in
 buck le
 fall ing
 net work
 past ry
 pe anut
ac hes
ian o
ip e
l ter
rm ometer
 b ent
 c amp
 call ing
 r ake
 sh ampoo
 sun set
 troph y
 truck s
 v i
 volcan o
O uch
a id
 P andy
 att ach
 bee f
 dra in
 ne at
 ostri ch
 p iano
 pract ice
 press ed
 st om
 we ep
ak y
as ing
 ap ron
 bu ry
 ham mer
 hang ing
 hour s
 hum an
 me m
 pack age
 po ke
 she lter
 st able
 sweet ie
 teas p
 teasp oon
 train s
ang u
l ies
ur ed
  ow
 again st
 bl ouse
 cr ane
 discover ed
 enjoy ing
 h ut
 in s
 k ang
 kang ar
 kangar oo
 mar ched
 mess age
 off ered
 pat ch
 r ag
 s ym
 sn e
 squirrel s
 tra ck
bo l
um mer
 dis pl
 displ ay
 ear ly
 fa ctor
 factor y
 l angu
 l end
 magaz ine
 pass port
 prun es
 sk irt
 sk ull
 sym bol
 t u
 tu be
 u r
ig z
igz ag
 F ro
 excite ment
 f uel
 fing ers
 frog s
 hold s
 n ation
 pee ked
 pre vent
 sho vel
 st airs
at ure
 B essie
 L ook
 Z ip
 accident ally
 bat he
 c ell
 cast les
 che ck
 dess ert
 enthusia st
 enthusiast ic
 journ al
 li p
 on ce
 per m
 r ot
 s on
 t en
 un iver
L ittle
 D an
 cu be
 foot ball
 free z
 happ ier
 j unk
 kn e
 o y
 open s
 po pped
 s ke
 the ater
 yog a
le ton
 Bu zzy
 He re
 all owed
 bath robe
 c ord
 f ive
 grow ing
 he dge
 loo p
 mat ches
 p ipe
 read ing
 sh aking
 ske leton
 tell ing
 the rmometer
 zoom ed
ff ic
i ence
i um
  
 dis ag
 dist ance
 fast est
 rest ore
 sl ipp
az or
c ome
in ation
xy gen
 ha nger
 listen ing
 pin ch
 st umbled
ict ion
iction ary
in es
n ey
 a head
 adm ire
 d ictionary
 fil m
 go al
 pe ek
 plan et
 ribb on
 stir red
 super her
 superher o
 vi ol
c ase
 M ummy
 T ina
 al ive
 bri ck
 ch ose
 complet e
 g az
 help er
 re verse
 stick ers
 surpr ises
 to ile
 tra sh
 viol in
S h
f ast
 ch asing
 jump s
 p ony
 po ppy
 s ub
 stop s
 str ugg
ar ian
ast ic
 E llie
 acce pt
 b ill
 blin ked
 break fast
 c udd
 cir cles
 does n
 freez er
 la und
 laund ry
 miner al
 ra il
 respect ful
J ill
ap on
c u
ie st
pl ace
 be et
 exerc ise
 fe st
 fest iv
 festiv al
 g rill
 ho l
 hur ricane
 la ser
 le aving
 play er
 re fused
 s ummer
 stri p
 sw itch
 to oth
 toile t
 ve st
ch an
id ay
re nder
 Mr s
 cabin et
 door s
 fire place
 hol iday
 langu age
 le ak
 lion s
 st ad
 stad ium
 waff le
 E lly
 Z oom
 air port
 b erry
 m en
 me owed
 min t
 monkey s
 ple ased
 ru les
 search ing
 snee ze
 sniff ed
 spo ke
 tw ir
D id
ht ray
 Bet ty
 com fort
 fav our
 forg ave
 law n
 lem ons
 o ats
 r azor
 ro ared
 sandw ic
 sandwic hes
 sl ap
 t ip
 tight ly
 tra ffic
E m
O w
m ed
w ards
 M ar
 O r
 ag ree
 any way
 as htray
 boot s
 c ur
 car ing
 ch im
 chim ney
 favour ite
 find s
 me chan
 mechan ic
 meet ing
 n ature
 ob ser
 pa ir
 pl astic
 s ent
 separ ate
 sl ip
 stick er
 stom ach
 window s
ig gly
in ce
k i
 J azz
 bark ing
 beet le
 blue berry
 bre at
 cow s
 en er
 grab s
 light ning
 mix er
 res ist
 tomato es
 un ite
em ent
re s
  Y
 A re
 belong s
 c ards
 class room
 gir affe
 ho les
 imag ine
 letter s
 min ute
 po ked
 poin t
 sp ort
 sub way
 ve h
 veh ic
y ear
 B ig
 Boun ce
 Pipp in
 S ophie
 bill board
 fl ood
 inv ite
 k ay
 kay ak
 laug ht
 laught er
 mistake s
 note b
 noteb ook
 oy ster
 rem ove
am ber
l a
n ight
 Al ice
 cart oon
 count ry
 hand ed
 impro ve
 lean ed
 music ian
 nam es
 o xygen
 pudd les
 r ac
 rem ain
 y ield
ap a
t e
 S andy
 book case
 ch amber
 cou rage
 glow ing
 problem s
 proud ly
 s ize
 s udden
 sand c
 sandc ast
 spo il
 swam p
 war n
 war ned
 wh ip
Jim my
ch air
 R u
 ab ove
 be ep
 danc er
 law y
 pull s
 pus hes
 sad ly
 straw berries
 w ine
 wip e
e b
eter in
eterin arian
ig i
le nd
ol a
v ice
 C o
 app l
 butterf lies
 ce iling
 cl iff
 co pper
 f re
 frown ed
 n avy
 p ages
 pan ic
 resc ue
 sand box
 slipp ery
 so il
 sur render
 tr ade
Jo e
is on
  x
 O w
 P olly
 ar t
 arm chair
 carry ing
 feel ings
 for t
 inc re
 kind s
 kne el
 p age
 plan es
 re ce
 te ase
 v eterinarian
c col
ccol i
em ember
ro d
us ie
 belie ved
 bright ly
 del ay
 ener gy
 ign ore
 int rod
 prov ide
 repe at
 st air
 we apon
au d
eb ra
ec ause
g ie
 P aul
 ca lend
 calend ar
 he at
 l id
 mail man
 p ed
 pray ed
 reg ret
 shake s
 some where
 tool s
 was te
and a
c er
ed n
edn esday
l u
ro sc
rosc ope
 Go d
 W here
 a w
 ad vice
 ap ol
 apol og
 keep ing
 li ves
 me as
 no body
 old er
 remind ed
 sa ving
 sandcast le
 sound ed
 z ebra
im ed
l ow
 any where
 can e
 cho ice
 ex t
 fl ies
 free ze
 inv it
 lawy er
 myster y
 pri ce
 ra ise
 vehic le
You r
el come
o e
 Gra ndpa
 S u
 break s
 chair s
 colour ful
 cross ed
 de ar
 happen s
 imag ined
 inc lu
 let ting
 r ushed
 room s
 sh one
 shout s
 soft ly
 star ts
 suggest ed
 t ax
ation s
e er
he st
 G igi
 N ext
 P apa
 W iggly
 appl aud
 chick ens
 eat en
 excited ly
 p itch
 rec og
 recog n
 repl ace
 rest aur
 restaur ant
 smell s
 squee ze
 tax i
ag gie
all ey
le x
ore s
 C arl
 blow ing
 bro ccoli
 cont ent
 f ile
 g ain
 o live
 rain ed
 ran ch
 re ind
 reind eer
 ste am
 t ub
 tre m
 v alley
M ark
M ary
N ext
app ing
e or
eor ge
  V
 St e
 W ednesday
 W ould
 dis hes
 e qu
 end ed
 ext ra
 mic roscope
arl ie
 bark s
 blue berries
 boun cing
 chew ed
 d are
 delight ed
 e vent
 fre sh
 hun g
 ma ss
 prep are
 re ve
 snee zed
 sp ade
 torn ado
Y ay
Y uck
ec ted
er o
n a
ut or
 F l
 arg ue
 ch ance
 g ro
 head s
 hop ing
 my self
 po ison
 rid ing
 sco ld
 sett le
 t utor
D aisy
W ill
gg y
t ain
v et
 B inky
 Fred dy
 op era
 qu iz
 shr ugged
 v ac
Re ady
ill ie
 E nd
 Sp ark
 ba king
 be nd
 burn ed
 ch ores
 dis cu
 discu ss
 ent er
 equ ip
 equip ment
 even ing
 flo at
 gigg le
 miss ing
 prin ts
 s uff
 se as
 shiver ing
 sk ill
 vac ation
 we ather
Q u
as is
 after n
 aftern oon
 fix ing
 m ention
 o asis
 prun e
 pus hing
 reve al
 st y
 str uc
 struc ture
 thank s
ac ked
 L illy
 U nder
 bump ed
 d em
 gra nd
 hill s
 perf ume
 pl aced
 puzz les
 so cks
 spot s
 throw ing
 throw s
 trust ed
 wr iting
 yaw ned
he art
in king
k y
 M ike
 bean s
 bel ow
 cap tain
 coat s
 ins isted
 l uck
 m all
 par ts
 tra cks
A nn
an a
ott en
s ity
 M e
 bright er
 car ed
 cla w
 follow ing
 past el
 prin ted
 s igh
 se w
 should er
 show er
 stick y
 sweet heart
 un h
" ,
B uddy
C h
e f
que aky
 B ow
 U n
 Wh o
 ex pect
 gre edy
 impress ed
 p anda
 pun ish
 rec om
 recom m
 recomm end
 teach ing
 unh appy
A ll
N ot
pe edy
v a
 H ave
 H oppy
 R o
 be g
 cand les
 deep er
 exp er
 un if
 unif orm
l ook
ugg age
 C he
 E ventually
 P enny
 cla pping
 cu b
 eas ily
 he n
 l uggage
 sc ore
 spark led
 splas hing
 spray ed
 to ur
 we ight
 y ucky
Be fore
Dad dy
J enny
en ry
l p
n ce
 He lp
 che cked
 destroy ed
 follow s
 ignor ed
 le ar
 lear nt
 lemon ade
 rac ing
 s ir
 ste el
 whisp er
S urpr
itten s
look ing
 O live
 S usie
 When ever
 bu ried
 ch irp
 chee k
 f urn
 fr o
 furn it
 furnit ure
 perm it
 scatter ed
 se co
 seco nd
 sell ing
 sp r
 trem ble
 up stairs
 van ished
 w igg
 worm s
M imi
ang es
ar i
ec ting
h ood
ri age
uc ked
 I s
 Snow y
 bad ly
 bet we
 betwe en
 c ree
 cree k
 dem and
 ent ered
 j ail
 jog ged
 re ef
 sor ting
 stre ng
 v room
 whist led
W elcome
ent s
i ki
uc t
  

  ing
 Fro ggy
 bri cks
 claw s
 count er
 exc la
 excla imed
 hop es
 ing red
 ingred ient
 l ec
 lec ture
 mar ble
 mass age
 pa id
 poin ts
 qu ite
 r ush
 sty le
 supp ly
 th umb
 w re
id es
 P r
 S queaky
 b other
 breat he
 climb s
 cut ting
 gr ant
 hurt ing
 neighb our
 p ort
 pet als
 r ow
 scr atch
 seat s
 streng th
Surpr ise
iz es
 M ittens
 S m
 S peedy
 all ow
 bear s
 cake s
 invit ation
 mar riage
 men u
 put ting
 rain ing
 shop keeper
 t ug
  
Al ice
The se
g es
 A lex
 Gra ce
 L ola
 adm ired
 ag re
 explor ed
 f urt
 forg otten
 he el
 ingredient s
 pig s
 prin ter
 sn ail
 star ting
 wa ving
 wag s
 work s
res ses
 Fin n
 ap art
 bal an
 d aisy
 differe nce
 drop s
 eager ly
 fall en
 furt her
 h on
 introd uce
 jog ging
 obser ve
 pl ates
 sail ing
 sc oop
 shin ed
 so c
 was hing
 wre ck
B ecause
Gra ndma
eci ally
r ight
 M aggie
 Sh aring
 ac ted
 bl ood
 d uring
 flo ated
 p up
 soc cer
 stri ke
 t una
at ched
sp ecially
th ank
 N ana
 R emember
 T illy
 beaut y
 bu zz
 e specially
 fl apped
 fold ed
 hig hest
 hor ses
 incre ase
 move s
 plan ted
 play s
 r ul
 stud ied
 to ng
 wander ed
 war ning
 wor th
 yaw n
er ation
ic er
re at
 Every thing
 K iki
 L izzy
 Ow l
 T u
 Tu esday
 con f
 exam ine
 fam il
 gi ven
 king dom
 o h
 present s
 re aches
 shout ing
 ur ge
 water ed
. .
B ella
B l
qu ake
que st
ree ze
 Ch arlie
 Co co
 S ee
 b ak
 br ings
 dress ed
 earth quake
 elephant s
 gift s
 har b
 harb or
 land s
 quiet ly
 scold ed
 sl apped
 sn apped
 so ak
 sol ved
 sor ts
 tw isted
 univer sity
E lla
F red
i ately
m en
med iately
ra ged
un ately
 D ave
 M illy
 cra sh
 cur led
 exper ience
 had n
 hear ts
 in st
 p ur
 re quest
 sit s
 sn ugg
 tong ue
 z ero
 z igzag
L eo
omed ay
 Bu bbles
 K ate
 L e
 com f
 im age
 k is
 kis ses
 m ister
 mem ory
 op eration
 or anges
 plan ned
 slid ing
 tra ve
 we st
 wis dom
Em ma
Every one
e ster
ester day
p ted
s ed
 Fin ny
 G ood
 Ru by
 att ached
 boun cy
 field s
 li cks
 pa used
 pret t
 rul er
 s izes
 s omeday
 skill s
 squee zed
 stuff ed
 t ide
 wor se
d o
e ath
ipp ing
r ise
 A bby
 acce pted
 app ear
 c ape
 catch ing
 colour s
 encou rage
 ide as
 imag ination
 m ama
 man age
 pull ing
 re lease
 s ince
 sh ot
 sor ted
 suff er
' ve
W oof
ad ed
at ie
m m
or ies
 B op
 R ock
 T oto
 att ention
 b ones
 blanket s
 d ried
 im mediately
 m ice
 meas ured
 new s
 pe aches
 pe arl
 to night
 twir led
 welc omed
 zoo keeper
H a
To day
 B ee
 Be fore
 G eorge
 M illie
 P ip
 R os
 S ky
 call s
 celebr ated
 close ly
 growl ed
 le ather
 mel ted
 peanut s
 rabbit s
 seas on
 sett led
 sp ike
 sun rise
 t ucked
 wag ging
 whist ling
W ith
ct ion
h ouse
i ppy
ind y
st ers
y th
 H o
 M o
 Z ara
 b le
 d resses
 disag reed
 down stairs
 fire man
 gl o
 gro c
 groc ery
 mar ried
 our s
 qu ack
 rece ive
 recogn ize
 rem ained
 s i
 steal ing
 tast es
 win ning
R emy
et ch
ip s
up s
 Cl ara
 H ope
 P at
 S und
 Ste ve
 Sund ay
 W ally
 b ang
 cra s
 eas ier
 em er
 glo ves
 in f
 lip s
 mem ories
 p alm
 pun ished
 saf ari
 she d
 side w
 sidew alk
 snugg led
 so aked
 stir ring
 str o
 sur round
 to es
 to re
 tre mb
 understand ing
 wood en
 z ipped
Bl ue
fort unately
is ing
or ed
r ank
 Dan ny
 Fo x
 R ed
 ba ked
 back pack
 bre aking
 collect ion
 creature s
 encou raged
 hit s
 is n
 potato es
 ran g
 see ing
 snow ball
 stra ight
 univer se
B ird
d ing
dd y
ic ing
ick y
yth m
 A va
 H enry
 J ess
 R ay
 Sm ith
 Su zy
 acorn s
 fl ap
 flo ating
 gaz ed
 gr in
 l ung
 off er
 ped al
 pir ates
 ra ised
 ring ing
 tremb ling
O k
P eter
i en
op s
r r
 B aby
 E ach
 al right
 b ab
 bab ies
 bit es
 br us
 craw ling
 fire f
 firework s
 fl at
 her s
 inclu de
 kick ing
 kit es
 land sc
 mus cles
 p ad
 pe bbles
 relax ed
 sho pping
 should n
 sp it
 unl ocked
 w ob
 wait s
L isa
ap ed
b les
ch ie
e ep
is dom
s ing
 Fo llow
 M andy
 Rob by
 Z igzag
 app ro
 ble ed
 bra in
 d ared
 famil ies
 s imp
 un ic
 unic orn
 wat ches
 we b
W ould
igg ing
or ted
 J ames
 Ros ie
 S un
 b reeze
 bed s
 ch all
 chall en
 chew ing
 d igging
 dr inking
 ex it
 girl s
 inst r
 k itty
 keep s
 kneel ed
 mat ched
 mouth s
 op in
 pet ted
 rest ing
 saf et
 safet y
 shadow s
 sne ak
 tall est
 vis ited
Mom o
id s
k ins
t her
 K ing
 M el
 Mar ia
 S low
 The se
 amaz ement
 cartoon s
 disag ree
 l ined
 la id
 mu ddy
 n one
 ord ered
 pile s
 play time
 ser ved
 sil ence
 st itch
 study ing
 under ground
 v et
 ve l
 vel vet
 we ighed
 weep ing
ell e
is hing
ish y
l er
re c
s it
u zz
um es
 L ucky
 N ot
 Somet hing
 app rec
 apprec i
 by e
 cost umes
 cr unch
 g ust
 landsc ape
 li ck
 mix ing
 n apping
 now here
 repe ated
 road s
 root s
 set ting
 sign s
 spoon s
 treasure s
 tw ink
 van ish
 win ner
 wr it
! '
!" ,
T r
av id
or al
  Qu
 B ree
 Boun cy
 L ater
 T ony
 W isdom
 decor ated
 decor ations
 emer gen
 happ iest
 import ance
 j azz
 perfect ly
 pet s
 pin ched
 rh ythm
 s ip
 s ix
 saus ages
 sister s
 str ang
 ur ged
 voice s
. '
Bob by
John ny
Thank s
Y um
a ved
c oon
iz ing
o ved
r s
 H arry
 O ut
 Pe anut
 T ed
 agre ement
 cle aring
 d ire
 draw s
 fa sh
 fash ion
 guess ed
 inf ant
 knight s
 l ily
 let s
 mention ed
 p ra
 pattern s
 prep ared
 res ult
 w ink
 wa ist
S p
oy s
um ble
 B oth
 F rank
 L iz
 adm ir
 be ard
 crunch y
 eag le
 esc aped
 hur ried
 kn own
 mark s
 moment s
 no on
 our selves
 ph ot
 poem s
 scr u
 spr ink
 strang ers
 th rill
 turn ing
 waff les
D og
H appy
Sam my
en a
he llo
i ers
ir ts
ist en
om ing
pl ash
ss ible
 C ar
 Pr in
 W atch
 apolog ized
 beh aved
 bow ed
 br id
 brave ly
 cras hed
 cudd led
 disturb ed
 ex pected
 f etch
 forg i
 fro z
 froz en
 go als
 gr an
 grin ned
 l imes
 log s
 pe el
 pillow s
 ri pped
 ru in
 sold iers
 spend ing
Em ily
J en
M oral
S ophie
ant ly
it ies
p lease
sh ip
 C udd
 Cudd les
 D id
 Jo ey
 ben eath
 coll ecting
 dad s
 emergen cy
 fis hing
 g ained
 gu y
 his t
 hist ory
 kn elt
 l ines
 match ing
 phot os
 strugg le
C at
ac ob
d ed
i ved
is hes
ve st
 H op
 It s
 Jo sh
 Rock y
 answ ers
 be at
 beg ged
 brid ges
 build ings
 burn ing
 challen ge
 coll ected
 dragon s
 drink s
 he sit
 it em
 me ow
 p ies
 res p
 rest ed
 sk ipping
 sl ice
 so ared
 so re
 te x
 tex ture
 tra pped
 warm th
 wonder ing
Good bye
W atch
ar th
ch oo
ct ly
om as
u d
 B o
 B ug
 H appy
 So f
 ag o
 appro ached
 crab s
 kind ly
 li ed
 opin ion
 pra ised
 sc aring
 scr atched
 scream s
 simp le
 stamp s
 th reat
 wigg le
And y
D ucky
a les
 K atie
 St itch
 St op
 Z oe
 bl ink
 bo om
 br ushed
 comf y
 e ast
 gather ing
 gold en
 lady b
 ladyb ug
 neighbor hood
 olive s
 scru bbed
 spark ling
 teas ing
 their s
 twig s
 wonder s
M iss
ake s
em b
h ind
ic a
it i
u ry
ut ter
 Be ing
 Cat ty
 D are
 L ou
 an n
 be amed
 bro om
 cop y
 e ff
 f ed
 gaz e
 gran ted
 herb s
 in vest
 invest ig
 jo king
 muff ins
 night m
 nightm are
 rem emb
 rememb ers
 ro pes
 should ers
 sl im
 st ing
 str ings
 t im
 teac hes
Ben ny
E ventually
Re ally
bb ing
in o
l ier
z ing
 Al ways
 F riend
 H enny
 I zzy
 M ay
 Miss ile
 P inky
 Some one
 Spark y
 a we
 act iv
 air pl
 al ien
 arg ued
 avoc ad
 avocad os
 brus hes
 cre ated
 cub es
 d ot
 dog gy
 eat s
 glow ed
 gre y
 hard ly
 head ed
 his sed
 investig ate
 loo se
 march ing
 part ies
 ped als
 pencil s
 rece ived
 record ed
 ref u
 ro aring
 sh ock
 slim y
 sne aked
 spark le
 swim s
 thrill ed
 trip s
 tw in
 writ es
 zoom ing
M mm
P oppy
S andy
an ny
og o
os ed
ue st
ur ry
w h
 Ann ie
 C indy
 Do do
 F irst
 S plash
 S qu
 T iti
 T w
 are a
 balan cing
 c row
 cheer ing
 chirp ed
 dec ides
 dest ination
 eff ort
 f ara
 fara way
 g uest
 heal ed
 in ch
 jewel s
 keep er
 lead er
 lo ving
 ma ster
 mar bles
 melt ing
 mountain s
 n icer
 pot s
 rad ishes
 rem ote
 rem oved
 scream ing
 ste ep
 stick ing
 stretch ing
 stud ents
 supp osed
 sweet ies
 t ugged
 trave led
 w ed
 wear s
 you th
  
U n
a h
all ow
el vet
i am
m other
pp ers
u ke
u x
ul ie
ux ury
  Yes
 C ra
 M on
 M oon
 S ad
 bucket s
 c ough
 clap s
 deliver ed
 des er
 h itting
 ha ted
 mon sters
 own ed
 pol ished
 pr op
 pray ing
 real ize
 reveal ed
 sit u
 sl ed
 snake s
 stri pes
 tri cked
 yell ing
C l
J ames
O llie
Sh h
T ime
Tr ue
he e
iss ion
l oe
os ity
” .
  1
  Once
 A n
 B oo
 Ch icky
 J acob
 T una
 V elvet
 bak ery
 be side
 c rew
 complain ing
 contin ue
 cut s
 ear lier
 fa ced
 fear s
 fr ost
 gir aff
 giraff es
 l uxury
 man e
 meas uring
 open ing
 par ked
 perm ission
 prov ided
 saf er
 se ag
 seag ull
 secret s
 seem s
 stay ing
 tal ent
 tick le
 where ver
B oo
E x
av i
aw s
b oo
j am
s ses
 D avid
 D uck
 E arth
 act ing
 act ions
 act ually
 admir ing
 aw es
 awes ome
 b are
 bleed ing
 cand ies
 dark er
 disco very
 dust y
 feed ing
 hero es
 horn s
 magnet s
 paint s
 pan s
 prop er
 pup il
 re le
 refu se
 ru le
 shoot ing
 strugg led
 swe at
 tail s
 touch ing
 wind y
' .
Me ow
R ex
R o
R ob
ang ing
c us
h a
if i
in t
is ty
m ies
u es
ust y
 B ye
 D ino
 K ids
 R e
 Ro ver
 W ater
 aw ake
 bed time
 comp any
 cont ain
 cont est
 cre ation
 d ied
 dinosaur s
 flag s
 food s
 gl asses
 helmet s
 li qu
 liqu id
 neighb ors
 neighbour hood
 o be
 on wards
 patient ly
 prett iest
 rest ored
 shr ug
 sne aky
 space ship
 spray ing
 strugg ling
 surround ed
 team work
 tim er
 to ss
 tun e
 tw isty
 v ict
 val ued
 w iz
 want ing
 was ted
 wed ding
 week s
St ay
a ster
ant a
d ies
i ar
l s
n ers
or a
ou ch
p ie
uck ily
  X
 K ay
 K eep
 L ike
 Qu ick
 S anta
 Slow ly
 Sp ring
 a chie
 appreci ate
 bloom ed
 cat ches
 che f
 cre pt
 frost ing
 gl itter
 ins ist
 load ed
 obe y
 paint ings
 pay ing
 po king
 pol ishing
 pr ide
 pro ject
 qu acked
 recogn ized
 s ings
 scoot ers
 si ren
 sight s
 st are
 succeed ed
 work er
E w
G eorge
T iny
ad s
am ie
as hed
b and
com pl
ent y
g o
le e
ri an
sc reen
 A lly
 Bl ink
 D r
 Every day
 F ifi
 Fro g
 J essie
 L enny
 L uke
 ac compl
 airpl ane
 balan ced
 be ads
 bloom ing
 blow s
 bring ing
 celebr ation
 com m
 comp le
 con es
 cush ions
 demand ed
 di ving
 e ight
 fa sc
 fasc in
 fl av
 fl utter
 guy s
 h i
 hon k
 instr uct
 instruct ions
 m es
 mitten s
 nail s
 passport s
 pat ience
 pe ppers
 pear s
 pengu ins
 pre c
 resc ued
 ribb ons
 scatter ing
 scoop ed
 se ven
 sigh s
 splas hes
 thu d
 tr aded
.. ."
D uring
Mr s
P aul
P ete
R emember
Wh iskers
ay s
n ie
uff in
ul p
 A b
 Be hind
 Friend s
 G ogo
 Le ave
 M uffin
 apolog ize
 applaud ed
 b oo
 back ward
 bak er
 conf l
 confl ict
 dri ves
 exam ined
 explore rs
 fro ze
 good night
 home work
 lay ing
 learn s
 miss ion
 o at
 off icer
 organ izing
 p ause
 prot ected
 prot ecting
 pur red
 ref res
 rel uct
 remind er
 sad ness
 sc ales
 star fish
 to dd
 un f
 unt ie
 us ual
 vill ag
 visit ing
 wiz ard
A choo
B ad
F irst
F o
H ave
J ake
L una
O ur
U h
Z oomy
d ie
ig gy
le ts
ul ts
z ie
  Q
 A m
 Be ep
 Ch loe
 E lephant
 G et
 G r
 G reen
 Ho pper
 Jen na
 Jess ica
 L ove
 M oo
 Pe pper
 Pipp a
 Th omas
 Y esterday
 bare ly
 c ause
 ch anging
 cra cked
 d ipped
 drag ged
 ex a
 figure s
 firef ight
 gun s
 help ers
 lead ing
 mus cle
 pastel s
 planet s
 prett ier
 record ing
 rele ased
 reluct antly
 rid es
 shiver ed
 sm ar
 small est
 smar ter
 smile y
 spell s
 spike s
 str uck
 todd ler
 vict ory
 w ound
 what ever
 win s
 y esterday
S omet
T weet
a a
b l
bb led
er n
id ers
ig ail
j o
o h
or ds
r ance
st ep
 Bet sy
 Che w
 G ir
 H ippy
 Mar ie
 Me g
 Prin cess
 R abbit
 Ro llie
 Rob ert
 S ure
 Squ irrel
 ann oy
 any time
 b ank
 bec oming
 beh avi
 bowl s
 buzz ing
 c ous
 cl ick
 cover s
 d am
 d ie
 deliver ing
 exa ctly
 fire men
 hug ging
 inv iting
 pack ing
 prec ious
 r ings
 rep ly
 rocket s
 sh irts
 sprink les
 st ern
 sto le
 sun light
 un ited
 v ent
 warn ings
A n
Gra ndpa
J erry
M illie
S illy
St e
T eddy
an na
h o
jam as
n ies
 B ecause
 B y
 Bug gy
 D ara
 H or
 J illy
 J oy
 P o
 Q ue
 Que en
 Rob o
 St ar
 T op
 T urtle
 Un fortunately
 activ ities
 ar gu
 argu ing
 arri ve
 ch ips
 co coon
 compl ained
 cudd le
 fa ult
 got ten
 introd uc
 jo ked
 mask s
 mis ses
 p ins
 pa jamas
 pe as
 pe ered
 po ssible
 prince sses
 quarrel ing
 ref le
 s ense
 send ing
 separ ated
 situ ation
 snowball s
 spark les
 sport s
 ticket s
 tr u
 v ines
 villag ers
 w id
 were n
 who se
 wigg led
 wrap s
A h
M illy
O ops
S u
Un fortunately
b ly
e ah
f ied
id ing
ir m
r ink
 B arry
 Che ss
 E n
 F ishy
 Fo xy
 Gir affe
 Ho ot
 L ena
 Snow man
 St ay
 T ara
 W ant
 Z ipper
 be lly
 bell s
 bit ing
 block ing
 bounce s
 bra nd
 ca used
 chirp ing
 choice s
 comple ted
 cudd ly
 curi osity
 discover ing
 f irm
 fa b
 fab ric
 far ther
 fascin ated
 fore head
 forgi ving
 g ri
 grand mother
 gre et
 group s
 growl ing
 h us
 impro ved
 incre ased
 itch y
 item s
 kick s
 knock s
 ma iled
 mot ion
 nap s
 p out
 path s
 per ched
 pl enty
 pocket s
 pow ers
 proper ly
 rainbow s
 request ed
 s ides
 scar ves
 sn atched
 some body
 sp iders
 sp ins
 start led
 superhero es
 te ased
 th ro
 tra ctor
 trave ll
 trick y
 tru ly
 twir l
 w oof
 wid ened
 yell s
B uzz
D ave
L illy
M andy
M ar
O r
R u
an ie
at ches
cu se
d am
re y
 Brown ie
 H olly
 O ak
 P atch
 P ut
 Pr ince
 S ay
 Sh adow
 Spark le
 Tr uck
 Un cle
 W oo
 b ur
 beh aving
 buzz ed
 chase s
 creat ing
 curtain s
 d ar
 di ved
 dire ction
 f ut
 fold ing
 fut ure
 gigg ling
 hall way
 hand ful
 hon ked
 imag es
 listen s
 n ine
 ne ither
 obser ved
 poin ty
 pol ar
 police man
 pop s
 prom ises
 reach ing
 reward ed
 ri p
 rock ing
 shr inking
 so aring
 so bbed
 stand s
 sw it
 sw oop
 thro at
 tunnel s
 us ually
 wor ries
Ch arlie
Ex cuse
H old
L isten
P e
Somet imes
Y eah
ak er
an es
e ff
in ing
ink le
se ek
step s
th ough
v in
 Bird ie
 F or
 G ina
 How ever
 M ouse
 Not hing
 O lly
 P l
 a st
 agre es
 av o
 base ment
 be y
 bey ond
 bo dies
 brace lets
 c ent
 c ust
 can s
 celebr ating
 ch op
 ch uck
 complet ely
 cont ro
 corn ers
 cust om
 d ent
 deser ve
 dro pping
 every day
 firef ly
 g ross
 gas p
 grow s
 growl s
 hus band
 interest ed
 la p
 lean ing
 let t
 lett uce
 mov ies
 nap kins
 nest s
 no ses
 pretend s
 re pa
 sa n
 san k
 sc ur
 scur ried
 sees aw
 si bl
 sibl ings
 sp ong
 spong e
 star ing
 stay s
 suff ered
 task s
 un p
 unt ied
 van illa
 whisp ers
= =
C ar
H enry
M aggie
Qu ack
S unny
ab ella
ang led
as on
b ie
c akes
ed s
id o
igg ie
low ers
un e
 
  
 
 C ow
 Cra b
 E x
 Hor sy
 J ulie
 Jo lly
 M ix
 N ice
 O ur
 P am
 P ine
 P up
 Sof ia
 Tw inkle
 W ink
 Wh ist
 accompl ish
 back wards
 batter ies
 bra very
 conf ident
 doll ar
 dot s
 fa ct
 how ever
 key s
 lo sing
 m erry
 m oo
 part ic
 pat ted
 pee king
 pot ion
 pract icing
 pump kins
 ran ger
 read s
 repa ired
 repl aced
 sail s
 sing er
 sl am
 spe aking
 spread ing
 squ ishy
 square s
 supp lies
 surf ace
 sweet s
 te aring
 tick led
 v owed
 vent ured
 wis hing
 wob bly
 y um
? '
B ig
B u
B unny
Ch irpy
Dog gy
L ola
R un
S usie
Th ose
V ery
W hee
aw n
e ed
ile y
it ely
joy ed
oun ce
p ite
ut ty
 B iggie
 B irthday
 En joy
 F it
 Mon ster
 N ick
 O l
 P aws
 S l
 S orry
 Su zie
 With out
 arrow s
 as ide
 calm ed
 ch oo
 chef s
 comf orted
 competit ion
 count s
 de al
 decor ating
 dent ist
 dolph ins
 ent ire
 ent rance
 fill ing
 firefight ers
 fl ames
 foot steps
 gri p
 guest s
 kne es
 light er
 mar ked
 miner als
 mom mies
 n i
 necklace s
 out do
 p ec
 pad d
 pad dle
 plan ning
 play ers
 po ster
 pour ing
 r isk
 refle ction
 refres hed
 ri pe
 ro ses
 roll s
 rot ting
 sat is
 scr atches
 short s
 snow men
 so fter
 spr ang
 st ain
 st em
 ste ady
 stro ked
 stud ent
 twink ling
 unp acked
 use s
 wander ing
 wire s
 work ers
?" ,
F ine
G reat
L e
L ulu
M ine
P ipp
Ru by
S ome
Sp ike
Y ummy
c l
ct ions
e al
f ather
f ly
ha ust
iv i
or der
   
 A unt
 Ab igail
 Ann e
 B ook
 B rian
 D izzy
 Good bye
 H ur
 J eff
 Jo jo
 P u
 S w
 St ella
 Tweet ie
 Y awn
 Z ee
 b unch
 bat hing
 be am
 beg in
 burn s
 ch at
 cheek s
 chuck led
 close s
 con n
 con se
 conse qu
 consequ ence
 des ert
 drum s
 el bow
 ex haust
 fl apping
 flav or
 he av
 hid er
 inclu ded
 know led
 knowled ge
 le ast
 lick ing
 lollipop s
 m ood
 not es
 o pp
 outdo ors
 over joyed
 pass ing
 past ries
 perform ed
 pig gy
 pray er
 r ising
 rec order
 relie f
 remember ing
 resp ons
 seek er
 she lves
 shovel s
 sign ed
 sing le
 st ool
 ste er
 strong est
 supp orted
 surf ing
 t angled
 t iss
 th ird
 touc hes
 towel s
 tr amp
 tramp ol
 trampol ine
 w ow
 wait er
 water ing
 win ked
Ann ie
B ear
D olly
E llie
Fo llow
G et
K atie
L izzy
L uckily
M ike
O ut
Ro ar
S n
Ste ve
T ake
Z oom
al ph
ay e
br ush
el a
ent ly
er cy
ile s
ri x
rix ie
st y
u ri
umb ling
v room
z es
  icing
 1 0
 B elle
 B eth
 F ido
 Hur ricane
 J amie
 J anie
 J ones
 Kay lee
 L au
 N utty
 O xy
 P h
 Re g
 S c
 Sof ty
 V ivi
 Z iggy
 a ff
 a imed
 achie ve
 add ing
 backpack s
 bar s
 bath s
 bl own
 br u
 consequence s
 contro l
 cous in
 danc ers
 dar ling
 dark ness
 dec is
 decis ions
 end s
 exhaust ed
 fair ies
 fit s
 forgi ven
 hesit ated
 human s
 imp o
 impo ssible
 instr um
 introduc ed
 join ing
 kitten s
 load ing
 mach ines
 matter s
 mind ed
 mushroom s
 ornament s
 partic ular
 pray ers
 r umble
 r usty
 rain s
 ro cked
 sa le
 sew ed
 ship s
 snee zing
 sp at
 sque aked
 st ew
 surround ings
 sw ords
 swoop ed
 t urt
 table s
 th orn
 to aster
 turt les
 twir ling
 whist les
 wip es
D anny
H arry
J ump
M ay
P enny
R ose
a el
aut ious
ber t
e en
f all
ich ael
in ny
n o
rom ise
rr r
th s
uri ous
 D ina
 F aye
 I nd
 J u
 Jack y
 Jen nie
 L iam
 M am
 M ild
 M ill
 O ther
 P ink
 Ru dy
 Sad ly
 Sh iver
 Sp irit
 T oys
 Th ose
 To ot
 W o
 al oud
 angel s
 bump s
 car ts
 clown s
 cr umb
 cur ly
 determ ination
 dire ctions
 doctor s
 er ase
 far t
 fe ver
 forget s
 fork s
 frown ing
 g ee
 g oo
 gee se
 ghost s
 go bbled
 grace fully
 grand father
 gu ide
 head ing
 heal th
 heav ier
 jacket s
 la ce
 lend ing
 loop s
 mes mer
 n uzz
 ne are
 no dd
 nodd ing
 pri ck
 regret ted
 rob ber
 sal ty
 sew ing
 sk irts
 slam med
 slow ed
 sour ce
 spark s
 st umble
 st ung
 swimm er
 tal ents
 test ed
 tight er
 tip to
 twist ing
 u nd
 un s
 wake s
 we e
 wr ist
 your selves
A lex
B aby
B et
Be ep
C o
Gra ce
ab el
ad es
ad ing
allow een
c ie
c ited
ch y
ep t
g ers
h i
ll e
n eath
o dy
o ke
s m
ter s
y ou
 C ro
 Did i
 F le
 Fro sty
 J on
 L ina
 M atch
 S e
 Sad ie
 St arry
 Su ki
 T e
 T ippy
 T ry
 Thank s
 Tr ust
 Z ero
 act ive
 am ong
 annoy ed
 ast ron
 astron aut
 avo id
 b umpy
 b un
 bad ge
 breat hed
 c autious
 c or
 cobweb s
 comb ed
 country side
 crumb s
 custom er
 d en
 dis ob
 doll house
 don key
 e v
 fart hest
 fe ast
 fle as
 for ce
 frown s
 gl ued
 hid es
 honest y
 hope ful
 insect s
 le ap
 li es
 lo ses
 m ater
 mag pie
 mis chie
 model s
 object s
 out f
 outf it
 paint brush
 pec ked
 perform ing
 ple aded
 row s
 rub s
 ruin ing
 s y
 sel f
 sk unk
 slipp ing
 sn uck
 sol ut
 stro ll
 sun screen
 sw ept
 sweat y
 swit ched
 tiss ue
 tw eet
 under neath
 vide os
 warm er
 yield ed
- -
.' "
.. .
E lly
E ven
F or
K eep
K im
L ina
S ad
Sh rink
V room
ay ing
i el
igg les
iver sity
oo sh
re verse
 A dam
 Al ong
 B aa
 B all
 B ally
 C andy
 Ch ick
 D ay
 Dave y
 H alloween
 H old
 L aser
 L isten
 M int
 M other
 Me gan
 P en
 P ercy
 T am
 W iggles
 Whist le
 a ud
 ac he
 ad ults
 after wards
 ag e
 an ger
 as hes
 b acked
 blin king
 buy ing
 c ash
 ch ara
 chara c
 cream s
 curious ly
 dam age
 de f
 design ed
 do d
 dragon fly
 e arn
 fan s
 fl ight
 gaz ing
 ha lves
 ignor ing
 imag ining
 inclu ding
 join s
 knock ing
 lead s
 loud est
 m unch
 mark ers
 master pie
 masterpie ce
 mater i
 o c
 oc c
 pl ain
 plant ing
 prevent ed
 prick ly
 prin ting
 pur r
 r ather
 ra ind
 rain y
 raind r
 raindr ops
 re ason
 re ver
 remind s
 respons ible
 s ens
 s way
 sc ra
 sc ulp
 scr ub
 sculp ture
 sh own
 sl ither
 slow er
 spit s
 squee zing
 stuff ing
 t ig
 t ipped
 talent ed
 tig ers
 tree house
 trust ing
 un w
 uns ure
 visit ors
 zoom s
B ow
B oys
Bet ty
Bu zzy
C he
Cl ara
G ina
L ena
P ut
Pipp in
a ure
ad die
an ed
an s
aure n
bb ie
ce pt
dd ie
el ia
il o
io let
ll en
r in
r up
 B ark
 Blue y
 Br un
 Brun o
 E d
 E lle
 G ray
 Gra cie
 Ind y
 N ear
 Ol iver
 S ke
 Sh ake
 Sn ap
 Sn ugg
 Snugg les
 T ia
 T rixie
 U p
 W ake
 We apon
 Woo lly
 ab il
 accomplish ment
 ad ult
 am ount
 aud ience
 band ages
 behavi our
 bott les
 bow s
 brus hing
 bu ses
 bun nies
 c ott
 camp ing
 caterpillar s
 ch amp
 champ ion
 che ers
 cold er
 color ed
 driver s
 duck ling
 ev il
 every body
 f reed
 fin s
 firm ly
 fl ipped
 flutter ed
 for m
 gro cer
 grocer ies
 in sp
 ind eed
 journey s
 l ower
 lift ing
 m aker
 m iles
 moo ed
 neare st
 occ as
 opp os
 oppos ite
 over come
 oy sters
 padd led
 pap a
 pl ucked
 ple asure
 pres ses
 rail s
 recommend ed
 remind ing
 rever sed
 ru bbing
 s ill
 satis fied
 so aking
 sol ving
 solut ion
 sque al
 sto l
 sto pping
 stol en
 surf board
 surpr ising
 t id
 t in
 t ing
 talk s
 tast ing
 temp er
 tire s
 toss ed
 travell ed
 tw ice
 twink led
 twist s
 unf am
 unfam il
 unfamil iar
 unw ra
 weal th
 wip ing
 wob bled
 wound s
!” .
' ."
Al ways
C indy
D an
D avid
F ro
H urry
J azz
J ulie
Jo ey
K ate
P andy
P at
Su zy
T ina
U nder
ache l
are n
ch ing
end y
f ound
h ny
ind a
ir a
iss a
it ches
it u
itu de
ob ody
p it
pec ting
u ing
ump h
us ing
w ise
  ouch
 A corn
 Br ad
 C ally
 Cl a
 Co pper
 D usty
 Ex cited
 F ish
 H ook
 Is abella
 Jack ie
 K e
 M ichael
 P in
 Po or
 R a
 R uff
 Sh ow
 Ske lly
 T ank
 Tw o
 W elcome
 W endy
 Y ell
 Y et
 act ion
 apolog ised
 automobile s
 back s
 ban ged
 bec omes
 bel ts
 borrow ed
 cash ier
 ch ar
 ch os
 chos en
 cir cus
 co nd
 colour ed
 cor re
 d ump
 dec ision
 dri fted
 dri pping
 e ase
 e ch
 ech o
 effort s
 encou rag
 explore r
 famil iar
 fig ured
 fl ip
 fl ock
 fl own
 forget ting
 friendship s
 garden er
 goal ie
 grass ho
 grassho pper
 guard ian
 heal ing
 in ches
 insp ired
 l ump
 la pt
 lapt op
 lift s
 mischie vous
 neat ly
 new found
 on ions
 on ward
 pan cakes
 par ted
 peace fully
 pige ons
 play room
 pout ed
 punish ment
 r ays
 rac coon
 re fe
 refe ree
 repe ating
 repe ats
 res pected
 res ults
 rob in
 robot s
 sc ored
 seas ons
 sh oo
 shark s
 sniff ing
 sp ice
 speed ing
 sque ak
 strip s
 stro ke
 sw all
 sw ap
 swall owed
 swims uit
 t y
 ta pping
 tap ed
 thr own
 top s
 trem bled
 trou bles
 tub es
 was ting
 wee ke
 weeke nd
 with in
 wr itten
 y elp
 you nger
! ’
? !"
A bby
A m
A unt
After wards
Al right
B ang
B ill
B r
D ays
G u
Gu ess
J essie
Jo sh
L iz
N ick
O p
Pe ople
R i
Ri bb
Ribb it
T oby
Th omas
a ver
ab ly
am b
as hes
b ut
c her
ck y
er m
ic i
ide y
ig hing
it ion
itt ed
ls a
ng ela
or ing
own y
s on
s se
ur r
w oo
wh at
  2
 A bbie
 A pp
 Al though
 B i
 Bl oom
 C D
 Ch a
 Ch r
 Cl oud
 Cla ire
 F ork
 Fork y
 Is n
 J ay
 Kay la
 L ion
 L uckily
 Mam ma
 P ill
 P izza
 P urr
 Pu ppy
 R ia
 Sm oke
 St ret
 Ste ppy
 Tim e
 W illy
 W oof
 Yell ow
 a im
 arri ves
 b ully
 bee h
 beeh ive
 begin ning
 behavi or
 bell ies
 bother ed
 bother ing
 breat hing
 bru ises
 ca w
 cautious ly
 clean er
 co ach
 co sy
 con s
 conn ected
 cra ft
 crack er
 cross ing
 design s
 disob ey
 draw n
 dress er
 enthusia sm
 fool ed
 gra bbing
 gro aned
 guess ing
 h oo
 haircut s
 he ight
 hedge h
 hedgeh og
 invit ations
 joy ful
 knot s
 l amb
 l an
 l ent
 lan tern
 langu ages
 libr arian
 liz ards
 low ered
 mes ses
 mill er
 moon light
 n apped
 need les
 nuzz led
 pack ages
 pat ches
 pl ot
 play house
 poke s
 pur rs
 purp ose
 que ens
 r ust
 rat s
 re ct
 sand pit
 sc en
 sec ure
 sens ation
 sh ady
 shap ed
 sm ashed
 smell ing
 sniff s
 spice s
 spill s
 spoon ful
 st itches
 sw o
 swo llen
 tea pot
 thorn s
 tipto ed
 to t
 wa king
 we eds
 we ighing
 wh imp
 will ing
 win ners
 wr ink
 wra pping
A b
B arry
B ee
B essie
Co co
H op
J amie
J on
L ike
S oup
T ry
Z ara
ac les
arm er
at ur
c ope
el ie
en ing
es pite
f orm
ig ning
im m
j i
m atch
m ates
op es
r ily
r th
ri ck
ri er
rth ur
s a
t he
ver s
  ill
 A ngela
 B umpy
 Book s
 C omet
 Ch irp
 Cl imb
 Co coa
 Cra bby
 Cro co
 Dan iel
 Do ll
 E lsa
 F armer
 F ire
 Fl ame
 Fl ora
 Frank ie
 Gr anny
 H a
 J em
 J ump
 Jo dy
 Le af
 Leaf y
 Lou ise
 M ag
 M an
 M ight
 M op
 M ush
 Me owny
 Mel issa
 Might y
 Mix y
 Mush room
 N i
 N obody
 Ni bbles
 O ink
 O kay
 R achel
 R ain
 R ich
 Ru f
 Ruf us
 Sp idey
 Sp oon
 T ake
 T idy
 T iger
 T ree
 Un iversity
 activ ity
 admir ation
 aeropl anes
 b itten
 b om
 be aver
 beep ed
 belong ings
 bird se
 birdse ed
 bl ast
 bom b
 bright est
 c oug
 care s
 cent er
 cent re
 ch anges
 che aper
 cl icked
 cl ues
 con vin
 corre ctly
 cow b
 crack ers
 creat iv
 creativ ity
 d aring
 d ip
 dance s
 de ed
 def in
 defin itely
 destroy ing
 discuss ed
 display ed
 door way
 ed ges
 enc ount
 encourag ing
 encourage ment
 exerc ises
 fill s
 film s
 fo cus
 g est
 gasp s
 gem s
 gigg les
 gl ared
 good by
 goodby es
 hands ome
 hor iz
 horiz on
 in j
 insist ing
 instrum ents
 int r
 job s
 k ings
 label s
 lace s
 lar ger
 man ners
 mark er
 mass ages
 me als
 mean ing
 min ts
 mind ing
 mo ons
 mom ma
 mon ths
 motorcy cles
 not icing
 p on
 peel ed
 pinch ing
 po sse
 pon ies
 posse ss
 prob ably
 real izing
 rect angle
 relax ing
 resp ond
 sa v
 sc urry
 scratch ing
 screw s
 ser v
 shop s
 sl apping
 sniff led
 spring ing
 squ aw
 stamp ed
 stom p
 store keeper
 stream ers
 suffer ing
 swe ep
 sweat ers
 t um
 t umbled
 t ying
 tum mies
 uniform s
 w ider
 wa ded
 water fall
 we pt
 wh oosh
 wis ely
 wob ble
 worry ing
B ounce
B rian
B y
Fred dy
Mar ie
P inky
P ip
P l
R ay
Sh aring
Wh ich
Z ip
al ing
an ced
an et
anna h
arm en
ater pillar
b a
be ep
e el
e z
ear s
ert ain
ez i
i ky
i ving
id dy
ill ed
im mer
ld y
le y
o ey
or king
or ter
p er
pp ies
ri e
ri ver
t ock
th at
ul f
ur render
y es
z oom
 A nt
 A rm
 App le
 B ad
 B ucky
 C ici
 C ross
 E ddie
 Fl ap
 Fl appy
 Fle xible
 G iant
 Jo an
 Ju dge
 K elly
 L auren
 L uc
 Le opard
 M ic
 N avy
 N umber
 O ld
 O uch
 R alph
 R oy
 Reg ina
 Regina ld
 S atur
 S k
 Satur day
 Se at
 Sh ampoo
 Sl inky
 Sp inny
 St an
 Sw ing
 T ato
 T i
 T oy
 U nt
 Un i
 Unt il
 Wo nder
 Y og
 a is
 act s
 aff ect
 allow ing
 annoy ing
 ant ic
 antic ip
 are n
 aw are
 bat hed
 be ast
 bean st
 beanst alk
 bel oved
 bit s
 bl ocked
 bo ards
 bo l
 bra ver
 brave st
 bu bb
 bu dge
 bur st
 ca fe
 charac ters
 cl ue
 class mates
 cle ared
 comm on
 comm un
 con cer
 cons ider
 cop s
 cre ations
 cut ter
 d izz
 dam aged
 dan gers
 delay ed
 demand ing
 difference s
 dizz iness
 drive way
 f aded
 f u
 farm ers
 fisher men
 flap s
 flo ats
 g on
 gar b
 garb age
 gen ie
 gl itt
 gon na
 grass y
 greet ed
 ham m
 hesit ant
 his sing
 intr ig
 m itt
 magic ian
 may or
 me mb
 memb ers
 mesmer ized
 n ast
 n ur
 nast y
 ne ct
 nect ar
 obser ving
 outfit s
 own ers
 p uff
 pan icked
 pay s
 pen nies
 pen s
 pl ug
 pol itely
 pour s
 prep aring
 present ed
 r otten
 race s
 re app
 re wards
 resp on
 respon se
 return ing
 risk s
 ro ds
 run ner
 sad der
 screw d
 screwd river
 scurry ing
 se als
 seagull s
 set s
 sh all
 simp ly
 sn orted
 sprink led
 st acked
 st all
 st ings
 st un
 stern ly
 stir s
 street s
 t ies
 t uck
 ta pped
 thought s
 through out
 to ad
 tow ard
 travell ing
 twink le
 vehic les
 vest s
 visit or
 visit s
 w ig
 wh ales
 wrink led
 writ er
, '
== ==
Al bert
B op
Be hind
Bird y
C ra
D eal
D ear
F rank
F riend
How ever
In stead
Jo lly
Not hing
O live
On ly
P apa
P r
Qu ick
R R
R ock
S low
T illy
W ant
a is
ac ing
an wh
ant ha
anwh ile
ap ay
ap ers
apay a
ar ty
at ty
b ro
bo at
bro ken
c used
eel ing
end ing
er ing
er ious
er k
erm s
ex i
gu ess
hing s
ir ls
keep ers
om p
ong r
oph ia
oun ced
ret ty
ss y
ud rey
um s
umph rey
urp le
us hing
y l
year s
  5
 ' '
 A ly
 A udrey
 Ab i
 Am anda
 Aunt ie
 B ra
 Bob ba
 Br ush
 Bra ve
 C aterpillar
 C le
 Ch ip
 Ch uck
 Ch ug
 D espite
 D ust
 Every body
 F ix
 F un
 H atty
 J une
 L and
 L exi
 Lau ra
 M ilo
 M ina
 M oppy
 Mar sh
 N ate
 O h
 O p
 On ly
 P ippy
 P ol
 P op
 Pe ep
 Pen el
 Penel ope
 Pl aying
 Qu ack
 R azor
 Re ady
 Rob ot
 Sh iny
 T ick
 The rmometer
 Ti bby
 Tweet y
 V iolet
 W ait
 Wh ip
 Will iam
 Z oey
 am used
 anticip ation
 appreci ation
 art ist
 b ou
 b ound
 basket s
 bat t
 beam ing
 bird house
 bou qu
 bouqu et
 bu d
 c ertain
 che at
 chew y
 choo sing
 cl erk
 clos ing
 cloth s
 cloud y
 coll ap
 comfort ing
 con c
 convin ced
 corn s
 cro aked
 crow d
 cudd les
 cup cakes
 de fe
 des pite
 dess er
 desser ts
 dig s
 disag re
 disturb ing
 dollar s
 dream t
 dress ing
 e ld
 earn ed
 encount ered
 env iron
 envel opes
 environ ment
 ex cept
 exp ress
 explor ation
 f ist
 flav ors
 fo cused
 forgive s
 forgiven ess
 fun n
 g ap
 gener osity
 glow s
 gr at
 grand p
 grandp arent
 grat itude
 gu ards
 hesit ation
 his ses
 hot ter
 intrig ued
 invit es
 j ing
 l un
 long est
 lunch time
 lung s
 magaz ines
 mail ing
 materi als
 meow ing
 munch ing
 mush y
 nervous ly
 newsp apers
 offer ing
 opin ions
 p ant
 p ouch
 pack et
 pedal ed
 perform ance
 perform er
 perm itted
 pill s
 pl ugged
 post c
 puzz led
 quack ing
 r ack
 ra king
 re ass
 re ck
 real izes
 reck less
 river s
 roar s
 rust ling
 s ou
 sail boat
 sail ors
 sc ent
 scold s
 se ver
 sever al
 sh h
 sh orter
 share s
 shin es
 sk ate
 slip s
 slither ed
 sn ar
 sn ug
 spray s
 squeal ed
 stat ues
 stomach s
 store s
 sunf lowers
 support ing
 sw allow
 sweet est
 sy rup
 symbol s
 ta le
 teacher s
 temper ature
 terri fied
 the at
 tr ading
 travel ing
 un able
 vi br
 wa dd
 wis er
 yelp ed
A dam
A va
B eth
B inky
B oth
C la
Cla ire
Do es
Good night
H mm
Is abella
Jo hny
K ing
Le ave
M on
P romise
R alph
Sad ie
Sh ould
So f
T w
Tr ust
Un cle
Will ow
a ct
a ven
ac her
ac le
ang a
ash a
ath an
b ed
b ird
c ted
cl oud
cream s
d ate
es ses
g iving
ho le
ic s
ie ce
if t
ill ip
immer ing
iv ia
izz ie
j ack
l ine
le ct
ment s
ol o
oo chy
r inky
s n
so l
u ses
ug gy
up in
v ia
w ater
yl via
 
 A c
 A ry
 Al bert
 Ary a
 B and
 Beep y
 Ben ji
 Bi bo
 Bird s
 Bob bie
 Book er
 Bu ssy
 C able
 C ara
 C ir
 C ook
 Cloud s
 D ezi
 D ot
 D ull
 F air
 F ind
 Fl ick
 Friend ship
 Gra nd
 He llo
 I ce
 J umpy
 Jane y
 K anga
 L az
 L ot
 Lau rie
 Laz y
 Lot s
 M addie
 M ake
 M ore
 M s
 M uggy
 May a
 Mel on
 Mix ie
 O ffic
 O xygen
 Offic er
 P apaya
 P arty
 P ass
 P et
 P oin
 P ot
 P urple
 Pass port
 Ph illip
 Poin t
 Prin t
 R h
 R icky
 R it
 R y
 Rit a
 Ro ll
 Ru de
 Ry an
 S ince
 S ummer
 Sk ip
 Snow ball
 Sp ace
 Sp icy
 Squ are
 Ste aling
 Sun shine
 T ere
 T izzy
 T ock
 T y
 Tere sa
 To dd
 Tr ucky
 V olly
 W ar
 W ell
 W ise
 Who ever
 abil ity
 achie ved
 ais le
 al though
 all ey
 ang rier
 ang rily
 ann ounced
 answer ing
 ar r
 att end
 b less
 bend s
 bend y
 bl ade
 bl ades
 bl ur
 bloom s
 bol t
 bulb s
 ca using
 cable s
 car ve
 cell s
 chew s
 cl ut
 color ing
 compet e
 concer ned
 cond uct
 cott age
 cous ins
 cover ing
 cras hing
 cream y
 cricket s
 crocodile s
 crown s
 d ais
 d arl
 d ing
 dad dies
 dais ies
 darl ings
 del i
 delay ing
 deli very
 dem on
 demon st
 des igning
 different ly
 dig ger
 disagre ement
 disobey ed
 door b
 doorb ell
 echo ed
 en em
 enem ies
 ex pecting
 exper ien
 experien ced
 expl o
 explain s
 f ulf
 fa iled
 fa ith
 fact s
 fin al
 fin ishing
 fire s
 fix er
 fl ips
 fog gy
 g lee
 gest ure
 gl anced
 gr umbled
 gu esses
 gu ided
 guard ing
 ha bit
 hat ch
 he aven
 heart broken
 helicopter s
 her on
 hipp os
 his s
 hunt ers
 inj ured
 jet s
 joy fully
 l ull
 lecture s
 lo cks
 luck ily
 lull aby
 lumber jack
 m er
 med als
 mess ed
 mix ture
 mug s
 n iece
 ni bbled
 o dd
 obey ed
 owl s
 p ound
 p uck
 par amed
 paramed ics
 pass en
 pe cks
 plan s
 play date
 pr ank
 pr ove
 pract ised
 press ing
 prov iding
 pupil s
 quarrel ed
 r ushing
 re ly
 re un
 real ise
 refres hing
 rep airs
 res isted
 ri ches
 river b
 riverb ank
 ro bb
 ro be
 robb ers
 sal on
 sc amp
 scamp ered
 scra ped
 sea we
 seawe ed
 second s
 shin ier
 shr ank
 siren s
 situ ations
 sled s
 smart est
 smo other
 snow f
 snowf l
 so ot
 sp y
 spo iling
 steer ing
 storm s
 str um
 sty les
 suit case
 suit s
 sun s
 swimsuit s
 team s
 tent acles
 theat re
 thunder cloud
 tid ied
 tool box
 town s
 travel s
 tri ang
 triang les
 tun es
 ty pe
 und one
 understand s
 unwra p
 vibr ant
 warm ly
 was hes
 welc oming
 wh ine
 wh ir
 wh iskers
 whimp ered
 whisper ing
 wink s
  
Ab igail
Ann e
C arl
D anger
E at
Fin ny
Fro ggy
G igi
G ogo
G ot
H o
H oppy
I ce
J acob
J ess
K aren
K ids
K iki
M el
M other
Rob by
Rob ert
S peedy
S plash
S queaky
S un
Sn ow
Sof ia
Some one
Su zie
W ake
ab elle
arm ony
as ers
at t
at ul
b il
c ri
ear l
el ina
et s
f ire
ic ent
id en
id ence
ig e
ild ren
in ted
ip es
l or
m ate
m ing
o ff
oc co
ongr atul
ord an
ort unately
p op
s ers
sn ap
ss a
st ick
u ise
ugg ing
ul a
  icky
 Aly ssa
 Ann abelle
 B a
 B ang
 B ess
 B ones
 B ro
 Ball ie
 Bark y
 Be cky
 Bee Bee
 Bess y
 Bree zy
 Bro ccoli
 Bu nd
 Bu ry
 Bund les
 C armen
 C elia
 C live
 C ory
 Car s
 Carl os
 Ch air
 Chr is
 Climb ing
 Cook ie
 D eal
 Dog s
 Ed u
 Edu ard
 Eduard o
 F el
 Fel ix
 Fl ore
 Flore nce
 Fred rick
 G ill
 G inny
 Gr umpy
 H ank
 H umphrey
 Her b
 Her bie
 J ed
 J elly
 Jelly fish
 Jem ma
 John son
 Ke vin
 L ife
 L ime
 L umber
 L upin
 Mag net
 Mar th
 Marth a
 Mon key
 N urse
 O x
 Or in
 P oochy
 Pot ato
 Prin ty
 Pu ss
 Pup il
 Queen y
 R ick
 R olly
 R ub
 Ra e
 Rain bow
 Ros a
 Rub ber
 S ly
 S ophia
 S ug
 Sam antha
 Sl ide
 Sp iky
 St ill
 Sunday s
 Sw itch
 T ip
 T ra
 Te acher
 Wo lf
 Woo ly
 Yog i
 a qu
 accompl ished
 add ress
 af ar
 aff ord
 ag es
 airpl anes
 ap r
 applaud ing
 appro ach
 apr ons
 aqu ar
 aquar ium
 astronaut s
 att ack
 att em
 aw ful
 b orn
 b uddy
 batt le
 beaut if
 bill s
 blue bird
 bo il
 bury ing
 c ongratul
 calm ly
 ch atter
 char ge
 check ing
 cher ish
 cl ip
 clo ver
 comb ing
 comput ers
 conc ent
 conduct or
 conf idence
 contain er
 cop ied
 coug hed
 cr uel
 d and
 d ashed
 d ep
 d et
 d ips
 dand el
 demonst rated
 disappear s
 disg uise
 dive s
 dod ged
 dod ging
 dri ft
 dri p
 dump ed
 ear r
 earr ings
 emb ra
 emer ged
 end ings
 enjoy able
 enter ing
 er asers
 ex ch
 exam ining
 experience s
 f et
 fence s
 firefight er
 flutter ing
 foot p
 footp rin
 footprin ts
 for ts
 forest s
 freed om
 freez ing
 g erms
 gear s
 giant s
 go d
 god mother
 grand d
 h oof
 h uff
 ha w
 ham ster
 hand ing
 hear ing
 height s
 ho st
 hum ming
 instrum ent
 int ently
 intellig ence
 introduc ing
 k etch
 ketch up
 l imp
 l ur
 la z
 lamp s
 le vel
 learn er
 lesson s
 life gu
 lifegu ard
 m ate
 m ur
 matt resses
 meat ball
 meatball s
 melt s
 mesmer ised
 mind s
 neighbour s
 night fall
 novel s
 ob st
 occas ion
 occas ions
 on line
 op t
 ostri ches
 other wise
 p asses
 p oop
 particular ly
 pearl s
 peek s
 peel s
 pl umber
 po ppies
 post s
 protect s
 qu ilt
 r ider
 r ises
 r out
 r uff
 rec ipe
 reun ited
 sav anna
 sc re
 scen ery
 see king
 shoo ed
 sil ent
 skate board
 sl ug
 sn apping
 snar led
 snowfl akes
 sou ven
 souven ir
 sp ed
 sp ies
 spill ing
 squaw ked
 stain s
 ste pping
 stom ped
 stret ches
 stroll ed
 sway ing
 swit ches
 temp ted
 test ing
 than king
 thie ves
 ting ling
 touc an
 tr ans
 trans form
 tre as
 treat ed
 unt angle
 unt w
 waist band
 war ri
 water m
 waterm el
 watermel on
 weak er
 web s
 weigh s
 wild f
 wr igg
 wra pper
 zoo keepers
' ,
A ny
A rthur
B elle
B o
B ug
C atch
C aw
C urious
Ch loe
D uck
E n
F ish
Friend s
H ope
Is n
J ay
J oy
Jack ie
K elly
M addie
M ag
M arth
Mar ia
Marth a
Me anwhile
N ear
N ice
Op en
Out side
P olly
R abbit
S urrender
Sad ly
Sh are
Sh rinky
Sn ap
St ill
T ara
T ed
The o
Tw o
W iggly
a ige
ab r
abr ina
ac coon
ac y
ag er
al i
amp s
art led
as hing
at y
b s
c ake
c an
c ou
cou raged
d ges
d inky
d og
d oo
e se
e ven
ead ing
elie ve
ex it
i bil
ic ate
ic ious
ic ola
ien na
ig ger
imal s
in cy
ipp ers
ive s
j ust
jam in
m ar
n or
o kay
on nie
ook s
op y
pe at
pe ed
r ation
r ough
re es
re peat
re st
rn ie
s ack
s he
un ched
und red
ver ed
w en
” ,
 A lf
 A man
 Ac cident
 Accident s
 After wards
 Am ie
 Ann abel
 B asket
 B ed
 B olly
 B onnie
 Basket ball
 Bl ake
 C ate
 C omp
 C on
 C urious
 Ch ant
 Chant elle
 Che ese
 Che f
 Chew y
 Cl aws
 Cl ose
 Cl umsy
 Cow y
 D ee
 D ream
 Do es
 E va
 F anny
 F ight
 F old
 F urry
 Fight ing
 Fl ash
 Fl ip
 Fl utter
 Fle ur
 G l
 G wen
 Gr amps
 H ana
 H annah
 H ula
 Ha iley
 Help ing
 I cy
 I m
 J ason
 J ordan
 Jo anna
 Jo die
 Jon athan
 Jon ny
 K aren
 K aty
 K in
 Ke ith
 L ift
 L inda
 L izzie
 Le a
 Luc a
 M abel
 M ick
 M ine
 M ous
 Marsh a
 Mel inda
 Mic roscope
 Mill icent
 Mo dest
 Mous y
 N ail
 N ever
 N ight
 N ora
 O at
 O t
 Ol ivia
 On ion
 P ast
 P earl
 P erri
 P ick
 Paul a
 Po k
 Pok ie
 Pol ite
 Quack y
 R accoon
 R avi
 R ic
 R occo
 R olo
 R opy
 R ory
 R us
 Rh ythm
 Ric o
 Rus se
 Russe l
 S ienna
 S ister
 S oup
 S peed
 S uper
 S us
 Se an
 Sh are
 Sh arp
 Sp idy
 St acy
 Sug ar
 T hings
 T uck
 Te ach
 Th ink
 Thanks giving
 Tom orrow
 Truck o
 U se
 U sing
 V room
 W in
 Whist ler
 Z ane
 Z og
 ab o
 abil ities
 abo ard
 accident s
 adventure r
 agree ing
 al b
 alb um
 ast on
 b am
 bam boo
 bang ing
 be ating
 beak s
 beautif ully
 beep s
 bird ie
 bl ob
 bl ushed
 bo oth
 bound ed
 br akes
 bubb ly
 bump ing
 bur row
 bush y
 c al
 c oup
 can v
 canv as
 car ries
 ch ill
 ch illy
 ch in
 chain s
 chat ted
 che ated
 che et
 cheet ah
 cho pping
 chocol ates
 cl am
 collap sed
 commun icate
 comp an
 compan ion
 con qu
 con vers
 contin uing
 coo ed
 cott on
 coup le
 cowb oys
 cr ushed
 cre ep
 cub s
 cur re
 curre nt
 custom ers
 dandel ion
 dec l
 decl ared
 des cri
 di al
 di v
 diamond s
 dis couraged
 disagree ing
 disappoin t
 discover ies
 discuss ing
 dr own
 draw ers
 dri ll
 e lect
 elbow s
 ener get
 energet ic
 eng ines
 exam s
 exp ert
 exper im
 experim ent
 f ade
 f ant
 f erry
 f if
 f ired
 fa cing
 fant astic
 fet ched
 fl ashed
 fl ashes
 frust ration
 fu zzy
 glitt ered
 glitter ing
 goo ey
 good ness
 grandparent s
 gu ilt
 h ood
 h undred
 haircut ter
 hang ers
 hard est
 haw k
 he y
 head ache
 ho e
 holiday s
 hon king
 hook s
 hor ri
 in ter
 inf orm
 it ches
 j ugg
 jack s
 k illed
 kayak s
 key hole
 kiss ing
 kneel ing
 l ush
 law s
 lawy ers
 lay er
 le aking
 lean s
 lur king
 mag n
 magn if
 mailbox es
 mar ve
 mat s
 mate y
 materi al
 mer ma
 mess ages
 mind ful
 mu ster
 mur ky
 muster ed
 ne cks
 ni bble
 night s
 nightmare s
 octop uses
 or ch
 orch ard
 ord ers
 out come
 own s
 p and
 p ipes
 pand as
 past or
 pe ep
 pedal ing
 persist ence
 pilot s
 pl ank
 po se
 pony t
 ponyt ail
 por c
 porc up
 porcup ine
 possess ion
 post man
 pro cess
 pro d
 pro ved
 protect ion
 ra ising
 rag s
 re b
 real ity
 reapp eared
 reb u
 rebu ild
 resc uing
 respond ed
 rest oring
 roof s
 row ing
 s us
 sack s
 sandcast les
 serv ant
 sett ling
 sh atter
 shoot s
 shr unk
 shrug s
 sign al
 since re
 slap s
 sleep s
 sn ip
 sn ipped
 sneak s
 snee zes
 snow ing
 space s
 squ ished
 squee zes
 st eth
 stack ing
 staff s
 steth os
 stethos cope
 stor ed
 stretch y
 stroke s
 stun ning
 success fully
 surrender ed
 swan s
 sweet er
 t ant
 t end
 t er
 t il
 t umbling
 tant r
 tap s
 te les
 teles cope
 tent s
 test s
 tim id
 toss ing
 tour s
 tr igger
 transform ed
 treas ured
 tw enty
 under water
 unwra pped
 up side
 ur ging
 valley s
 w icked
 w iggly
 wadd led
 who ever
 wildf lowers
 wind s
 windows ill
 wo ken
 wo lves
 wood pe
 woodpe ck
 woodpeck er
 work sh
 worksh op
 yum m
 yumm iest
 z ipping
A rrr
A w
Ah oy
Al ong
Am anda
B aa
B ack
B less
B rrr
Br ad
Br own
C andy
Che ap
D ing
D own
Dave y
F l
F ortunately
F reeze
Fo xy
Gra b
H oney
Hi ppy
J anie
J une
Jon ny
L uke
M ilo
M int
M ouse
Mag ic
Me gan
N ate
N ever
N ina
N ora
P am
R uff
Ro ver
S l
Slow ly
Snow y
St and
T am
T ony
T oto
T ree
To ot
W ednesday
Will iam
With out
Z igzag
Z oe
ain t
allow s
amp i
ap es
ap ons
ar ley
ar rin
as ant
be h
bo ards
c a
c at
c led
ctop us
e in
e ze
ec ca
en ee
er f
ever se
fa ction
get s
ic ated
id ier
imm i
in ct
ing ly
ir an
it s
k a
l o
l ong
m oo
me ow
o f
o ving
oe be
or ay
ort h
ou ched
ou la
p icious
que eze
rance s
ret t
sol ut
solut ely
st orm
us ic
w ee
  


  4
  ou
  ”
 A na
 A rthur
 An imals
 An other
 B al
 B ell
 B ert
 B oy
 Ben jamin
 Beth any
 C and
 C ap
 C are
 C ari
 C r
 C ream
 Car ol
 Cat ch
 Che ap
 Chr ist
 Christ m
 Christm as
 Chug ger
 Cir cle
 Cl ub
 Con nor
 Cro codile
 D avy
 Excited ly
 Fair land
 Fold y
 G ulp
 Go ldy
 H armony
 H az
 H i
 H oney
 H ug
 H ung
 Haz el
 J ell
 Jeff y
 Jell ie
 Jo hny
 Ju dy
 K ari
 K iran
 L arry
 L ia
 L ight
 Light ning
 Lumber y
 M ila
 M uch
 M usic
 Mam my
 Mar cus
 Mike y
 Mo ira
 N ature
 N icola
 O f
 Oak ley
 Op en
 Or ange
 Ot to
 Other wise
 P aige
 P iggy
 P ilot
 P retty
 P romise
 Ph oebe
 Pine y
 Pl anet
 Quick ly
 R eading
 R enee
 R ir
 R umble
 R un
 R uth
 Rir i
 Ro ar
 Ruff les
 S asha
 S erious
 S eth
 S ir
 S leep
 S our
 S queeze
 S weet
 S ylvia
 Say id
 Sc ale
 Sn ake
 Sp ud
 St ring
 Ste ven
 Stret ch
 Stret chy
 Sus an
 T aking
 T ay
 T ears
 T oo
 Tay lor
 Tom ato
 Tr unk
 Ty ler
 V e
 Ve il
 W hee
 W indy
 War my
 Wh ich
 X ia
 Xia o
 accident ly
 add s
 adventure rs
 al i
 ali ens
 along side
 among st
 appl ause
 appreci ated
 ar rest
 att itude
 attem pt
 attend ant
 b on
 back ground
 band s
 beet les
 beg un
 belie ving
 ben ches
 bend ing
 bl ed
 bl ond
 blond e
 bo bbing
 borrow ing
 bus iness
 c in
 c ities
 c oop
 ca f
 cal f
 camp fire
 car ton
 car ved
 care f
 cat n
 catn ip
 caulif lowers
 ch ip
 challen ges
 charac ter
 check out
 cher ished
 cho pped
 cin nam
 cinnam on
 cir cled
 co cked
 co iled
 cob ra
 collar s
 compet ing
 comple ting
 con v
 concent rated
 cond ition
 confident ly
 conn ect
 consider ate
 content s
 conv ince
 convers ation
 coo le
 cool ness
 coole st
 coop er
 cost s
 cowb oy
 cr isp
 cr ouched
 cra cks
 craft s
 cre ak
 crow ded
 cudd ling
 cup cake
 d ate
 d itch
 d umb
 defe ated
 delight ful
 dep ths
 des per
 deser ved
 deser ves
 desk s
 det ail
 disappear ing
 do dge
 dog gie
 dri es
 drown ed
 dust p
 dustp an
 eld est
 elect ric
 enjoy s
 ex amp
 examp le
 expl an
 explan ation
 extra ord
 extraord inary
 f ading
 fa il
 fascin ating
 fight s
 fis hes
 fl ashing
 fl ick
 fl icked
 fl ippers
 floor s
 fly er
 fo am
 fo ss
 follow ers
 foss il
 fre ely
 fulf ill
 fun er
 funer al
 g ates
 g iddy
 g le
 g room
 g ul
 g ulp
 gl immering
 gl isten
 gle am
 glisten ing
 gran ny
 gul ped
 hamm ered
 hamm ers
 hand les
 hat es
 ho ses
 hon or
 honk s
 hoo ves
 hop s
 horri ble
 hum med
 incre asing
 inform ation
 inse par
 insepar able
 inst antly
 island s
 jar s
 ju dges
 kind est
 kn it
 kn ives
 kneel s
 land ing
 lantern s
 laz ily
 le ashes
 le ver
 leap ing
 listen er
 lo af
 lo c
 lon el
 lun ged
 m ain
 m end
 m ound
 magnif ying
 man ager
 mar sh
