  t
h e
  a
  s
  w
 t he
n d
e d
  b
 t o
 a nd
  h
  f
  T
i n
 w a
r e
i t
o u
  l
  d
  c
  p
a y
  m
e r
 wa s
 T he
o m
  he
i s
  n
i m
a r
o n
 s a
l l
i d
 h a
  g
a t
  S
in g
o t
e n
a n
l e
o r
i r
a m
e t
  H
  it
 t h
i g
 The y
 p l
  in
i l
 H e
  "
o w
v er
r i
  u
u t
 pl ay
it h
 sa id
 b e
 d ay
 w ith
p p
O n
  o
  y
o o
k ed
  r
 he r
c e
l d
 h is
 T im
  I
 S he
 s t
k e
  e
 b ig
n t
c k
ver y
 y ou
s t
v e
e nd
u n
 ha pp
  on
a ll
ri end
 f riend
 the y
  L
il y
 w e
 ha d
 u p
 l i
 n ot
he r
 wa nt
it t
 o f
a d
 d o
  B
s e
 happ y
en t
  very
  M
e s
 sa w
On e
 th at
ou ld
' s
 f or
itt le
 m om
 l ittle
 s o
 s h
 s he
im e
c h
 n am
 t ime
  k
 n e
ou nd
. "
 the re
 nam ed
 b o
 s m
 we re
 want ed
 L ily
 friend s
ou t
ir d
 b ut
v ed
h t
! "
T he
 T om
 b ird
e l
a ke
 a n
a l
 to o
om e
 w ent
 w h
id e
On ce
 a ll
 I t
 he l
u g
u e
 hel p
  is
 l oo
  A
 up on
 l o
t er
r y
 to y
o re
 f un
i nd
g et
i ll
am e
 a s
  j
r a
 a t
get her
 c at
 d id
  re
u r
 to gether
a ck
 s e
l y
 t re
oo d
 do g
i c
 c ould
t ed
 c an
 b all
ar d
 g ir
 the ir
ar k
 gir l
 play ed
e c
m y
 h im
 g o
w ay
 r o
? "
he d
a in
 k n
 l e
  out
he n
 a re
 f r
u m
' t
 the m
 bo y
 sa d
u l
a x
 tre e
ot her
ou g
 m an
 lo ved
 ha ve
 c l
 f ound
 loo ked
 s p
 S ue
 st ar
 s c
on e
 b ack
ow n
h ing
a re
 M ax
 li ke
 be c
s ide
f ul
 m e
o p
on g
 p ark
 w ould
ig ht
 li ked
r ound
  One
el t
 f a
 m ake
 c ar
e ll
 B ut
 f elt
 l a
  W
 as ked
 S am
Y ou
ar ed
om et
i ce
 c ame
 star ted
 ne w
a g
 se e
 n o
oug ht
ou se
 B en
 a l
il ed
 a g
  other
 g ood
p ot
 s omet
 sm all
 b r
o b
s s
 sm iled
ad e
ri ed
ing s
 s ay
 f ind
 w or
 a way
 e x
 fr om
 th ought
 m ade
 S pot
 wh at
 h ome
 c o
 play ing
en ed
 somet hing
t y
 p ut
 e very
 wa l
a ch
 m u
i a
u c
oo k
i e
n y
  F
 ag ain
 r an
 d own
i le
d d
ar n
 toy s
a ve
 p r
k ing
 sc ared
 s ome
 too k
 la ug
  J
 h ouse
 f l
i f
a b
 a round
 bo x
 s w
u re
i ck
 le arn
e p
re t
is h
ou d
u ck
 you r
 li ved
  You
 th ings
 s un
 the n
 w ill
e w
 b l
 m y
a s
 w hen
 a b
pp ed
, "
u s
 g et
an k
T im
T h
 c h
 l ot
uc y
ot h
a p
um p
 M ia
 wh o
 t ried
is t
 f e
 kn ow
 g ot
it ed
u st
 man y
 ab out
 say s
 in t
all y
nd er
 r ed
 kn ew
 p ret
i ve
 d ec
L ily
is e
ou s
 an y
a u
  D
a ce
 c are
 m ore
 p ic
q u
f ter
 be st
au se
 o p
 bec ame
 L ucy
 p o
 wa ter
way s
 
f e
 h ug
 learn ed
 B ob
 ex c
 bec ause
it e
 al ways
 loo k
 out side
 int o
 ro om
 b oth
 u n
id ed
 S o
 sh ow
 laug hed
 e at
 dec ided
 A nd
 g re
 h o
ur p
u dd
an t
 p e
er s
  v
  E
 M om
 j ump
n n
 l ong
 on e
  ke
 th is
 r un
 n ice
Y es
 exc ited
 fa st
The y
T om
 fe el
 d ad
 to ld
 m o
 s k
 in side
ou r
 a m
 t r
 s l
u ll
le w
 s or
 t ake
urp r
 ro ck
in y
 pret ty
nn a
 s urpr
 g ave
 e ach
 g ra
im al
in k
 an imal
 mu ch
 h ow
W h
 st r
 o ld
 ne ed
B ut
 th an
 l et
v en
ar a
r o
g ed
 to w
es s
 u nder
  C
 sor ry
  or
 wal ked
 c le
a nd
f t
 t a
 ha nd
g e
 t e
is ed
o g
 f ish
ur n
ur t
 k ind
f f
 cl o
 H is
 wa t
v ing
 h ig
 animal s
a se
 A my
 j ust
 u s
 happ ened
c hed
 f ood
p l
 sk y
 fl ow
he re
 s n
r om
 t ry
 l ist
  ide
 W e
 ne ar
g ry
 did n
 ide a
 b et
  en
ab le
at e
in e
 f i
 f lew
ec i
 it s
re am
Th ank
 care ful
 sh are
 c ake
e x
 he ard
 bet ter
 t w
 st or
  if
eci al
 sp ecial
 d an
p ec
b er
i on
 T h
 be ar
 lot s
 w ind
l f
m ore
 any more
udd en
 cle an
 ne ver
 f o
 d on
M om
 g r
 b ug
 t al
op le
 c om
 h ard
 b u
 e nd
 The n
 b y
 f ly
udden ly
 m ag
or t
 t urn
 f ore
 o ver
 A nna
 E very
 e ven
r m

 

 lo ve
 co l
 sa fe
 pe ople
 a fter
 b ad
ad y
 hig h
 f am
 g round
a k
 do or
im b
 c ome
b b
 sh iny
 pr oud
A s
 op ened
 cl imb
u ff
 h urt
 pic ked
 bl ue
 l oud
pec ted
L et
 c he
 g ive
 wa y
 surpr ised
 g l
' m
ex pected
 un expected
il d
 than ked
 c u
 b ook
um my
 W hen
 F rom
 c all
 col or
 H er
 f ar
ard en
 g arden
 mag ic
 e ver
  K
 p ar
oug h
k ay
  im
 hug ged
 st ill
 pl ace
N o
 u nt
oo l
 of f
 S ara
ag e
 m a
 sm ile
 wal k
t ure
  P
 jump ed
 fam ily
 I n
 unt il
un ny
i z
he s
 p a
e m
 sh ould
  qu
 n ow
i p
 k id
c t
 st ick
itt y
 st ay
 str ong
 fore st
 st o
an e
 d ra
a ut
 a pp
uff y
d y
 br o
 bo at
 gre at
 s qu
 b ra
 be aut
 t ra
x t
 ne xt
 j o
 help ed
 S ally
le ase
 ha t
le s
 happ ily
 pic ture
 stor y
i ful
i es
 beaut iful
 list en
n ing
t h
 show ed
 wh ile
 call ed
o on
 m et
 clo s
N ow
 kid s
p t
 op en
 fr og
 m or
 re m
l uffy
 tow n
 so ft
 every one
C an
I t
g er
 im p
 be ing
H e
W hen
 sto pped
 a d
re l
 r ain
 an gry
b y
 y ummy
 wat ch
b it
 do ll
 could n
 c a
ab bit
v ent
ar y
 L et
re e
 tr uck
 d e
is hed
 K itty
 m ouse
 r abbit
b e
dd ed
 at e
re ss
is s
 w o
 F luffy
 lo st
 wa rm
 sl ide
 fa ce
 bra ve
 g ame
 W h
 ke ep
 f ell
f ore
 le ave
 flow ers
 tw o
 c ook
ow l
 b ed
 c ry
 p us
ill y
s o
o ck
 so on
 no ise
 gre en
 al so
  R
Th at
 b unny
e ar
 no dded
 w here
g an
se lf
 fi x
 sa t
 ha ving
ir ed
H i
 y ell
 be fore
 
 ke pt
 ho le
 p ain
 
 he ar
b le
d ay
 st ore
Wh at
 hand s
 cat ch
L ook
 u se
ir rel
The n
 s ing
 f in
a z
ir st
 us ed
 mom my
 th r
 ex pl
 fun ny
 squ irrel
 bird s
B en
  Now
 c ra
 loo king
u ch
 t ired
 e y
 go ing
 wa it
 b re
 k it
o y
e et
ay be
le ep
 me an
an ge
t hing
ug ht
  our
l ed
 p ull
a ir
 d if
 fa v
 sun ny
 t ri
 po nd
em ber
 C an
 ha s
c hen
 kit chen
 w r
 par ty
 th ink
  ice
 fl o
or n
o h
 wor k
t ing
a c
W e
 he ad
u it
 b us
 wor ked
 m ess
 d r
n g
 re al
 D o
z y
i ous
oh n
 o kay
 other s
 s ound
ll ow
 mor al
 be h
 ey es
at h
 sa nd
re w
 tal k
 sh ared
 ad vent
  z
 rem ember
  “
 fav or
j oy
m a
 favor ite
ell o
H ello
 r ight
 as k
 cu ri
 c ut
 co ld
  ri
 h op
 c on
 imp ort
 h ill
 m on
ll y
 d ir
im es
 ma king
 en joy
 fo llow
 curi ous
 v o
 p ie
 br ight
 y ard
  G
A t
 flow er
k en
D on
 sw eet
re ed
 mo ve
 d uck
 d is
 re st
  own
 dra w
 f irst
 import ant
 to p
 J ack
 sh o
 cl a
 be gan
 t all
 p ick
 bl ock
 wat ched
ou nt
 s leep
 be l
 l ady
A fter
 n ight
 th ing
W ow
i ed
 r ace
st er
 ta il
 h ot
fe re
 h id
 h un
 dif fere
 ag reed
 flo or
 sh out
 he re
 st op
ec t
 for g
 d ark
 Th is
 b ag
 gra ss
ig n
 wor ry
 s ong
 t able
 ta st
 t ell
q ue
 pr in
 need ed
 leave s
ar ing
 vo ice
 yell ow
 re ad
ap er
 far m
 F in
 r u
 tre es
 d ress
 ha ir
 sw ing
Wh y
 differe nt
 d el
 advent ure
 wal king
 turn ed
 surpr ise
 p lease
 
 M r
 hun gry
M ax
 do es
 car s
 S uddenly
 color s
 D ad
o om
S uddenly
 laug h
b o
S ue
 clos er
a ched
S am
 pret end
c o
 li on
i ent
er ed
il a
 bro ken
 w ood
 pr om
 c ried
by e
 w et
 pie ce
 friend ly
 Tim my
 f ull
 beh ind
 tra in
is y
 dan ce
A nna
pp y
 to uch
 climb ed
 an other
 dan c
a f
S o
 g one
w here
 app le
 sm ell
bb ed
 sw im
 st e
c ked
 block s
at er
 feel ing
s h
 p aper
 Th at
S he
 am az
 A s
 a nt
 p er
 but ter
 run ning
 J ane
 re ached
 help ing
 list ened
 fa ir
ic ed
 good bye
 re ady
a v
 on ly
 ho ld
 l ight
 a c
r ay
ab y
i ke
  O
 ro ll
S ara
 c ream
 Bob o
 re pl
 d ri
ke y
 s it
 pus hed
 f ight
 sl ow
 pl an
 clo se
r ed
 A ll
 l ess
 d one
p e
 wa g
 wa ll
  owl
 c ool
 se es
 mu st
 gl ad
 fr uit
 w ise
ie ld
 t iny
 wo nder
 mom ent
 try ing
 st uck
at her
 d ream
I n
 thr ough
 d in
as h
 w ished
 p en
 fi re
am es
 re ach
 th ank
 b ar
 be en
 b aby
 wind ow
 jo in
 expl ore
ot t
 look s
 do ing
 Every one
 a r
 bu y
 b it
 shout ed
 a ir
M ia
 h ide
 bu ild
 Mom my
 ne st
 sw am
 sc ary
 f all
 com ing
 cl oud
 la nd
 br an
one y
 w in
 b lew
 se en
and y
 per f
as k
 dir ty
 ch ild
 he ld
 book s
av y
p h
 big ger
 repl ied
 qu ick
 le ft
 m at
el y
 under st
 m ight
 tre at
nd ma
 color ful
 pull ed
 gra bbed
 wh y
 turn s
O kay
 d ro
 butter f
iz ed
 remember ed
ic y
 f ill
 nam e
uck y
 cu p
 ch air
 ca st
 bro ke
or m
 somet imes
 c ount
a isy
 th ree
 s ure
ou p
at ion
 sp l
 ho pped
 p ink
t on
 stay ed
 sn ow
 j ob
 cla pped
u p
O h
 g ames
d er
 b ott
 g if
e e
 wa ited
' re
 The re
 pl ant
 not iced
 gr ow
 less on
 ball oon
i x
 any thing
 picture s
 wood s
out h
 m outh
 pain t
 A fter
udd y
 wa ved
 s et
ow er
 enjoy ed
ro om
 sp ot
 al one
 p ot
 con t
Th is
 se a
 br other
d s
 like s
ar t
ou n
am p
H er
 t ight
" .
 y ear
 th rew
 he avy
 wh ite
 follow ed
 quick ly
 g ent
 butterf ly
in s
S pot
 m iss
 cook ies
ap e
 j u
 de ep
as ure
o lly
 every where
d e
L ucy
z e
 be e
 p at
o e
 J ohn
ri es
a ught
 m ar
B ob
 wor ld
is ter
c le
 cl ot
 wr ong
 clot hes
 cast le
 c re
 we ar
le ss
l c
 p u
ro ss
 m um
 but ton
 le af
i et
 n ap
 B uddy
  ve
n er
 qu iet
 m ix
 ke y
are nt
 make s
an g
 br ought
 r ound
r ow
 p arent
ull y
u ed
r ot
 want s
 we ll
 him self
 D aisy
o s
 w on
 r ide
 del ic
 f ield
m an
 danc ed
 bre ak
 a rm
 tow er
 L ila
D o
 s ign
 Wh at
f ully
 sn ack
 h it
th y
 dra g
 fast er
 k ing
 gif t
 tal ked
 forg ot
 w ish
 le g
 be ach
g g
 s ister
 ri ver
 mu s
ce ss
en ce
 fin ished
 bran ch
 d ry
 com p
le ph
ve s
itt en
c y
 sh aring
F rom
 po l
 b ike
 In side
 din ner
 drag on
 f ur
ard s
 r a
 dan ger
 re l
 e m
 re ally
 b or
i pp
 v is
 underst and
 sh in
an ce
 T o
 bl ack
J ohn
re n
 bott le
 mon key
 fo x
H is
ed dy
 mon ster
 p ig
 sm art
 A t
 po in
 wor ried
 rock s
 cont in
A my
 g u
 care fully
 b owl
 some one
im i
ct or
 fair y
 to day
 at t
a st
 fill ed
 s ide
 p udd
 eat ing
us h
 we lc
 e l
se s
ve l
 g i
 c ow
 b oun
itt ing
 sn ake
 br own
e ad
 w he
 prom ised
 f an
Wh ile
 s illy
 p et
 happ en
J ust
 every thing
 y es
t s
 re s
 parent s
 So on
 M aybe
 s oup
 vis it
 mus ic
 mu d
 let ter
at ed
 f ree
 el se
 piece s
 ro ad
 child ren
st ead
 b ite
 sh op
 sa ng
 contin ued
F in
 tal king
 perf ect
 k ite
z z
 fly ing
 e gg
 smile s
 thr ow
 real ized
 B illy
 ma il
 e ar
 Sara h
or d
 wor ds
 E m
. ”
 amaz ing
ck et
 laug hing
 j ar
 wag ged
 or ange
  que
 se c
 mo ved
 s itting
 en ough
 clos ed
  Z
 pa ss
 with out
 shin ing
 m other
g ly
 sm o
 st and
 cra b
 b uck
 sa il
 ro pe
 danger ous
f ort
 str ange
 sec ret
 bar ked
 b ath
 st u
 tast y
 dr ink
 M imi
un ch
 welc ome
f ish
ell a
 pa w
us ed
i ver
bo ard
 cry ing
 wh ist
 pa st
 he al
 c e
is es
 l on
 c andy
 li ving
 J oe
  -
 hig her
c hes
M aybe
 lon ely
 p re
 own er
 C h
 sho es
 bel ie
 sa ck
 farm er
P lease
 mor ning
ch ool
at o
ar m
 to m
 J en
g y
 sw ings
 delic ious
 p urp
ra ct
 s chool
ll ie
is k
 sc ream
 te ac
i ble
 pus h
 fin ally
! ”
 st one
 roll ed
 p h
 gra ndma
leph ant
ld er
Mom my
 pudd le
i ch
 st re
 doll s
m e
 B l
 get ting
 bl ank
i re
am a
 purp le
 l ake
 ask s
ll a
ask et
 year s
 tr ou
 she ll
 m ad
as ed
 ca ught
 blank et
 c orn
s et
 tre asure
 w ore
 run s
 m oney
u b
 b asket
 hop ed
on s
 p ile
isk ers
 sa me
e o
 sing ing
a pp
 her self
e y
 w ings
 p ers
 app les
ck s
 cut e
 b en
b r
 m ine
 j e
 b at
 Tom my
ig h
 pl ane
 gent le
 car rot
 c ray

  
 teac her
 e lephant
 co at
 se ar
 p ill
 dro pped
 ball s
 star t
 f it
 t eddy
 day s
th day
ir thday
 c our
 do ctor
Fin ally
in ed
 wa r
 cour se
 fore ver
aught y
 wo ke
 jo y
 n aughty
 hid ing
 se ed
 c ard
 prom ise
 m in
 br ing
il k
 Wh iskers
 mo st
 ar ri
 te ach
 sp in
 cook ie
 c r
 b and
ump y
o l
at or
 sh ap
 f ence
 che e
 ro b
 bus h
 G ra
 Bl ue
 think s
 sh r
 m ilk
 l unch
 u gly
 e as
 b irthday
ar p
 no se
 to uc
o se
 ju ice
 Th ank
 v ill
 o b
 gre w
 b ow
 p op
 bel ong
s w
 shap es
 an sw
f used
it ch
i pped
 sh arp
 F red
a ss
a il
 cre at
 you ng
 hear t
um ber
s y
ir t
 ben ch
i er
 stre et
 B ella
b ow
' ll
 L eo
 see m
J ack
 b one
er ry
 w ra
 m ark
 l ate
 ab le
s c
et er
b all
a le
 belie ve
 rock et
 z oom
 buck et
 co in
 bre ad
 rob ot
 po cket
 p ower
 magic al
 dir t
 touc hed
 sp oon
 sh y
 k iss
 in c
 slow ly
 sh ook
 bus y
 tw ins
 k itten
 pr ob
 che ered
 arri ved
 sh ake
 feel s
 le m
 cra w
 se at
 ne ck
 car ry
 tri p
 stor m
l ing
 amaz ed
un g
 sp o
 f ew
e ared
 vill age
ig g
O K
 be ll
le m
id ge
 ta king
 stor ies
 pat ient
 gr umpy
 fix ed
 co ll
oo se
 prob lem
 n ut
urt le
o st
 whe el
G ood
 sound s
 wonder ful
 li ve
 gr ay
 d ist
ir p
 rain bow
un a
 wa ve
 tow ards
 s ug
 hug e
 sp ark
 ru de
 dri ver
 h or
 co ver
or s
fort able
 whist le
 song s
 car t
 M ark
 c ir
e my
 w ide
 Mom o
 sa l
ep end
L ila
 re c
 d es
u nt
en s
 str ing
 dis app
k in
ell y
bb le
 treat s
 s uc
pp ing
 p ath
 me et
il ing
 up set
 hold ing
 chee se
al m
 mo on
op h
B e
 t urtle
 wor m
 w ild
O f
our n
S ure
 l ay
 hug s
  N
 gra b
 fight ing
 li fe
 gi ant
 d i
 pu ppy
 pe ace
 j ourn
 bug s
um b
r ing
 smo oth
 j ew
ad ow
 not e
 jo ke
 b an
 no ises
 jew el
 cl oth
 J ust
 Em ma
 smell y
 s our
 m ist
 h oney
ount ain
 l ucky
 in v
 s er
 land ed
 c ou
ul ar
iz zy
one st
  On
pp er
 n et
S t
 th in
 r ad
 c ave
a ur
 prin cess
 h onest
 be ak
 A nn
n ot
if e
 j elly
 dri ve
 bo ss
is a
 par t
 che w
 ban an
er y
 see k
 can not
 miss ed
 a ct
 M olly
 star s
 m ed
 b a
o ve
 dog s
re ad
 s uddenly
 s ick
  ign
s p
 o ven
 dro ve
l ower
 b ri
 te a
 st ep
 spl as
 Fin ally
 she lf
ig er
 ex p
 snow man
 was n
 in stead
He y
 tast e
 fo ot
 f le
 D og
 m aybe
 duck s
op e
er t
L ater
 s el
 ac ross
ate ful
 sand w
 help ful
 fan cy
 adventure s
e st
 b ought
 was h
 or gan
i an
e re
 c ross
T o
 l ine
 gl ow
 R emy
 gr ateful
 com es
 sl id
 for get
 con fused
 as h
le t
id y
 sp e
 pu zz
 pill ow
 heal thy
 ch ange
 p ract
 d ish
 z oo
 O llie
oom y
o ppy
 v al
 ste pped
ere st
 la st
 l ad
 int erest
 c ap
 sel fish
 e lder
 ch o
it y
 wor king
 who le
 elder ly
 eas y
w ard
 watch ing
 stick s
 hop e
 any one
co l
 mess y
 c alm
am ed
 take s
 sa ve
 p ri
 forg ive
 dad dy
 ch ased
iz e
irp y
 we ak
 te am
 my ster
 a v
 wr ite
 sh irt
 lad der
o c
 wo lf
 t ape
t o
pec t
 spl ash
 lem on
 leg s
 cle ver
 S p
 ph one
 m ind
 hor se
 fe ather
 plant s
 pers on
 long er
id er
 t idy
 st ret
 pr ot
 p our
 j og
or k
e ver
 em p
iz z
S oon
 p an
 l ater
 emp ty
 b ark
 al ong
 C at
S ally
 seem ed
 face s
 bo ot
 B u
 pretend ed
 lo ck
 co zy
bb les
 sleep y
 li ft
ion s
 h um
it ing
 wait ing
 st ir
 sa ved
 s u
 fin ish
ll o
 swim m
 m ach
p ill
pill ar
C ome
 re t
u ally
ain ed
? ”
 sp icy
 che er
 ch ick
 boun ce
 C ome
 scream ed
 ret urn
 r ing
 go at
 L isa
  ent
ul t
 p ool
 f ake
 Ch irpy
d en
 jump ing
 Dad dy
 su pp
 s uch
 interest ing
 wonder ed
 t ie
 cloud s
 prin t
 p in
 mist ake
 fruit s
 D ucky
un k
 dr ank
o cked
 sp ray
er pillar
 th ough
 pl ate
 e ag
 cat erpillar
 st ra
 boss y
 To gether
iss ors
d ge
bo x
 on to
 g ather
et h
 k ick
 d rew
 build ing
 Ben ny
 swimm ing
 sc issors
 mach ine
le br
 ri ch
 W ith
 T V
orm al
 she ep
 n umber
 hid den
 give s
 ce lebr
 S t
 E lla
on t
 n ormal
oo f
e k
 w ing
 br ush
K itty
 love ly
 fur ry
 expl or
 cray ons
 clean ed
 arm s
 trou ble
 gl ue
 fr ont
m ent
izz a
ac ed
 sp ider
 pen c
 p ack
 f ing
 c her
 M y
 sug ar
 poin ted
 penc il
 mat ch
 l ar
 c age
 Dog gy
el p
 m el
 app eared
 The ir
 B unny
ur se
 put s
 smell ed
 prin ce
os aur
oo p
n ed
 s ur
 pr ay
 gent ly
 g ate
 L una
 Gra ndma
y ard
 sear ch
 mat ter
 din osaur
 back yard
A nd
 fe ar
 f il
 dr um
p a
 sh ip
 cla ss
 tow el
 que en
 g un
 cir cle
 v an
 sm iling
 cou ch
 G o
aught er
 te ar
 near by
 im ag
  icy
 yell ed
 ash amed
 power ful
ge st
 wa nd
 que st
 place s
 fl ag
 c ri
 S omet
 J erry
H elp
 la w
le v
 w om
 l amp
 a f
 Wh y
or row
ic ked
 wom an
 p izza
 m ir
 lar ge
 d aughter
 car ried
 M ama
M y
 wra p
 tr ust
 journ ey
 gl ass
 a p
y m
St op
 tr ue
 ru b
 ne igh
 g as
 J im
v ous
r or
on es
 tri es
 neigh b
 b al
i que
 un ique
 je ep
 ign or
 em b
 J ill
is p
ens ive
 we aring
 fr ight
 exp ensive
 tom orrow
 h ur
 go es
 I f
itt er
 love s
 d izzy
 B e
c ed
 we ird
 sa f
 d ig
 ant s
ug g
ra id
 the se
 mir ror
 he llo
 danc ing
 ch ase
 Bob by
 sp ring
 re g
 af raid
 sc ar
 not hing
 B r
ra ss
ar rass
 po or
 fright ened
 T iny
nd pa
m er
k n
 wh isp
 te st
 n er
 la zy
 emb arrass
 eag er
 c and
if f
 prot ect
a w
 tom ato
 st ood
 de st
n ess
kn own
 suc cess
 ner vous
bb y
 splas hed
 puzz le
 br idge
 w is
 w ip
 un known
 p ay
 cl ay
 b ake
 inc red
 imp ress
 go ld
 g igg
 g en
 dec or
 creat ive
vent ually
in a
 fe et
er a
 incred ible
 R ex
 t ent
 so l
 so ck
 sandw ich
 le ad
 te eth
 sw an
an y
 use ful
 clo ck
 M ary
 H ow
ut e
u al
 ste ak
 res pect
 bor ing
 B ird
 B ear
ber ry
 stra w
 squ are
 so ap
 dis co
l ves
 pre s
 mix ed
 f ool
 clos et
ow ed
 pot ato
 peace ful
 p ump
 m ask
 kn ocked
c ream
air s
 wh ale
 sw ord
 myster ious
 fam ous
 b urn
up id
Tom my
 h ar
 gen er
 be an
 And y
w e
r ated
 y og
 so ld
 sh ark
 answ er
  3
 sc o
c ient
b led
ar l
 would n
 r ug
 pol ite
 k icked
 fe ed
 P lease
er ri
c om
 snack s
 me asure
 j am
 dis g
 an cient
 rel ie
 corn er
 bl ow
o nd
 sp ace
 no isy
 e sc
re en
ot e
im p
 sp read
 scar f
 bran ches
orm ous
 st upid
 pain ted
 cho col
 D on
r ob
 sho e
 r ough
 mar ch
 egg s
 wag on
 paw s
u ce
 stu dy
 mom s
 fr ust
 disg ust
 de ad
 d ug
 cr own
rob e
 t erri
 fool ish
 b arn
 Somet imes
en ny
D ad
 ste al
 se ll
 r are
 pres ent
 m is
 en ormous
get able
 ve getable
 underst ood
 sc are
 sal ad
 med ic
 disgust ing
 chocol ate
 banan a
 ba ld
ig hed
ed ient
c orn
ad o
 st uff
 medic ine
 her o
 gener ous
 cl ap
f ic
 gr oup
 g oose
 dif fic
 b itter
p es
 th ick
 ro ar
 perf orm
 mu sh
 frust rated
 diffic ult
 bre ath
 Sam my
 In stead
 t ick
 small er
 sh adow
 mel on
 mark et
 cover ed
 P e
uit ar
 tast ed
 or d
 ob edient
 g uitar
ro y
p ort
or ry
m b
 wa ke
al k
 la b
 ha ng
 h orn
 dest roy
 S ome
in al
as ses
 to ug
 re f
 m ountain
 m ot
 bor ed
 as leep
a king
Tim my
 wh ich
 ta ught
 stand ing
us ual
l and
 relie ved
 h arm
 bec ome
 Br own
 toug h
 terri ble
 s uit
 join ed
ung le
at ter
al ous
 squ ash
 pe bble
 mush room
 mo ving
 je alous
 explor ing
ig inal
f ted
al s
 your self
 par rot
 kn ife
 j ungle
 ad m
To gether
He re
 un usual
 t un
 pump kin
 disco ver
 cle ar
 as king
 spo iled
 pri ze
 d ull
ul b
at ch
 sun f
 f at
 chick en
 t iger
 pop corn
 nut s
 might y
 thought ful
 hear s
 f ine
 com b
 b ulb
um e
m p
id ent
 v ase
 tw ist
 too l
 st ri
 seed s
 s que
 h ay
 P oppy
ra g
er ce
 or iginal
 fi erce
 dr op
  ind
 sn ee
 end ing
 draw ing
 c op
 W ill
 thank ful
 is land
 carrot s
um sy
In side
 sp ent
 rel ax
 mu ff
 embarrass ed
 che ap
 c ro
se lves
 trou bled
 m ic
 know ing
 fo ld
 en g
 cl own
 bl oom
 a unt
ot o
com fortable
A re
 te mp
 sunf lower
 rec ord
 fr own
 find ing
 bal ance
 T r
 un comfortable
 lo se
 hat s
 che st
 M any
  '
s er
irst y
ce an
 sho ot
 o cean
 gu ess
 exc iting
 c one
 advent ur
 a dd
 S unny
 A l
x ible
in ess
il t
 st amp
 li fted
 ac orn
y al
op ard
d le
 tri ck
 se al
 sc atter
 cl umsy
 Jen ny
ang le
ag es
S orry
 wr ote
 past a
 hair y
 c ush
 adventur ous
l ace
W here
 un l
 pick s
 neck lace
 lo yal
 cra zy
 cat s
 bo dy
 ar row
t i
er ries
 tell s
 stu bb
 ho se
 harm less
 ex am
 d epend
 com fortable
 co st
 bra ce
 b erries
x ious
ur key
i ant
am ond
a pped
 sear ched
 del iver
 beh ave
t ti
he tti
ag hetti
 organ ized
 eng ine
 di amond
 an xious
g u
epend ent
M olly
 stubb orn
 rem ind
 mo v
 f is
 cray on
 coll ect
l ight
 th irsty
 t urkey
 sw e
 stret ch
 sc r
 pract iced
 play ful
 Em ily
h ost
an ged
 wor d
 t ied
 p ir
 mail box
 j ug
 gl oomy
 f rag
 en vel
 en v
 bu bbles
l ph
ill a
d ile
co dile
ant s
 your s
 sp aghetti
 re p
 r aced
 pr un
 pol ice
 ind ependent
 fle xible
 craw l
 bath room
 bar ber
H ow
 s il
 pr o
 esc ape
 de er
 cra ck
 E ven
 pig e
 pass ed
 mot or
 li z
 g host
 frag ile
  U
a ff
 need s
 jo lly
 depend able
 de af
 celebr ate
sh ine
i o
 whe at
 sto ve
 r oof
 r at
 f ig
 do ve
 do lph
 che ss
 be es
 Wh ile
c ident
 st at
 ra ven
 le opard
 fl ash
 cro codile
 bri ll
 att ic
n ic
 y arn
 sun g
 show s
 pain ting
 p ress
 m ap
 lo g
 expl ained
 ch anged
 brill iant
 boy s
g round
The ir
I f
 we al
 th u
 pic nic
 hum ble
 col our
 z ip
 tri cks
 sh iver
 m ill
 craw led
 bo ard
  er
n el
h ip
 us ing
 temp le
 ignor ant
 envel ope
 ch oose
w eet
l asses
i v
M e
M ama
 sung lasses
 s end
 ru ined
 h oop
 friends hip
 fr ame
 cheer ful
 balloon s
 av oc
n et
m et
in ary
 ra ft
 pop ular
 pe pper
 kn ee
 fo lder
 count ed
 bu ilt
 bott om
 bat ter
 ac cident
m ost
id dle
 wa ves
 st ones
 spot ted
 ro se
 p ants
 hel met
 delic ate
 comp et
w ork
ul u
ig ator
E very
 tri angle
 to ast
 sun shine
 sp ill
 sc reen
 kiss ed
 j ack
 env ious
ump et
fe e
f fee
er able
 tr umpet
 st age
 s ighed
 mis erable
 m iddle
 loud er
 liz ard
 clean ing
 care less
 You r
y ing
it her
J ane
 wa nder
 vegetable s
 tun nel
 stat ue
 ser ious
 sc ale
 pige on
 p ow
 impress ive
 har sh
 fing er
 al most
  No
se um
ia ble
 sa iled
 ma ze
 ho pping
 brace let
 bor row
 bel t
 all igator
 S h
 sl ipped
 no sy
 nap kin
 mu seum
 me ant
 gu ard
 fig ure
 ear th
The re
 was hed
 ta ken
 sa us
 po st
 pen ny
 com pl
 b in
 att ract
M um
 rel iable
 r h
 neighb or
 mov ie
 jelly fish
 jack et
 hurt s
 happ iness
 g ar
 co ffee
 c ries
 c oo
ct op
ber ries
 ord inary
 kn ight
 g or
 fil thy
 attract ive
as er
 weal thy
 sh ore
 rad io
 on es
 g em
 cush ion
 c am
ut om
utom ob
utomob ile
ipp er
 walk s
 pe ach
 muff in
 mag net
 for ward
 c ab
 box es
 belong ed
l ive
 t ag
 shell s
 sh ade
 pour ed
 no d
 lo cked
 gor illa
 cam era
z zy
p ack
ll ip
llip op
 whisp ered
 reg ular
 pers ist
 lo llipop
 fl uffy
 dolph in
 cab in
 boat s
 answ ered
 a utomobile
on y
ex t
a ppy
 t imes
 no ds
 gi ving
 draw er
 des k
d om
 smo ke
 sail or
 mu le
 lo ad
 f our
 cre ate
 compet it
 M iss
ut h
om es
ctop us
co a
c les
 tra vel
 say ing
 lot ion
 ju dge
 g um
 ch u
ink y
et e
 w itch
 tw ig
 strong er
 sn iff
 shr imp
 del ight
 cup board
 chu bby
 an g
 To day
 J ake
u nd
ic t
g ing
G o
 w ool
 success ful
 return ed
 li br
 inv ited
 house s
 gar age
 bu bble
ur b
ess ie
 supp ort
 show ing
 nice ly
 need le
 mo le
 live ly
 le an
 help less
mb re
Wh o
 y et
 u mbre
 persist ent
 mo der
 help s
 gr own
 fear ful
 d ough
 al ert
ie f
an ut
 tr unk
 sque e
 sol ve
 sh ine
 sco ot
 rad ish
 get s
 fr idge
 dream s
 dist urb
 cl ub
an ger
 val ue
 sleep ing
 o ctopus
 moder n
 li cked
 l ow
 dec ide
 coo ked
 bed room
 L ulu
o in
 re pe
 loud ly
 creat ure
 ce re
 car p
 boun ced
ot ter
 wis hes
 way s
 un cle
 t ire
 t ank
 spe ed
 spe ak
 sor t
 s le
 qu ar
 h ive
 d ive
 c ity
 b ase
 ac ce
 S n
  otter
en se
az z
 umbre lla
 tr uth
 thu nder
 spl it
 learn ing
 hard er
 h ipp
 g ym
 er aser
 cand le
or able
Sara h
 st ation
 sp end
 rep air
 l it
x y
ri c
il ty
c ut
 or der
 m op
 m ild
 gu ilty
 f ather
 cher ries
 ch alk
 cere al
y e
ul if
ir on
B illy
 wheel s
 we ek
 v ine
 th ief
 quar rel
 poin ting
 jewel ry
 j et
 flash light
 co coa
 big gest
ter n
at ient
 so ar
 s ink
 kn ot
 imp atient
 h omes
 gra ce
 f ountain
 ca ulif
 ca ct
 ad orable
 Tr ue
 R ob
  ed
g en
as ing
 pow der
 libr ary
 happen ing
 carp et
 cact us
 swe ater
 st ream
 sk ipped
 pen gu
 off ice
 her b
 for th
 c ase
t en
ke ep
ir it
arm ing
Bob o
 st aff
 sh ield
 l ying
 ha lf
 gra ndpa
 for k
 fl ute
 fis her
 Do lly
ra ge
r n
or y
ob y
j ect
is ted
 when ever
 hipp o
 hand le
 gra pes
 ch arming
es day
ass ion
 val u
 tri pped
 sk in
 feather s
 count ing
 caulif lower
 ang el
z ed
p ed
lev ator
ach t
 tick et
 thin king
 them selves
 t ap
 straw berry
 sle pt
 mar ry
 l ed
 know s
 h unt
 e levator
 des ign
 avoc ado
 P eter
w as
was her
leph one
ed y
 y acht
 wra pped
 te lephone
 sp un
 gif ted
 e ventually
 dish washer
 compl ain
 competit ive
ell ig
 sk ip
 shr ink
 int ellig
 exc ite
  iron
M ummy
 tr ay
 tow ers
 sa uce
 qu it
 ph oto
 hair cut
 gather ed
 fle a
 disapp oin
 comp assion
ri ll
at es
 w ire
 po le
 po em
 pir ate
 n urse
 gigg led
 decor ate
 d eter
 an ch
 T weet
 R ose
ul ance
op l
er opl
el ery
b ulance
J im
 wa ff
 valu able
 to rn
 to e
 sh ape
 rest less
 quest ion
 ha m
 ear s
 cri cket
 anch or
 am bulance
 a eropl
F luffy
 y aw
 v ide
 slid es
 n umb
 hot el
 deter m
 button s
 bar rel
is ion
at s
ag ed
ac he
G ive
 str anger
 set t
 ed ge
bo dy
at ing
 z ipper
 w ife
 unl ock
 tra il
 tear s
 sh ut
 s ight
 pat tern
 numb ers
 me al
 c elery
 b ull
o ld
 we igh
 tra p
 spin ning
 sal t
 ri bb
 p it
 mean s
 laugh s
 intellig ent
 fisher man
 disappoin ted
 compassion ate
 bus hes
 Jim my
 B oun
d el
?" .
 p le
 mo del
 comp ut
 card board
 banan as
sp it
spit al
keep er
ie w
he ad
 wall s
 v iew
 sur f
 sold ier
 pe ar
 new sp
 m ug
 ju icy
 in k
 ho spital
 e ither
 T oby
 P ete
 K im
qu it
quit o
oph ie
de st
 sh ort
 r id
 o il
 m itten
 c urt
 bird c
 a dded
n am
ent ion
M r
' d
 suc ce
 sp ear
 sil ver
 saf ely
 pre p
 pe e
 p ap
 p al
 n ail
 dist ant
 curt ain
 birdc age
 Pe ople
us hed
s quito
!" .
 spill ed
 mo squito
 en c
 cri b
ut es
ur ing
up er
r on
f a
a ving
 yog urt
 wip ed
 t ummy
 t ask
 ro de
 quest ions
 play ground
 pain ter
 pa le
 p urse
 light s
 lab el
 dream ed
 cost ume
 co ins
 c ob
 bike s
 b ump
 Bu zz
p ar
 succe ed
 sp irit
 sho cked
 rub ber
 pretend ing
 motor cy
 min utes
 grace ful
 gl ove
 aeropl ane
 O K
ur ch
op ter
oc er
in ocer
ic opter
at ely
a it
, ”
 st ack
 saus age
 pro v
 pal ace
 p or
 it self
 hel icopter
 fall s
 d ust
 comput er
 coll ar
 co al
 ch ain
 L ittle
u el
st al
r iger
riger ator
nam ent
inocer os
 scoot er
 p un
 or nament
 kn ob
 kind ness
 cry stal
uc et
 step s
 ro d
 par ade
 pa cked
 o ak
 m elt
 l ime
 go lf
 g ear
 fa ucet
 a x
 T eddy
umb led
 ve nd
 th ose
 ref rigerator
 newsp aper
 mo dest
 li e
 le ash
 h our
 ey e
 base ball
 Every where
ug ged
rew ork
lev ision
il ot
c ing
I s
 se par
 s uper
 rh inoceros
 pick ing
 mat t
 make up
 li c
 hat e
 fi rework
 f og
 dri ving
 disapp eared
 comp let
 c able
 brother s
 av ail
 B ill
st ri
amp oo
 vide o
 te levision
 swing ing
 so fa
 ser ve
 res c
 p ine
 on ion
 of ten
 no vel
 lic ense
 in se
 Sp ike
 G ive
t ime
r oph
a ked
W ell
 sp ell
 ru bbed
 pol ish
 med al
 man aged
 m ath
 ha ll
 h ook
 determ ined
 cup s
 ch urch
 ax e
 avail able
 C l
 Bird y
we b
roph one
 tall er
 spark ly
 sc rew
 por ch
 miss ile
 me adow
 draw ings
 disapp ear
 cool er
 cob web
 bag s
 al arm
 M um
 F o
 B et
st airs
ht ub
d robe
c key
ar ry
 war drobe
 vend or
 star ed
 pengu in
 met al
 ho ckey
 gr owl
 di ary
 climb ing
 books he
 bat htub
 basket ball
 band age
  ig
us ia
re ady
l oo
h usia
er c
B ye
 ve il
 th read
 roll ing
 ri ce
 o stri
 min er
 me at
 m ay
 ig loo
 hur ry
 gas ped
 ent husia
 cher ry
 bookshe lf
 batter y
 al ready
 John ny
om ed
W ait
R e
 sw ung
 stu d
 stret ched
 ro ot
 r ise
 pap ers
 organ ize
 mag az
 kn ock
 it ch
 inse ct
 hunt er
 gra pe
 expl ain
 c omet
 Sn ow
 P ipp
ver se
ist ol
af fe
S ee
A l
 ob ject
 o k
 not ice
 motorcy cle
 mic rophone
 matt ress
 m ummy
 l umber
 b icy
ric ane
n ger
 sn ap
 real ised
 re ward
 p istol
 p ilot
 must ache
 imp ro
 fl ame
 ex erc
 enc ou
 dream ing
 d ess
 cook ing
 ar g
omet er
lc an
as p
a ul
G ra
 win ter
 wall et
 vo lcan
 un pack
 tr oph
 sug gest
 she et
 joke s
 fl our
 f ought
 black board
 Z oomy
rm ometer
l ter
ip e
ian o
ac hes
 pe anut
 past ry
 net work
 fall ing
 buck le
 bl in
 bicy cle
 L ee
a id
O uch
 volcan o
 v i
 truck s
 troph y
 sun set
 sh ampoo
 r ake
 call ing
 c amp
 b ent
ak y
 we ep
 st om
 press ed
 pract ice
 p iano
 ostri ch
 ne at
 dra in
 bee f
 att ach
 P andy
ur ed
l ies
asp oon
ang u
 train s
 te aspoon
 sweet ie
 st able
 she lter
 po ke
 pack age
 me m
 hum an
 hour s
 hang ing
 ham mer
 bu ry
 ap ron
um mer
bo l
ar oo
ang aroo
 tra ck
 squirrel s
 sn e
 s ym
 r ag
 pat ch
 off ered
 mess age
 mar ched
 k angaroo
 in s
 h ut
 enjoy ing
 discover ed
 cr ane
 bl ouse
 again st
  ow
z ag
u be
pl ay
ig zag
ctor y
 u r
 t ube
 sym bol
 sk ull
 sk irt
 prun es
 pass port
 magaz ine
 l end
 l angu
 fa ctory
 ear ly
 dis play
 J o
at ure
 st airs
 sho vel
 pre vent
 pee ked
 n ation
 hold s
 frog s
 fing ers
 f uel
 excite ment
 F ro
st ic
L ittle
 un iver
 t en
 s on
 r ot
 per m
 on ce
 li p
 journ al
 enthusia stic
 dess ert
 che ck
 cast les
 c ell
 bat he
 accident ally
 Z ip
 L ook
 B essie
le ton
ke leton
 yog a
 the ater
 po pped
 open s
 o y
 kn e
 j unk
 happ ier
 free z
 foot ball
 cu be
 D an
i um
i ence
ff ic
 zoom ed
 the rmometer
 tell ing
 sh aking
 s keleton
 read ing
 p ipe
 mat ches
 loo p
 he dge
 grow ing
 f ive
 c ord
 bath robe
 all owed
 He re
 Bu zzy
xy gen
in ation
c ome
az or
 sl ipp
 rest ore
 fast est
 dist ance
 dis ag
  
n ey
ion ary
in es
ict ionary
 st umbled
 pin ch
 listen ing
 ha nger
her o
c ase
 vi ol
 super hero
 stir red
 ribb on
 plan et
 pe ek
 go al
 fil m
 d ictionary
 adm ire
 a head
f ast
S h
J oe
 viol in
 tra sh
 to ile
 surpr ises
 stick ers
 re verse
 help er
 g az
 complet e
 ch ose
 bri ck
 al ive
 T ina
 M ummy
ast ic
ar ian
 str ugg
 stop s
 s ub
 po ppy
 p ony
 jump s
 ch asing
und ry
pl ace
ie st
c u
ap on
J ill
 respect ful
 ra il
 miner al
 la undry
 freez er
 does n
 cir cles
 c udd
 break fast
 blin ked
 b ill
 acce pt
 E llie
st iv
stiv al
re nder
l id
ch an
 ve st
 toile t
 to oth
 sw itch
 stri p
 s ummer
 re fused
 play er
 le aving
 la ser
 hur ricane
 g rill
 fe stival
 exerc ise
 be et
lid ay
ad ium
 waff le
 st adium
 lion s
 le ak
 langu age
 ho liday
 fire place
 door s
 cabin et
 Mr s
ht ray
D id
 tw ir
 spo ke
 sniff ed
 snee ze
 search ing
 ru les
 ple ased
 monkey s
 min t
 me owed
 m en
 b erry
 air port
 Z oom
 E lly
w ards
m ed
ic hes
O w
E m
 tra ffic
 tight ly
 t ip
 sl ap
 sandw iches
 ro ared
 r azor
 o ats
 lem ons
 law n
 forg ave
 fav our
 com fort
 Bet ty
k i
in ce
im ney
ig gly
chan ic
 window s
 stom ach
 stick er
 sl ip
 separ ate
 s ent
 pl astic
 pa ir
 ob ser
 n ature
 meet ing
 me chanic
 find s
 favour ite
 ch imney
 car ing
 c ur
 boot s
 as htray
 any way
 ag ree
 O r
 M ar
s ses
em ent
 un ite
 tomato es
 res ist
 mix er
 light ning
 grab s
 en er
 cow s
 bre at
 blue berry
 beet le
 bark ing
 J azz
y ear
h ic
 ve hic
 sub way
 sp ort
 poin t
 po ked
 min ute
 letter s
 imag ine
 ho les
 gir affe
 class room
 c ards
 belong s
 A re
  Y
n ight
l a
ht er
b ook
ay ak
am ber
 rem ove
 oy ster
 note book
 mistake s
 laug hter
 k ayak
 inv ite
 fl ood
 bill board
 S ophie
 Pipp in
 Boun ce
 B ig
t e
ap a
 y ield
 rem ain
 r ac
 pudd les
 o xygen
 nam es
 music ian
 lean ed
 impro ve
 hand ed
 count ry
 cart oon
 Al ice
ch air
c ast
Jim my
 wh ip
 war ned
 war n
 swam p
 spo il
 sand cast
 s udden
 s ize
 proud ly
 problem s
 glow ing
 cou rage
 ch amber
 book case
 S andy
v ice
ol a
le nd
in arian
ig i
eter inarian
e b
 wip e
 w ine
 straw berries
 sad ly
 pus hes
 pull s
 law y
 danc er
 be ep
 ab ove
 R u
is on
 tr ade
 sur render
 so il
 slipp ery
 sand box
 resc ue
 pan ic
 p ages
 n avy
 frown ed
 f re
 co pper
 cl iff
 ce iling
 butterf lies
 app l
 C o
us ie
ro d
em ember
col i
c coli
 v eterinarian
 te ase
 re ce
 plan es
 p age
 kne el
 kind s
 inc re
 for t
 feel ings
 carry ing
 arm chair
 ar t
 P olly
 O w
  x
g ie
ec ause
eb ra
au d
 we apon
 st air
 repe at
 prov ide
 int rod
 ign ore
 ener gy
 del ay
 bright ly
 belie ved
sc ope
ro scope
n esday
lend ar
l u
ed nesday
c er
and a
 was te
 tool s
 some where
 shake s
 reg ret
 pray ed
 p ed
 mail man
 l id
 he at
 ca lendar
 P aul
ol og
l ow
im ed
 z ebra
 sound ed
 sandcast le
 sa ving
 remind ed
 old er
 no body
 me as
 li ves
 keep ing
 ap olog
 ad vice
 a w
 W here
 Go d
it ation
el come
You r
 vehic le
 ra ise
 pri ce
 myster y
 lawy er
 free ze
 fl ies
 ex t
 cho ice
 can e
 any where
he st
e er
 t ax
 suggest ed
 star ts
 soft ly
 shout s
 sh one
 room s
 r ushed
 let ting
 inc lu
 imag ined
 happen s
 de ar
 cross ed
 colour ful
 chair s
 break s
 S u
 Gra ndpa
ore s
og n
le x
aur ant
all ey
ag gie
 tax i
 squee ze
 smell s
 rest aurant
 repl ace
 rec ogn
 p itch
 excited ly
 eat en
 chick ens
 appl aud
 W iggly
 P apa
 N ext
 G igi
or ge
ind eer
e orge
app ing
N ext
M ary
M ark
 v alley
 tre m
 t ub
 ste am
 re indeer
 ran ch
 rain ed
 o live
 g ain
 f ile
 cont ent
 bro ccoli
 blow ing
 C arl
arl ie
 mic roscope
 ext ra
 end ed
 e qu
 dis hes
 W ould
 W ednesday
 St e
  V
ut or
n a
er o
ec ted
Y uck
Y ay
 torn ado
 sp ade
 snee zed
 re ve
 prep are
 ma ss
 hun g
 fre sh
 e vent
 delight ed
 d are
 chew ed
 boun cing
 blue berries
 bark s
v et
t ain
gg y
W ill
D aisy
 t utor
 sett le
 sco ld
 rid ing
 po ison
 my self
 hop ing
 head s
 g ro
 ch ance
 arg ue
 F l
ill ie
ac ation
Re ady
 v acation
 shr ugged
 qu iz
 op era
 Fred dy
 B inky
ip ment
cu ss
as is
Q u
 we ather
 sk ill
 shiver ing
 se as
 s uff
 prin ts
 miss ing
 gigg le
 flo at
 even ing
 equ ipment
 ent er
 dis cuss
 ch ores
 burn ed
 be nd
 ba king
 Sp ark
 E nd
uc ture
n oon
ac ked
 thank s
 str ucture
 st y
 reve al
 pus hing
 prun e
 o asis
 m ention
 inv itation
 fix ing
 after noon
k y
in king
he art
 yaw ned
 wr iting
 trust ed
 throw s
 throw ing
 spot s
 so cks
 puzz les
 pl aced
 perf ume
 hill s
 gra nd
 d em
 bump ed
 U nder
 L illy
s ity
ott en
an a
A nn
 tra cks
 par ts
 m all
 l uck
 ins isted
 coat s
 cap tain
 bel ow
 bean s
 M ike
que aky
h appy
e f
C h
B uddy
" ,
 sweet heart
 stick y
 show er
 should er
 se w
 s igh
 prin ted
 past el
 follow ing
 cla w
 car ed
 bright er
 M e
v a
pe edy
om m
omm end
N ot
A ll
 un happy
 teach ing
 rec ommend
 pun ish
 p anda
 impress ed
 gre edy
 ex pect
 U n
 B ow
ugg age
l ook
if orm
ation s
 un iform
 exp er
 deep er
 cand les
 be g
 R o
 H oppy
 H ave
n ce
l p
en ry
J enny
Dad dy
Be fore
 y ucky
 we ight
 to ur
 spray ed
 splas hing
 spark led
 sc ore
 l uggage
 he n
 eas ily
 cu b
 cla pping
 P enny
 E ventually
 C he
look ing
itten s
ar nt
S urpr
 whisp er
 ste el
 s ir
 rac ing
 lemon ade
 le arnt
 ignor ed
 follow s
 destroy ed
 che cked
 He lp
urn it
urnit ure
uc ked
ri age
h ood
ec ting
co nd
ar i
ang es
M imi
 worm s
 w igg
 van ished
 up stairs
 trem ble
 sp r
 sell ing
 se cond
 scatter ed
 perm it
 fr o
 f urniture
 chee k
 ch irp
 bu ried
 When ever
 S usie
 O live
we en
uc t
ree k
i ki
ent s
W elcome
 whist led
 v room
 stre ng
 sor ting
 re ef
 jog ged
 j ail
 ent ered
 dem and
 c reek
 bet ween
 bad ly
 Snow y
 I s
red ient
la imed
ing redient
id es
ec ture
 w re
 th umb
 supp ly
 sty le
 r ush
 qu ite
 poin ts
 pa id
 mass age
 mar ble
 l ecture
 hop es
 exc laimed
 count er
 claw s
 bri cks
 Fro ggy
  ingredient
  

iz es
Surpr ise
 streng th
 seat s
 scr atch
 r ow
 pet als
 p ort
 neighb our
 hurt ing
 gr ant
 cut ting
 climb s
 breat he
 b other
 S queaky
 P r
g es
The se
Al ice
  
 t ug
 shop keeper
 rain ing
 put ting
 men u
 mar riage
 cake s
 bear s
 all ow
 Wh o
 S peedy
 S m
 M ittens
urt her
re sses
 work s
 wag s
 wa ving
 star ting
 sn ail
 prin ter
 pig s
 ingredient s
 he el
 forg otten
 explor ed
 ag re
 adm ired
 L ola
 Gra ce
 A lex
r ight
eci ally
Gra ndma
B ecause
 wre ck
 was hing
 so c
 shin ed
 sc oop
 sail ing
 pl ates
 obser ve
 jog ging
 introd uce
 h on
 fall en
 f urther
 eager ly
 drop s
 differe nce
 d aisy
 bal an
 ap art
 Fin n
th ank
sp ecially
at ched
 t una
 stri ke
 soc cer
 p up
 flo ated
 d uring
 bl ood
 ac ted
 Sh aring
 M aggie
re at
ic er
er ation
 yaw n
 wor th
 war ning
 wander ed
 to ng
 stud ied
 r ul
 play s
 plan ted
 move s
 incre ase
 hor ses
 hig hest
 fold ed
 fl apped
 e specially
 bu zz
 beaut y
 T illy
 R emember
 N ana
u esday
s hed
ree ze
que st
qu ake
B l
B ella
. .
 water ed
 ur ge
 shout ing
 re aches
 present s
 o h
 king dom
 gi ven
 fam il
 exam ine
 con f
 T uesday
 Ow l
 L izzy
 K iki
 Every thing
un ately
ra ged
med i
medi ately
m en
b or
F red
E lla
 univer sity
 tw isted
 sor ts
 sol ved
 so ak
 sn apped
 sl apped
 scold ed
 quiet ly
 land s
 har bor
 gift s
 elephant s
 earth quake
 dress ed
 br ings
 b ak
 S ee
 Co co
 Ch arlie
omed ay
L eo
 z igzag
 z ero
 tong ue
 sn ugg
 sit s
 re quest
 p ur
 in st
 hear ts
 had n
 exper ience
 cur led
 cra sh
 M illy
 D ave
ster day
s ed
p ted
is ses
e sterday
Every one
Em ma
 wis dom
 we st
 tra ve
 slid ing
 plan ned
 or anges
 op eration
 mem ory
 m ister
 k isses
 im age
 com f
 L e
 K ate
 Bu bbles
r ise
ipp ing
e ath
d o
 wor se
 t ide
 stuff ed
 squee zed
 skill s
 s omeday
 s izes
 rul er
 pret t
 pa used
 li cks
 field s
 boun cy
 att ached
 Ru by
 G ood
 Fin ny
or ies
m m
at ie
ad ed
W oof
' ve
 suff er
 sor ted
 sh ot
 s ince
 re lease
 pull ing
 man age
 m ama
 imag ination
 ide as
 encou rage
 colour s
 catch ing
 c ape
 app ear
 acce pted
 A bby
To day
H a
 zoo keeper
 welc omed
 twir led
 to night
 pe arl
 pe aches
 new s
 meas ured
 m ice
 im mediately
 d ried
 blanket s
 b ones
 att ention
 T oto
 R ock
 B op
y th
st ers
ind y
i ppy
h ouse
ct ion
W ith
 whist ling
 wag ging
 t ucked
 sun rise
 sp ike
 sett led
 seas on
 rabbit s
 peanut s
 mel ted
 le ather
 growl ed
 close ly
 celebr ated
 call s
 S ky
 R os
 P ip
 M illie
 G eorge
 Be fore
 B ee
up s
or ed
ip s
et ch
c ery
R emy
 win ning
 tast es
 steal ing
 s i
 rem ained
 recogn ize
 rece ive
 qu ack
 our s
 mar ried
 gro cery
 gl o
 fire man
 down stairs
 disag reed
 d resses
 b le
 Z ara
 M o
 H o
w alk
und ay
r ank
is ing
fort unately
Bl ue
 z ipped
 wood en
 understand ing
 tre mb
 to re
 to es
 sur round
 str o
 stir ring
 so aked
 snugg led
 side walk
 she d
 saf ari
 pun ished
 p alm
 mem ories
 lip s
 in f
 glo ves
 em er
 eas ier
 b ang
 W ally
 Ste ve
 S unday
 P at
 H ope
 Cl ara
yth m
ick y
ic ing
dd y
d ing
B ird
 univer se
 stra ight
 snow ball
 see ing
 ran g
 potato es
 is n
 hit s
 encou raged
 creature s
 collect ion
 bre aking
 back pack
 ba ked
 R ed
 Fo x
 Dan ny
r r
op s
i en
P eter
O k
 tremb ling
 ring ing
 ra ised
 pir ates
 ped al
 off er
 l ung
 gr in
 gaz ed
 flo ating
 fl ap
 acorn s
 Su zy
 Sm ith
 R ay
 J ess
 H enry
 A va
s ing
it es
is dom
e ep
b les
ap ed
ab ies
L isa
 wait s
 w ob
 unl ocked
 sp it
 should n
 sho pping
 relax ed
 pe bbles
 p ad
 mus cles
 land sc
 kit es
 kick ing
 inclu de
 her s
 fl at
 firework s
 fire f
 craw ling
 br us
 bit es
 b abies
 al right
 E ach
 B aby
or ted
igg ing
ic orn
W ould
 we b
 wat ches
 un icorn
 s imp
 famil ies
 d ared
 bra in
 ble ed
 app ro
 Z igzag
 Rob by
 M andy
 Fo llow
t her
k ins
id s
et y
all en
Mom o
 vis ited
 tall est
 sne ak
 shadow s
 saf ety
 rest ing
 pet ted
 op in
 mouth s
 mat ched
 kneel ed
 keep s
 k itty
 inst r
 girl s
 ex it
 dr inking
 d igging
 chew ing
 ch allen
 bed s
 b reeze
 S un
 Ros ie
 J ames
um es
u zz
re c
l vet
l er
ish y
is hing
ell e
 weep ing
 we ighed
 ve lvet
 v et
 under ground
 study ing
 st itch
 sil ence
 ser ved
 play time
 pile s
 ord ered
 n one
 mu ddy
 la id
 l ined
 disag ree
 cartoon s
 amaz ement
 Z oe
 The se
 S low
 Mar ia
 M el
 K ing
rec i
or al
ch ie
av id
T r
!" ,
! '
 win ner
 van ish
 tw ink
 treasure s
 spoon s
 sign s
 set ting
 root s
 road s
 repe ated
 now here
 n apping
 mix ing
 li ck
 landsc ape
 g ust
 cr unch
 cost umes
 by e
 app reci
 Somet hing
 N ot
 L ucky
r s
o ved
iz ing
c oon
a ved
Y um
Thank s
John ny
Bob by
. '
 voice s
 ur ged
 str ang
 sister s
 saus ages
 s ix
 s ip
 rh ythm
 pin ched
 pet s
 perfect ly
 j azz
 import ance
 happ iest
 emer gen
 decor ations
 decor ated
 W isdom
 T ony
 L ater
 Boun cy
 B ree
  Qu
um ble
sh ion
oy s
S p
 wa ist
 w ink
 res ult
 prep ared
 pattern s
 p ra
 mention ed
 let s
 l ily
 knight s
 inf ant
 guess ed
 fa shion
 draw s
 d ire
 cle aring
 agre ement
 T ed
 Pe anut
 O ut
 H arry
ss ible
pl ash
om ing
ist en
ir ts
i ers
he llo
en a
Sam my
H appy
D og
 waff les
 turn ing
 th rill
 strang ers
 spr ink
 scr u
 poem s
 ph ot
 our selves
 no on
 moment s
 mark s
 kn own
 hur ried
 esc aped
 eag le
 crunch y
 be ard
 adm ir
 L iz
 F rank
 B oth
z en
sh ip
p lease
it ies
ant ly
S ophie
M oral
J en
Em ily
 spend ing
 sold iers
 ru in
 ri pped
 pillow s
 pe el
 log s
 l imes
 grin ned
 gr an
 go als
 fro zen
 forg i
 f etch
 ex pected
 disturb ed
 cudd led
 cra shed
 brave ly
 br id
 bow ed
 beh aved
 apolog ized
 W atch
 Pr in
 C ar
ve st
udd les
t ory
is hes
i ved
d ed
ac ob
C at
 strugg le
 phot os
 match ing
 l ines
 kn elt
 his tory
 gu y
 g ained
 fis hing
 emergen cy
 dad s
 coll ecting
 ben eath
 Joe y
 D id
 C uddles
x ture
u d
om as
ct ly
ch oo
ar th
W atch
Good bye
 wonder ing
 warm th
 tra pped
 te xture
 so re
 so ared
 sl ice
 sk ipping
 rest ed
 res p
 p ies
 me ow
 it em
 he s
 drink s
 dragon s
 coll ected
 challen ge
 burn ing
 build ings
 brid ges
 beg ged
 be at
 answ ers
 Rock y
 Jo sh
 It s
 H op
a les
D ucky
And y
 wigg le
 th reat
 stamp s
 simp le
 scream s
 scr atched
 sc aring
 pra ised
 opin ion
 li ed
 kind ly
 crab s
 appro ached
 ag o
 So f
 H appy
 B ug
 B o
ut ter
u ry
it i
ic a
h ind
em b
b ug
ake s
M iss
 wonder s
 twig s
 their s
 te asing
 spark ling
 scru bbed
 olive s
 neighbor hood
 lady bug
 gold en
 gather ing
 e ast
 comf y
 br ushed
 bo om
 bl ink
 St op
 St itch
 K atie
z ing
vest ig
m are
l ier
in o
emb ers
bb ing
Re ally
E ventually
Ben ny
 teac hes
 t im
 str ings
 st ing
 sl im
 should ers
 ro pes
 rem embers
 night mare
 muff ins
 jo king
 in vestig
 herb s
 gran ted
 gaz e
 f ed
 e ff
 cop y
 bro om
 be amed
 an n
 L ou
 D are
 Cat ty
 Be ing
w h
ur ry
ue st
riend s
os ed
og o
an ny
ad os
S andy
P oppy
M mm
 zoom ing
 wr ites
 tw in
 trip s
 thrill ed
 swim s
 spark le
 sne aked
 slim y
 sh ock
 ro aring
 ref u
 record ed
 rece ived
 pencil s
 ped als
 part ies
 march ing
 loo se
 investig ate
 his sed
 head ed
 hard ly
 gre y
 glow ed
 eat s
 dog gy
 d ot
 cub es
 cre ated
 brus hes
 avoc ados
 arg ued
 al ien
 air pl
 act iv
 a we
 Spark y
 Some one
 P inky
 Miss ile
 M ay
 I zzy
 H enny
 Al ways
x ury
ul ie
u xury
u ke
pp ers
m other
i am
el vet
ara way
all ow
a h
U n
  
 you th
 wear s
 w ed
 trave led
 t ugged
 sweet ies
 supp osed
 stud ents
 stretch ing
 stick ing
 ste ep
 scream ing
 rem oved
 rem ote
 rad ishes
 pot s
 n icer
 mountain s
 melt ing
 mar bles
 ma ster
 lo ving
 lead er
 keep er
 jewel s
 in ch
 heal ed
 g uest
 f araway
 eff ort
 dest ination
 dec ides
 chirp ed
 cheer ing
 c row
 balan cing
 are a
 T w
 T iti
 S qu
 S plash
 F irst
 Do do
 C indy
 Ann ie
” .
os ity
l oe
iss ion
he e
Tr ue
T ime
Sh h
O llie
J ames
C l
 yell ing
 tri cked
 stri pes
 snake s
 sl ed
 sit u
 reveal ed
 real ize
 pray ing
 pr op
 pol ished
 own ed
 mon sters
 ha ted
 h itting
 des er
 deliver ed
 clap s
 c ough
 bucket s
 S ad
 M oon
 M on
 C ra
  Yes
j am
b oo
aw s
av i
ag ull
aff es
E x
B oo
 where ver
 tick le
 tal ent
 stay ing
 seem s
 secret s
 se agull
 saf er
 prov ided
 perm ission
 par ked
 open ing
 meas uring
 man e
 l uxury
 gir affes
 fr ost
 fear s
 fa ced
 ear lier
 cut s
 contin ue
 complain ing
 c rew
 be side
 bak ery
 V elvet
 T una
 J acob
 Ch icky
 B oo
 A n
  Once
  1
ust y
u es
m ies
is ty
in t
if i
h a
es ome
c us
ang ing
R ob
R o
R ex
Me ow
' .
 wind y
 touch ing
 tail s
 swe at
 strugg led
 shoot ing
 ru le
 refu se
 re le
 pup il
 prop er
 pan s
 paint s
 magnet s
 horn s
 hero es
 feed ing
 dust y
 disco very
 dark er
 cand ies
 bleed ing
 b are
 aw esome
 admir ing
 act ually
 act ions
 act ing
 E arth
 D uck
 D avid
uck ily
qu id
p ie
ou ch
or a
n ers
l s
i ar
d ies
ant a
a ster
St ay
J o
 week s
 wed ding
 was ted
 want ing
 w iz
 val ued
 v ict
 tw isty
 tun e
 to ss
 tim er
 team work
 surround ed
 strugg ling
 spray ing
 space ship
 sne aky
 shr ug
 rest ored
 prett iest
 patient ly
 on wards
 o be
 neighbour hood
 neighb ors
 li quid
 hes it
 helmet s
 gl asses
 food s
 flag s
 dinosaur s
 d ied
 cre ation
 cont est
 cont ain
 comp any
 bed time
 aw ake
 W ater
 Ro ver
 R e
 K ids
 D ino
 B ye
sc reen
ri an
le e
g o
ent y
com pl
b and
as hed
am ie
ad s
T iny
G eorge
E w
 work er
 succeed ed
 st are
 sight s
 si ren
 scoot ers
 s ings
 recogn ized
 qu acked
 pro ject
 pr ide
 pol ishing
 po king
 pay ing
 paint ings
 obe y
 load ed
 ins ist
 gl itter
 frost ing
 cre pt
 che f
 cat ches
 bloom ed
 appreci ate
 a chie
 Sp ring
 Slow ly
 S anta
 Qu ick
 L ike
 K eep
 K ay
  X
ul p
uff in
uct ions
sc in
n ie
ay s
Wh iskers
R emember
P ete
P aul
Mr s
D uring
.. ."
 tr aded
 thu d
 splas hes
 sigh s
 se ven
 scoop ed
 scatter ing
 ribb ons
 resc ued
 pre c
 pengu ins
 pear s
 pe ppers
 pat ience
 passport s
 nail s
 mitten s
 m es
 instr uctions
 hon k
 h i
 guy s
 fl utter
 fl av
 fa scin
 e ight
 di ving
 demand ed
 cush ions
 con es
 comp le
 com m
 celebr ation
 bring ing
 blow s
 bloom ing
 be ads
 balan ced
 airpl ane
 ac compl
 L uke
 L enny
 J essie
 Fro g
 F ifi
 Every day
 D r
 Bl ink
 A lly
z ie
ul ts
uct antly
le ts
l ict
ig gy
d ie
b ig
Z oomy
U h
O ur
L una
J ake
H ave
F o
F irst
B ad
A choo
 wiz ard
 visit ing
 vill ag
 us ual
 unt ie
 un f
 to dd
 star fish
 sc ales
 sad ness
 remind er
 ref re
 pur red
 prot ecting
 prot ected
 p ause
 organ izing
 off icer
 o at
 miss ion
 learn s
 lay ing
 home work
 good night
 fro ze
 explore rs
 exam ined
 dri ves
 conf lict
 bak er
 back ward
 b oo
 applaud ed
 apolog ize
 M uffin
 Le ave
 G ogo
 F riends
 Be hind
st ep
r ance
or ds
j o
id ers
er n
big ail
bb led
b l
ar ter
a ctly
a a
T weet
S omet
 y esterday
 win s
 what ever
 w ound
 vict ory
 todd ler
 str uck
 spike s
 spell s
 smile y
 small est
 sm arter
 shiver ed
 rid es
 rele ased
 rel uctantly
 record ing
 prett ier
 planet s
 pastel s
 mus cle
 lead ing
 help ers
 gun s
 firef ight
 figure s
 drag ged
 d ipped
 cra cked
 ch anging
 c ause
 bare ly
 Y esterday
 Th omas
 Pipp a
 Pe pper
 M oo
 L ove
 Jess ica
 Jen na
 Ho pper
 G reen
 G r
 G et
 E lephant
 Ch loe
 Be ep
 A m
  Q
n ies
jam as
h o
an na
T eddy
St e
S illy
M illie
J erry
Gra ndpa
A n
 warn ings
 v ent
 un ited
 sun light
 sto le
 st ern
 sprink les
 sh irts
 rocket s
 rep ly
 r ings
 prec ious
 pack ing
 inv iting
 hug ging
 fire men
 ex actly
 deliver ing
 d ie
 d am
 cover s
 cl ick
 c ous
 buzz ing
 bowl s
 beh avi
 bec oming
 b ank
 any time
 ann oy
 Squ irrel
 S ure
 Rob ert
 Ro llie
 R abbit
 Prin cess
 Me g
 Mar ie
 H ippy
 G ir
 Che w
 Bet sy
ue en
u ly
r ink
ir m
id ing
gu ing
f ied
e ah
b ly
Un fortunately
S u
O ops
M illy
A h
 wrap s
 wigg led
 who se
 were n
 w id
 villag ers
 v ines
 ticket s
 sport s
 spark les
 snowball s
 situ ation
 separ ated
 send ing
 s ense
 ref le
 quarrel ing
 prince sses
 po ssible
 pe ered
 pe as
 pa jamas
 p ins
 mis ses
 mask s
 jo ked
 introd uc
 got ten
 fa ult
 cudd le
 compl ained
 co coon
 ch ips
 arri ve
 ar guing
 activ ities
 Un fortunately
 T urtle
 T op
 St ar
 Rob o
 Q ueen
 P o
 J oy
 J illy
 H or
 D ara
 Bug gy
 B y
 B ecause
re y
d am
cu se
b ric
at ches
an ie
R u
O r
M ar
M andy
L illy
D ave
B uzz
 yell s
 wid ened
 w oof
 twir l
 trick y
 trave ll
 tra ctor
 tr uly
 th ro
 te ased
 superhero es
 start led
 sp ins
 sp iders
 some body
 sn atched
 scar ves
 s ides
 request ed
 rainbow s
 proper ly
 pow ers
 pocket s
 pl enty
 per ched
 path s
 p out
 nap s
 mot ion
 ma iled
 knock s
 kick s
 item s
 itch y
 incre ased
 impro ved
 h us
 growl ing
 group s
 gre et
 grand mother
 g ri
 forgi ving
 fore head
 fascin ated
 far ther
 fa bric
 f irm
 discover ing
 curi osity
 cudd ly
 comple ted
 choice s
 chirp ing
 ca used
 bra nd
 bounce s
 block ing
 bit ing
 bell s
 be lly
 Z ipper
 W ant
 T ara
 St ay
 Snow man
 L ena
 Ho ot
 Gir affe
 Fo xy
 F ishy
 E n
 Che ss
 B arry
v in
ut ure
th ough
step s
se ek
ink le
in ing
e ff
an es
ak er
Y eah
Somet imes
P e
L isten
H old
Ex cuse
Ch arlie
 wor ries
 us ually
 tunnel s
 thro at
 sw oop
 sw it
 stand s
 so bbed
 so aring
 shr inking
 rock ing
 ri p
 reward ed
 reach ing
 prom ises
 pop s
 police man
 pol ar
 poin ty
 obser ved
 ne ither
 n ine
 listen s
 imag es
 hon ked
 hand ful
 hall way
 gigg ling
 fold ing
 f uture
 dire ction
 di ved
 d ar
 curtain s
 creat ing
 chase s
 buzz ed
 beh aving
 b ur
 W oo
 Un cle
 Tr uck
 Spark le
 Sh adow
 S ay
 Pr ince
 P ut
 P atch
 O ak
 H olly
 Brown ie
 
y ond
ust om
ur ried
un e
t uce
ong e
n k
low ers
l ay
igg ie
id o
ed s
c akes
bl ings
b ie
as on
ang led
ab ella
S unny
Qu ack
M aggie
H enry
C ar
= =
 whisp ers
 van illa
 unt ied
 un p
 task s
 suff ered
 stay s
 star ing
 sp onge
 si blings
 sees aw
 sc urried
 sa nk
 re pa
 pretend s
 no ses
 nest s
 nap kins
 mov ies
 let tuce
 lean ing
 la p
 interest ed
 hus band
 growl s
 grow s
 gas p
 g ross
 firef ly
 every day
 dro pping
 deser ve
 d ent
 corn ers
 cont ro
 complet ely
 ch uck
 ch op
 celebr ating
 can s
 c ustom
 c ent
 brace lets
 bo dies
 be yond
 base ment
 av o
 agre es
 a st
 O lly
 Not hing
 M ouse
 How ever
 G ina
 F or
 Bird ie
ut ty
u zzy
p ite
oun ce
oo ed
joy ed
it ely
ile y
e ed
aw n
W hee
V ery
Th ose
S usie
R un
L ola
Dog gy
Ch irpy
B unny
B ig
? '
 y um
 wob bly
 wis hing
 vent ured
 v owed
 tick led
 te aring
 sweet s
 surf ace
 supp lies
 square s
 squ ishy
 spread ing
 spe aking
 sl am
 sing er
 sail s
 repl aced
 repa ired
 read s
 ran ger
 pump kins
 pract icing
 pot ion
 pee king
 pat ted
 part ic
 m erry
 lo sing
 key s
 how ever
 fa ct
 dot s
 doll ar
 conf ident
 bra very
 batter ies
 back wards
 accompl ish
 Wh ist
 W ink
 Tw inkle
 Sof ia
 P up
 P ine
 P am
 O ur
 N ice
 M ix
 J ulie
 J olly
 Hor sy
 E x
 Cra b
 C ow
  
 
ust ed
or der
iv i
f ly
f ather
e al
ct ions
c l
Y ummy
Sp ike
S ome
Ru by
P ipp
M ine
L ulu
L e
G reat
F ine
?" ,
 work ers
 wire s
 wander ing
 use s
 unp acked
 twink ling
 stud ent
 stro ked
 ste ady
 st em
 st ain
 spr ang
 so fter
 snow men
 short s
 scr atches
 sat is
 rot ting
 roll s
 ro ses
 ri pe
 refre shed
 refle ction
 r isk
 pour ing
 po ster
 play ers
 plan ning
 pad dle
 pad d
 p ec
 out do
 necklace s
 n i
 mom mies
 miner als
 mar ked
 light er
 kne es
 guest s
 gri p
 foot steps
 fl ames
 firefight ers
 fill ing
 ent rance
 ent ire
 dolph ins
 dent ist
 decor ating
 de al
 count s
 competit ion
 comf orted
 chef s
 ch oo
 calm ed
 as ide
 arrow s
 With out
 Su zie
 S orry
 S l
 P aws
 O l
 N ick
 Mon ster
 F it
 En joy
 B irthday
 B iggie
z es
x ie
v room
umb ling
u ri
st y
se qu
sequ ence
ri xie
ol ine
led ge
ile s
ha usted
er cy
ent ly
el a
br ush
ay e
amp oline
al ph
Z oom
T ake
Ste ve
S n
Ro ar
O ut
M ike
L uckily
L izzy
K atie
G et
Fo llow
E llie
D olly
B ear
Ann ie
 win ked
 water ing
 wait er
 w ow
 tr ampoline
 towel s
 touc hes
 th ird
 t iss
 t angled
 surf ing
 supp orted
 strong est
 ste er
 st ool
 sing le
 sign ed
 shovel s
 she lves
 seek er
 resp ons
 remember ing
 relie f
 rec order
 r ising
 pray er
 pig gy
 perform ed
 past ries
 pass ing
 over joyed
 outdo ors
 o pp
 not es
 m ood
 lollipop s
 lick ing
 le ast
 know ledge
 inclu ded
 hid er
 he av
 flav or
 fl apping
 el bow
 drum s
 des ert
 con sequence
 con n
 close s
 chuck led
 cheek s
 ch at
 burn s
 beg in
 be am
 bat hing
 b unch
 Z ee
 Y awn
 Tweet ie
 St ella
 S w
 P u
 Jo jo
 J eff
 H ur
 Good bye
 D izzy
 B rian
 B ook
 Ann e
 A unt
 A bigail
   
urt les
uri ous
th s
rr r
rom ise
o ssible
n o
is ions
in ny
ich a
icha el
f all
e en
ber t
aut ious
R ose
P enny
M ay
J ump
H arry
D anny
 wip es
 whist les
 twir ling
 to aster
 th orn
 table s
 t urtles
 swoop ed
 sw ords
 surround ings
 st ew
 sque aked
 sp at
 snee zing
 ship s
 sew ed
 sa le
 ro cked
 rain s
 r usty
 r umble
 pray ers
 partic ular
 ornament s
 mushroom s
 mind ed
 matter s
 mach ines
 load ing
 kitten s
 join ing
 introduc ed
 instr um
 imp ossible
 human s
 hesit ated
 forgi ven
 fit s
 fair ies
 ex hausted
 end s
 dec isions
 dark ness
 dar ling
 danc ers
 cous in
 contro l
 consequence s
 br u
 bl own
 bath s
 bar s
 backpack s
 add ing
 achie ve
 a imed
 a ff
 Z iggy
 V ivi
 Sof ty
 S c
 Re g
 P h
 O xy
 N utty
 L au
 Kay lee
 J ones
 J anie
 J amie
 Hur ricane
 F ido
 B eth
 B elle
 1 0
  icing
y ou
ter s
s m
s hing
o ke
o dy
nd y
n eath
ll e
h i
g ers
ep t
ee se
dd ing
ch y
ce s
c ited
c ie
allow een
ad ing
ad es
ab el
Gra ce
C o
Be ep
B et
B aby
A lex
 your selves
 wr ist
 we e
 wake s
 un s
 u nd
 twist ing
 tight er
 test ed
 tal ents
 swimm er
 st ung
 st umble
 spark s
 slow ed
 slam med
 sk irts
 sew ing
 sal ty
 rob ber
 regret ted
 pri ck
 no dding
 ne are
 n uzz
 mes mer
 loop s
 lend ing
 jacket s
 heav ier
 heal th
 head ing
 gu ide
 grand father
 grace fully
 go bbled
 ghost s
 g oo
 g eese
 frown ing
 fork s
 forget s
 fe ver
 far t
 er ase
 doctor s
 dire ctions
 determ ination
 cur ly
 cr umb
 clown s
 car ts
 bump s
 angel s
 al oud
 W o
 To ot
 Th ose
 T oys
 Sp irit
 Sh iver
 Sad ly
 Ru dy
 P ink
 O ther
 M ill
 M ild
 M am
 L iam
 Jen nie
 Jack y
 J u
 F aye
 D ina
ron aut
re verse
oo sh
iver sity
it s
igg les
i el
V room
Sh rink
S ad
L ina
K im
K eep
F or
E ven
E lly
.. .
.' "
- -
 yield ed
 warm er
 vide os
 under neath
 tw eet
 tiss ue
 swit ched
 sweat y
 sw ept
 sun screen
 stro ll
 sol ut
 sn uck
 slipp ing
 sk unk
 sel f
 s y
 ruin ing
 rub s
 row s
 po s
 ple aded
 perform ing
 pec ked
 paint brush
 out f
 object s
 model s
 mag pie
 m ater
 lo ses
 li es
 le ap
 insect s
 hope ful
 honest y
 hid es
 gl ued
 frown s
 fle as
 fe ast
 fart hest
 e v
 don key
 doll house
 dis ob
 d en
 custom er
 crumb s
 country side
 comb ed
 cobweb s
 c or
 c autious
 breat hed
 bad ge
 b un
 b umpy
 avo id
 ast ronaut
 annoy ed
 am ong
 act ive
 Z ero
 Tr ust
 Thank s
 T ry
 T ippy
 T e
 Su ki
 St arry
 Sad ie
 S e
 M atch
 L ina
 J on
 Fro sty
 F le
 Did i
 C ro
ure n
ulp ture
r up
r ops
r in
pie ce
or ing
ll en
io let
ind rops
il o
ig ers
el ia
dd ie
ce pt
c c
bb ie
ara c
an s
an ed
ad die
a uren
Pipp in
P ut
L ena
G ina
Cl ara
C he
Bet ty
B uzzy
B oys
B ow
 zoom s
 visit ors
 uns ure
 un w
 trust ing
 tree house
 tip to
 talent ed
 t ipped
 t igers
 stuff ing
 squee zing
 spit s
 slow er
 sl ither
 sh own
 scr ub
 sc ulpture
 sc ra
 s way
 s ens
 respons ible
 remind s
 re ver
 re ason
 rain y
 ra indrops
 r ather
 pur r
 prin ting
 prick ly
 prevent ed
 plant ing
 pl ain
 o cc
 mater i
 master piece
 mark ers
 m unch
 loud est
 lead s
 knock ing
 join s
 inclu ding
 imag ining
 ignor ing
 ha lves
 gaz ing
 fl ight
 fan s
 e arn
 dragon fly
 do d
 design ed
 de f
 dam age
 curious ly
 cream s
 ch arac
 c ash
 buy ing
 blin king
 b acked
 as hes
 an ger
 ag e
 after wards
 ad ults
 ac he
 a ud
 Whist le
 W iggles
 T am
 P ercy
 P en
 Me gan
 M other
 M int
 L isten
 L aser
 H old
 H alloween
 Dave y
 D ay
 Ch ick
 C andy
 B ally
 B all
 B aa
 Al ong
 A dam
w ise
us ing
un o
ump h
ugg les
u ing
u de
pec ting
p it
os ite
oh ny
ob ody
lay ing
l en
it ude
it ion
it ches
iss a
ir a
ind a
il iar
f ound
end y
ch ing
cer ies
are n
amp ion
am iliar
al ed
ache l
U nder
T ina
Su zy
P at
P andy
K ate
Joe y
J ulie
J azz
H urry
F ro
D avid
D an
C indy
Al ways
' ."
!” .
 wound s
 wob bled
 wip ing
 weal th
 unw ra
 unf amiliar
 twist s
 twink led
 tw ice
 travell ed
 toss ed
 tire s
 temp er
 tast ing
 talk s
 t ing
 t in
 t id
 surpr ising
 surf board
 sto pping
 sto len
 sour ce
 solut ion
 sol ving
 so aking
 satis fied
 s ill
 ru bbing
 rever sed
 remind ing
 recommend ed
 rail s
 pres ses
 ple asure
 pl ucked
 pap a
 padd led
 oy sters
 over come
 opp osite
 occ as
 neare st
 m ooed
 m iles
 m aker
 lift ing
 l ower
 journey s
 ind eed
 in sp
 gro ceries
 for m
 flutter ed
 fl ipped
 firm ly
 fin s
 f reed
 every body
 ev il
 duck ling
 driver s
 color ed
 cold er
 che ers
 ch ampion
 caterpillar s
 camp ing
 c ott
 bun nies
 bu ses
 brus hing
 bow s
 bott les
 behavi our
 band ages
 aud ience
 am ount
 ad ult
 accomplish ment
 ab il
 Woo lly
 We apon
 W ake
 U p
 T rixie
 T ia
 Sn uggles
 Sn ap
 Sh ake
 Ol iver
 N ear
 I ndy
 Gra cie
 G ray
 E lle
 E d
 Br uno
 Blue y
 B ark
wh at
w oo
ver s
ur r
u ess
s on
pt op
own y
os en
ng ela
ls a
ke nd
ke lly
itt ed
ig hing
ide y
ic i
i bb
ibb it
ho pper
fe ree
er m
ck y
chie vous
ch o
c her
b ut
as hes
am b
all owed
al ing
ab ly
Th omas
T oby
R ibbit
Pe ople
O p
N ick
L iz
Jo sh
J essie
G uess
D ays
B r
B ill
B ang
Al right
After wards
A unt
A m
A bby
? !"
! ’
 you nger
 y elp
 wr itten
 with in
 wee kend
 was ting
 tub es
 trou bles
 trem bled
 top s
 thr own
 tap ed
 ta pping
 t y
 swims uit
 sw ap
 sw allowed
 stro ke
 strip s
 sque ak
 speed ing
 sp ice
 sniff ing
 shark s
 seas ons
 sc ored
 robot s
 rob in
 res ults
 res pected
 repe ats
 repe ating
 re feree
 rac coon
 r ays
 punish ment
 pout ed
 play room
 pige ons
 peace fully
 par ted
 pan cakes
 on ward
 on ions
 new found
 neat ly
 mis chievous
 lift s
 la ptop
 l ump
 insp ired
 in ches
 heal ing
 guard ian
 grass hopper
 goal ie
 garden er
 friendship s
 forget ting
 for ce
 fl own
 fl ock
 fl ip
 fig ured
 famil iar
 explore r
 encou rag
 effort s
 e cho
 e ase
 dri pping
 dri fted
 dec ision
 d ump
 cor re
 colour ed
 co nd
 cir cus
 ch osen
 ch ar
 cash ier
 borrow ed
 bel ts
 bec omes
 ban ged
 back s
 automobile s
 apolog ised
 act ion
 Y et
 Y ell
 W endy
 W elcome
 Tw o
 T ank
 Sh ow
 S kelly
 R uff
 R a
 Po or
 P in
 M ichael
 K e
 Jack ie
 Is abella
 H ook
 F ish
 Ex cited
 D usty
 Co pper
 Cl a
 C ally
 Br ad
 A corn
  ouch
th ur
t he
se ss
s a
ri er
ri ck
r thur
r ily
ork y
op es
o llen
m ates
m atch
j i
im m
ig ning
h og
h ive
f orm
es pite
en ing
c ope
at ur
arm er
an tern
ac les
a ver
Z ara
T ry
S oup
L ike
J on
J amie
H op
Co co
B essie
B ee
B arry
 wra pping
 wr ink
 win ners
 will ing
 wh imp
 we ighing
 we eds
 wa king
 to t
 tipto ed
 thorn s
 tea pot
 sw ollen
 st itches
 spoon ful
 spill s
 spice s
 sniff s
 smell ing
 sm ashed
 shap ed
 sh ady
 sens ation
 sec ure
 sc en
 sand pit
 re ct
 rat s
 r ust
 que ens
 purp ose
 pur rs
 poke s
 play house
 pl ot
 pat ches
 pack ages
 nuzz led
 need les
 n apped
 moon light
 mill er
 mes ses
 low ered
 liz ards
 libr arian
 langu ages
 l ent
 l antern
 l amb
 knot s
 joy ful
 invitation s
 hedge hog
 he ight
 haircut s
 h oo
 guess ing
 gro aned
 gra bbing
 fool ed
 enthusia sm
 dress er
 draw n
 disob ey
 design s
 cross ing
 crack er
 cra ft
 conn ected
 con s
 co sy
 co ach
 clean er
 cautious ly
 ca w
 bru ises
 breat hing
 bother ing
 bother ed
 bell ies
 behavi or
 begin ning
 bee hive
 b ully
 arri ves
 a im
 Yell ow
 W oof
 W illy
 Tim e
 Ste ppy
 St ret
 Sm oke
 R ia
 Pu ppy
 P urr
 P izza
 P ill
 Mam ma
 L uckily
 L ion
 Kay la
 J ay
 Is n
 F orky
 Cla ire
 Cl oud
 Ch r
 Ch a
 C D
 Bl oom
 B i
 Al though
 A pp
 A bbie
  2
z oom
z i
y es
ush room
ur render
um mies
ul f
th at
t ock
se ed
ri ver
ri e
r ig
pp ies
or ter
or king
on ies
om b
le y
ld y
iz on
iv ity
in itely
im mer
ill ed
ight y
id dy
i ving
i ky
i bbles
f us
ert ain
el ing
ear s
e zi
by es
be ep
b a
ater pillar
arm en
anna h
an et
an ced
ag ic
af y
a iley
Z ip
Wh ich
Sh aring
R ay
P ip
P inky
Mar ie
Fred dy
B y
B rian
B ounce
 worry ing
 wob ble
 wis ely
 wh oosh
 we pt
 water fall
 wa ded
 w ider
 uniform s
 t ying
 t ummies
 t umbled
 sweat ers
 swe ep
 suffer ing
 stream ers
 store keeper
 stom p
 stamp ed
 squ aw
 spring ing
 sniff led
 sl apping
 shop s
 ser v
 screw s
 scratch ing
 sc urry
 sa v
 resp ond
 relax ing
 rect angle
 real izing
 prob ably
 pos sess
 pinch ing
 peel ed
 p onies
 not icing
 motorcy cles
 mon ths
 mom ma
 mo ons
 mind ing
 min ts
 mean ing
 me als
 mass ages
 mark er
 man ners
 lar ger
 label s
 la ces
 k ings
 job s
 instrum ents
 insist ing
 in j
 hor izon
 hands ome
 good byes
 gl ared
 gigg les
 gem s
 gasp s
 g est
 fo cus
 film s
 fill s
 exerc ises
 encourage ment
 encourag ing
 enc ount
 ed ges
 door way
 display ed
 discuss ed
 destroy ing
 def initely
 de ed
 dance s
 d ip
 d aring
 creat ivity
 crack ers
 cow b
 corre ctly
 con vin
 cl ues
 cl icked
 che aper
 ch anges
 cent re
 cent er
 care s
 c oug
 bright est
 bl ast
 bird seed
 belong ings
 beep ed
 b omb
 b itten
 aeropl anes
 admir ation
 activ ity
 Un iversity
 T ree
 T iger
 T idy
 T ake
 Sp oon
 Sp idey
 Ru fus
 R ich
 R ain
 R achel
 O kay
 O ink
 N obody
 N ibbles
 Mix y
 Mel issa
 Me owny
 M ushroom
 M op
 M ighty
 M an
 Lou ise
 Le afy
 Jo dy
 J ump
 J em
 Gr anny
 Frank ie
 Fl ora
 Fl ame
 F ire
 F armer
 E lsa
 Do ll
 Dan iel
 Cro co
 Cra bby
 Co coa
 Cl imb
 Ch irp
 C omet
 Book s
 B umpy
 A ngela
  ill
year s
y l
wh ile
us hing
urp le
umph rey
um s
ud rey
st alk
ss y
ro ken
rig ued
ret ty
ra b
oun ced
oph ia
ong r
on se
on na
om p
nt il
mb ers
keep ers
izz iness
it er
ir ls
ina ld
ic ip
i bby
hing s
gu ess
ex i
erm s
er k
er ious
er ing
end ing
e eling
d river
ct ar
c used
bo at
b roken
b i
b age
ay a
atur day
at ty
ast y
ar ty
ap ers
ap aya
ant ha
an while
ac ing
a is
a ct
W ant
T illy
S low
R ock
R R
Qu ick
P r
P apa
On ly
O live
Not hing
J olly
In stead
How ever
F rank
D ear
D eal
Bird y
Be hind
B op
Al bert
== ==
, '
 wrink led
 wr iter
 wh ales
 w ig
 visit s
 visit or
 vest s
 vehic les
 twink le
 travell ing
 tow ard
 to ad
 through out
 thought s
 ta pped
 t uck
 t ies
 street s
 stir s
 stern ly
 st un
 st ings
 st all
 st acked
 sprink led
 sn orted
 simp ly
 sh all
 set s
 seagull s
 se als
 scurry ing
 screw driver
 sad der
 run ner
 ro ds
 risk s
 return ing
 resp onse
 re wards
 re app
 race s
 r otten
 present ed
 prep aring
 pour s
 pol itely
 pl ug
 pen s
 pen nies
 pay s
 pan icked
 p uff
 own ers
 outf its
 obser ving
 ne ctar
 n ur
 n asty
 mesmer ized
 me mbers
 may or
 magic ian
 m itt
 his sing
 hesit ant
 ham m
 greet ed
 grass y
 gl itt
 gen ie
 gar bage
 g onna
 flo ats
 flap s
 fisher men
 farm ers
 f aded
 drive way
 difference s
 demand ing
 delay ed
 dan gers
 dam aged
 d izziness
 cut ter
 cre ations
 cop s
 cons ider
 con cer
 comm un
 comm on
 cle ared
 class mates
 cl ue
 charac ters
 ca fe
 bur st
 bu dge
 bu bb
 brave st
 bra ver
 bo l
 bo ards
 bl ocked
 bit s
 bel oved
 bean stalk
 be aver
 be ast
 bat hed
 aw are
 are n
 ant icip
 annoy ing
 allow ing
 aff ect
 act s
 a is
 Y og
 Wo nder
 Un i
 U ntil
 T oy
 T ato
 Sw ing
 St an
 Sp inny
 Sl inky
 Sh ampoo
 Se at
 S k
 S aturday
 Reg inald
 R oy
 R alph
 P l
 O uch
 O ld
 N umber
 N avy
 M ic
 Le opard
 L uc
 L auren
 K elly
 Ju dge
 Jo an
 G iant
 Fle xible
 Fl appy
 Fl ap
 E ddie
 C ross
 C ici
 B ucky
 B ad
 App le
 A rm
 A nt
 
yl v
ylv ia
w ater
ver al
up in
ug gy
u ses
so l
s n
ra ve
r inky
qu et
p arent
ou quet
oo chy
ol o
ment s
le ct
la ire
l ine
j ack
izz ie
iv ia
iron ment
immer ing
ill ip
if t
ie ce
ic s
i b
ho le
g iving
es ses
er ts
el ope
el ie
d ate
cream s
cl oud
ck less
c ted
c ent
b ird
b ed
ath an
at itude
ash a
ang a
ac le
ac her
a ven
Will ow
Un cle
Tr ust
T w
So f
Sh ould
Sad ie
R alph
P romise
M on
Le ave
K ing
J ohny
Is abella
H mm
Good night
Do es
C laire
B oth
B inky
B eth
A va
A dam
 yelp ed
 wis er
 wa dd
 vi br
 un able
 travel ing
 tr ading
 the at
 terri fied
 temper ature
 teacher s
 ta le
 symbol s
 sy rup
 sweet est
 sw allow
 support ing
 sunf lowers
 store s
 stomach s
 stat ues
 sque aled
 spray s
 sn ug
 sn ar
 slither ed
 slip s
 sk ate
 shin es
 share s
 sh orter
 sh h
 se veral
 scold s
 sc ent
 sail ors
 sail boat
 s ou
 rust ling
 roar s
 river s
 real izes
 re ckless
 re ass
 ra king
 r ack
 quack ing
 puzz led
 post c
 pl ugged
 pill s
 perm itted
 perform er
 perform ance
 pedal ed
 pack et
 p ouch
 p ant
 opin ions
 offer ing
 newsp apers
 nervous ly
 mush y
 munch ing
 meow ing
 materi als
 mail ing
 magaz ines
 lung s
 lunch time
 long est
 l un
 j ing
 inv ites
 int rigued
 hot ter
 his ses
 hes itation
 gu ards
 grand parent
 gr atitude
 glow s
 gener osity
 g ap
 fun n
 forgiven ess
 forgive s
 fo cused
 flav ors
 f ist
 explor ation
 exp ress
 ex cept
 envel opes
 env ironment
 encount ered
 earn ed
 e ld
 dress ing
 dream t
 dollar s
 disturb ing
 disag re
 dig s
 dess erts
 des pite
 de fe
 cup cakes
 cudd les
 crow d
 cro aked
 corn s
 convin ced
 comfort ing
 coll ap
 cloud y
 cloth s
 clos ing
 cl erk
 choo sing
 chew y
 che at
 c ertain
 bu d
 bird house
 beam ing
 bat t
 basket s
 b ouquet
 b ound
 art ist
 appreci ation
 anticip ation
 am used
 Zoe y
 Will iam
 Wh ip
 W ait
 V iolet
 Tweet y
 The rmometer
 T ick
 T ibby
 Sh iny
 Rob ot
 Re ady
 R azor
 Qu ack
 Pen elope
 Pe ep
 P op
 P ol
 P laying
 P ippy
 On ly
 O p
 O h
 N ate
 Mar sh
 M oppy
 M ina
 M ilo
 Lau ra
 L exi
 L and
 J une
 H atty
 F un
 F ix
 Every body
 D ust
 D espite
 Ch ug
 Ch uck
 Ch ip
 C le
 C aterpillar
 Br ush
 Bob ba
 B rave
 Aunt ie
 Am anda
 A udrey
 A ly
 A bi
 ' '
  5
y an
we ed
ull aby
ul a
ugg ing
u ise
st ick
ss a
sn ap
s ers
ry a
riend ship
p op
ot s
ot ato
ort unately
ord an
ook ie
ongr at
ongrat ul
on st
oin t
oe ver
oc co
o ff
m ing
m ate
l or
it a
ir cle
ip es
in ted
ild ren
ig e
ien ced
id ence
id en
ic ent
i very
ffic er
f l
f ire
et s
ere sa
em ies
el ina
ear l
c ri
bb ers
b ell
b ank
az y
at t
ass port
as ers
arm ony
arl ings
ang les
amp ered
amed ics
ais ies
ag net
ab elle
Z oe
W ake
Su zie
Some one
Sof ia
Sn ow
S un
S queaky
S plash
S peedy
Rob ert
Rob by
M other
M el
K iki
K ids
K aren
J ess
J acob
I ce
H oppy
H o
G ot
G ogo
G igi
Fro ggy
Fin ny
E at
D anger
C arl
Ann e
A bigail
  
 wink s
 whisper ing
 whimp ered
 wh iskers
 wh ir
 wh ine
 welc oming
 was hes
 warm ly
 vibr ant
 unwra p
 understand s
 und one
 ty pe
 tun es
 tri angles
 travel s
 town s
 tool box
 tid ied
 thunder cloud
 theat re
 tent acles
 team s
 swimsuit s
 sun s
 suit s
 suit case
 sty les
 str um
 storm s
 steer ing
 spo iling
 sp y
 so ot
 snow fl
 smo other
 smart est
 sled s
 situ ations
 siren s
 shr ank
 shin ier
 second s
 sea weed
 scra ped
 sc ampered
 sal on
 ro be
 ro bbers
 river bank
 ri ches
 res isted
 rep airs
 refre shing
 real ise
 re un
 re ly
 r ushing
 quarrel ed
 pupil s
 prov iding
 press ing
 pract ised
 pr ove
 pr ank
 play date
 plan s
 pe cks
 pass en
 par amedics
 p uck
 p ound
 owl s
 obey ed
 o dd
 ni bbled
 n iece
 mug s
 mix ture
 mess ed
 med als
 m er
 lumber jack
 luck ily
 lo cks
 lecture s
 l ullaby
 joy fully
 jet s
 inj ured
 hunt ers
 his s
 hipp os
 her on
 helicopter s
 heart broken
 he aven
 hat ch
 ha bit
 guard ing
 gu ided
 gu esses
 gr umbled
 gl anced
 gest ure
 g lee
 fog gy
 fl ips
 fix er
 fire s
 fin ishing
 fin al
 fact s
 fa ith
 fa iled
 f ulf
 explain s
 expl o
 exper ienced
 ex pecting
 en emies
 echo ed
 door bell
 disobey ed
 disagre ement
 dig ger
 different ly
 des igning
 dem onst
 delay ing
 del ivery
 dad dies
 d ing
 d arlings
 d aisies
 crown s
 crocodile s
 cricket s
 cream y
 cra shing
 cover ing
 cous ins
 cott age
 cond uct
 concer ned
 compet e
 color ing
 cl ut
 chew s
 cell s
 car ve
 cable s
 ca using
 bulb s
 bol t
 bloom s
 bl ur
 bl ades
 bl ade
 bend y
 bend s
 b less
 att end
 ar r
 answer ing
 ann ounced
 ang rily
 ang rier
 all ey
 al though
 ais le
 achie ved
 abil ity
 Wh oever
 W ise
 W ell
 W ar
 V olly
 Tr ucky
 To dd
 T y
 T ock
 T izzy
 T eresa
 Sun shine
 Ste aling
 Squ are
 Sp icy
 Sp ace
 Snow ball
 Sk ip
 S ummer
 S ince
 Ru de
 Ro ll
 R yan
 R ita
 R icky
 R h
 Prin t
 Ph illip
 P urple
 P oint
 P et
 P assport
 P arty
 P apaya
 O xygen
 O fficer
 Mix ie
 Mel on
 May a
 M uggy
 M s
 M ore
 M ake
 M addie
 Lau rie
 L ots
 L azy
 K anga
 Jane y
 J umpy
 I ce
 He llo
 Gra nd
 Fl ick
 F riendship
 F ind
 F air
 D ull
 D ot
 D ezi
 Cloud s
 C ara
 C able
 Bu ssy
 Book er
 Bob bie
 Bird s
 Bi bo
 Ben ji
 Beep y
 B and
 Al bert
 A rya
 A c
” ,
w en
ver ed
ven ir
und red
un ched
ug ar
ub ber
u ild
u ard
uard o
th a
se l
s he
s ack
ro ccoli
rn ie
rin ts
re st
re pe
repe at
re es
r ough
r ons
r ings
r ina
r ation
qu ar
quar ium
pe ed
p rints
p er
ou raged
ore nce
op y
ook s
on nie
o kay
nd les
n or
n e
m el
mel on
m ar
jam in
ive s
ipp ers
in cy
imal s
igg led
ig ger
ien na
ie ves
ic ola
ic ious
ic ate
ib il
gu ard
ex it
etch up
ess y
elly fish
elie ve
el ix
ead ing
e ven
e se
d oo
d og
d mother
d inky
d ges
d ad
ctop uses
c ouraged
c an
c ake
ball s
at y
as hing
arth a
art led
ans form
and el
amp s
al i
ag er
ac y
ac coon
ab rina
a ige
W iggly
Tw o
The o
T ed
T ara
St ill
Sn ap
Sh rinky
Sh are
Sad ly
S urrender
R abbit
P olly
Out side
Op en
N ice
N ear
Me anwhile
Mar ia
M artha
M addie
K elly
Jack ie
J oy
J ay
Is n
H ope
F riends
F ish
E n
D uck
Ch loe
C urious
C aw
C atch
B ug
B o
B elle
A rthur
A ny
' ,
 zoo keepers
 wra pper
 wild f
 weigh s
 web s
 weak er
 water melon
 war ri
 waist band
 unt w
 unt angle
 treat ed
 tre as
 tr ansform
 touc an
 ting ling
 than king
 th ieves
 test ing
 temp ted
 swit ches
 sway ing
 stroll ed
 stret ches
 stom ped
 ste pping
 stain s
 squaw ked
 spill ing
 sp ies
 sp ed
 sou venir
 snowfl akes
 snar led
 sn apping
 sl ug
 skate board
 sil ent
 sh ooed
 see king
 scen ery
 sc re
 sav anna
 reun ited
 rec ipe
 r uff
 r out
 r ises
 r ider
 qu ilt
 protect s
 post s
 po ppies
 pl umber
 peel s
 peek s
 pearl s
 particular ly
 p oop
 p asses
 other wise
 ostri ches
 op t
 on line
 occas ions
 occas ion
 ob st
 novel s
 night fall
 neighbour s
 mind s
 mesmer ised
 melt s
 meat balls
 matt resses
 m ur
 m oo
 m ate
 life guard
 lesson s
 learn er
 le vel
 lamp s
 la z
 l ur
 l imp
 k etchup
 introduc ing
 intellig ence
 int ently
 instrum ent
 hum ming
 ho st
 height s
 hear ing
 hand ing
 ham ster
 ha w
 h uff
 h oof
 go dmother
 giant s
 gear s
 g erms
 freez ing
 freed om
 forest s
 for ts
 foot prints
 flutter ing
 firefight er
 fence s
 f et
 experience s
 exam ining
 ex ch
 er asers
 enter ing
 enjoy able
 end ings
 emer ged
 emb ra
 ear rings
 dump ed
 dri p
 dri ft
 dod ging
 dod ged
 dive s
 disg uise
 disappear s
 demonst rated
 d ips
 d et
 d ep
 d ashed
 d andel
 cr uel
 coug hed
 cop ied
 contain er
 conf idence
 conduct or
 con cent
 comput ers
 comb ing
 clo ver
 cl ip
 cher ish
 check ing
 char ge
 ch atter
 calm ly
 c ongratul
 bury ing
 bo il
 blue bird
 bill s
 beaut if
 batt le
 b uddy
 b orn
 aw ful
 att em
 att ack
 astronaut s
 appro ach
 applaud ing
 ap rons
 airpl anes
 ag es
 aff ord
 af ar
 add ress
 accompl ished
 a quarium
 Yog i
 Woo ly
 Wo lf
 Te acher
 T ra
 T ip
 Sw itch
 Sunday s
 St ill
 Sp iky
 Sl ide
 Sam antha
 S ophia
 S ly
 Ros a
 Rain bow
 Ra e
 R ubber
 R olly
 R ick
 Queen y
 Pup il
 Pu ss
 Prin ty
 P otato
 P oochy
 Or in
 O x
 N urse
 Mon key
 Mar tha
 M agnet
 L upin
 L umber
 L ime
 L ife
 Ke vin
 John son
 Jem ma
 J ellyfish
 J ed
 Her bie
 Her b
 H umphrey
 H ank
 Gr umpy
 G inny
 G ill
 Fred rick
 Fl orence
 F elix
 Ed uardo
 Dog s
 D eal
 Climb ing
 Chr is
 Ch air
 Carl os
 Car s
 C ory
 C ookie
 C live
 C elia
 C armen
 Bu ry
 Bu ndles
 Bree zy
 Bee Bee
 Be cky
 Bark y
 Ball ie
 B roccoli
 B ones
 B essy
 B ang
 Ann abelle
 Aly ssa
  icky
w ee
v as
ut ely
us sel
us p
usp icious
us ic
up ine
u ss
t ail
ster ed
st orm
sol utely
sh op
se y
ret t
re nt
rance s
que e
quee ze
pe ck
peck er
ous y
oup le
ou la
ou ched
os cope
ort h
or ay
oe be
o ving
o f
o ard
n if
me ow
m oo
m iest
les cope
lect ric
l ong
l o
l ared
l ap
k ie
k a
j ust
it ive
ir an
in ct
imm i
im ent
il ted
ight ing
id ier
ic o
ic ated
get s
get ic
fa ction
ever se
eth oscope
et ah
er f
en ee
ec c
ecc a
e in
cident s
ch ard
c upine
c led
c at
bo ards
be h
b um
b uild
asket ball
as ant
ar rin
ar ley
ap ons
ap es
ant r
ant elle
ant astic
and as
an ion
amp i
am boo
allow s
al f
ain t
ail s
Z igzag
With out
Will iam
W ednesday
To ot
T ree
T oto
T ony
T am
St and
Snow y
Slow ly
Ro ver
R uff
P am
N ora
N ina
N ever
N ate
Me gan
M ouse
M int
M ilo
M agic
L uke
Jon ny
J une
J anie
Hi ppy
H oney
Gra b
Fo xy
F reeze
F ortunately
F l
Dave y
D own
D ing
Che ap
C rab
C andy
Br own
Br ad
B rrr
B less
B ack
B aa
Am anda
Al ong
Ah oy
A w
A rrr
 z ipping
 yum miest
 work shop
 wood pecker
 wo lves
 wo ken
 windows ill
 wind s
 wildf lowers
 who ever
 wadd led
 w iggly
 w icked
 valley s
 ur ging
 up side
 unwra pped
 under water
 tw enty
 treas ured
 transform ed
 tr igger
 tour s
 toss ing
 tim id
 test s
 tent s
 te lescope
 tap s
 t umbling
 t er
 t end
 t antr
 sweet er
 swan s
 surrender ed
 success fully
 stun ning
 stroke s
 stretch y
 stor ed
 staff s
 stack ing
 st ethoscope
 squee zes
 squ ished
 space s
 snow ing
 snee zes
 sneak s
 sn ipped
 sn ip
 sleep s
 slap s
 since re
 shrug s
 shr unk
 shoot s
 sh oo
 sh atter
 sett ling
 serv ant
 sandcast les
 sack s
 row ing
 roof s
 rest oring
 respond ed
 resc uing
 reapp eared
 real ity
 re build
 rag s
 ra ising
 protect ion
 pro ved
 pro d
 pro cess
 post man
 possess ion
 por cupine
 pony tail
 po se
 pl ank
 pilot s
 persist ence
 pedal ing
 pe ep
 past or
 p ipes
 p andas
 own s
 outf it
 out come
 ord ers
 or chard
 o ctopuses
 nightmare s
 night s
 ni bble
 ne cks
 mur ky
 mu stered
 mind ful
 mess ages
 mer ma
 materi al
 mate y
 mat s
 mar ve
 mailbox es
 mag nif
 lur king
 lean s
 le aking
 lay er
 lawy ers
 law s
 la ce
 l ush
 kneel ing
 kiss ing
 key hole
 kayak s
 k illed
 jack s
 j ugg
 it ches
 inf orm
 in ter
 hor ri
 hook s
 hon king
 holiday s
 ho e
 head ache
 he y
 haw k
 hard est
 hang ers
 haircut ter
 h undred
 h ood
 gu ilt
 grandparent s
 good ness
 goo ey
 glitter ing
 glitt ered
 frust ration
 fl ashes
 fl ashed
 fet ched
 fa cing
 f uzzy
 f ired
 f if
 f erry
 f antastic
 f ade
 exper iment
 exp ert
 exam s
 eng ines
 ener getic
 elbow s
 dri ll
 draw ers
 dr own
 discuss ing
 discover ies
 disappoin t
 disagree ing
 dis couraged
 diamond s
 di v
 des cri
 dec lared
 dandel ion
 custom ers
 cur rent
 cub s
 cre ep
 cr ushed
 cowb oys
 cott on
 coo ed
 contin uing
 con vers
 con qu
 comp anion
 commun icate
 collap sed
 cl am
 chocol ates
 cho pping
 che etah
 che ated
 chat ted
 chain s
 ch in
 ch illy
 ch ill
 car ries
 can vas
 c ouple
 bush y
 bur row
 bump ing
 bubb ly
 br akes
 bound ed
 bo oth
 bl ushed
 bl ob
 bird ie
 beep s
 beautif ully
 beak s
 be ating
 bang ing
 b amboo
 ast on
 al bum
 agree ing
 adventure r
 accident s
 abil ities
 ab oard
 Z og
 Z ane
 Whist ler
 W in
 V room
 U sing
 U se
 Truck o
 Tom orrow
 Thanks giving
 Th ink
 Te ach
 T uck
 T hings
 St acy
 Sp idy
 Sh arp
 Sh are
 Se an
 S uper
 S ugar
 S peed
 S oup
 S ister
 S ienna
 Rh ythm
 R ussel
 R ory
 R opy
 R olo
 R occo
 R ico
 R avi
 R accoon
 Quack y
 Pol ite
 Po kie
 Paul a
 P ick
 P erri
 P earl
 P ast
 On ion
 Ol ivia
 O t
 O at
 N ora
 N ight
 N ever
 Mo dest
 Mill icent
 Mic roscope
 Mel inda
 Marsh a
 M ousy
 M ine
 M ick
 M abel
 Luc a
 Le a
 L izzie
 L inda
 L ift
 Ke ith
 K in
 K aty
 K aren
 Jon ny
 Jon athan
 Jo die
 Jo anna
 J ordan
 J ason
 I m
 I cy
 Help ing
 H ula
 H annah
 H ana
 H ailey
 Gr amps
 G wen
 G l
 Fle ur
 Fl utter
 Fl ip
 Fl ash
 F urry
 F old
 F ighting
 F anny
 E va
 Do es
 D ream
 D ee
 Cow y
 Cl umsy
 Cl ose
 Cl aws
 Chew y
 Che f
 Che ese
 Ch antelle
 C urious
 C on
 C omp
 C ate
 Bl ake
 B onnie
 B olly
 B ed
 B asketball
 Ann abel
 Am ie
 After wards
 Ac cidents
 A man
 A lf
wh oosh
w orking
w hee
w elcome
v ive
v ince
us an
ur ora
unt ed
un iversity
um m
um ed
ul ped
ud ged
uck sack
u nder
st upid
st antly
ss il
sh rink
sh m
shm allows
sh aped
sh adow
s ery
ring e
ress ed
re s
r it
pt ing
par able
p r
p ow
p her
p an
ot ion
os ure
ord inary
op en
op ed
oop er
ond e
on fused
o ot
o ison
nam on
n ip
n ings
mar ine
m as
low ing
ll s
ll ing
ll ent
ll as
le st
le am
le af
l ot
l ike
l ied
l aw
l aud
k s
k er
j est
izz es
ive ly
it ched
it am
isten ing
ist mas
ir i
in ner
in namon
im a
ight ning
ient ist
id den
ick ing
ic ers
ic ally
ia o
i ens
h oo
h ne
g r
f reeze
f ree
f lowing
et a
er al
ell ie
el sey
el ax
ead ow
e il
e ce
e at
e an
d es
d aughter
cut ter
col ored
co at
ce llent
bb ling
b s
b ounce
b oom
b ling
b ang
az el
ay lor
au ra
ath y
ately n
at form
at al
atal ie
ar ted
ar s
app laud
ap tain
ap hne
anger ous
ance lot
an ation
amp le
am bled
al erious
Y esterday
Y ears
Wh ist
W o
W isdom
W he
W ally
V iolet
T rixie
T en
St ella
Sp in
Sp ark
S weet
S qu
S c
R os
Pipp a
P retty
P laying
P lay
P izza
P in
O xygen
M ove
M ittens
M ila
M ichael
M any
M abel
L ion
L auren
L aura
K elsey
K ay
Jack y
J illy
I zzy
H annah
G row
Fro g
Fin n
F ree
F eeling
E ver
E lephant
E ddie
Dan iel
D ino
D are
Che ck
Cat ty
C onfused
C elina
Brown ie
Bird s
B u
B ooks
B all
Aunt ie
Ah h
A nt
A T
? !
. ’
!' .
!' '
 zip s
 zebra s
 yield ing
 wr iggled
 wor st
 wood cutter
 win king
 wigg ling
 wh ines
 we apons
 warri ors
 waistband s
 unl o
 unicorn s
 un z
 un less
 umbre llas
 trust s
 trumpet s
 tre et
 trap s
 trail er
 tr ot
 to pp
 tick les
 thumb s
 th ump
 tend er
 tantr um
 tank s
 table t
 t ugging
 t ar
 sy ringe
 sway ed
 sw ir
 surf ed
 sur vive
 supp lied
 suggest s
 suggest ion
 succeed ing
 sub marine
 stud ies
 stri king
 st ump
 st inky
 squ ir
 squ inted
 sprink le
 spr ung
 spo ken
 speed s
 speak er
 spe ck
 sp ied
 soon er
 soft ness
 soft est
 soft ened
 soap y
 sniff ling
 snee zy
 sm ash
 slice s
 sle igh
 sl ime
 sign al
 sick ness
 shy ly
 serv ants
 serious ly
 ser ving
 secret ly
 se ction
 sculpture s
 scru bbing
 scr unch
 scr ambled
 scoop s
 scen e
 scare s
 sc owl
 sc ientist
 sc ience
 satis faction
 sa ves
 s uspicious
 s ly
 s inking
 ro les
 ro amed
 ribb it
 res pecting
 rele asing
 ref using
 rain coat
 rac ers
